#version: 0.2
Ġ t
Ġt h
Ġ a
i n
Ġth e
o n
r e
a t
e n
i s
Ġ o
e r
Ġ w
Ġ s
i t
Ġ c
i on
Ġ p
o r
a n
Ġo f
Ġt o
e s
Ġ b
Ġ in
Ġa n
Ġ f
a l
r o
e d
Ġan d
o u
Ġ m
a r
en t
in g
i c
Ġ h
Ġ d
Ġ re
l e
o m
Ġ n
v e
Ġb e
s t
Ġ is
Ġth at
c t
i l
Ġ e
l y
a s
at ion
m ent
p e
Ġ on
Ġw h
o t
Ġf or
u t
i d
Ġw e
Ġ C
Ġ E
i m
Ġp ro
Ġ l
s e
u r
Ġ g
T h
or t
c e
Ġc on
o l
Ġ it
u n
Ġa l
e t
re s
r a
Ġth is
l d
om m
Ġh a
v er
Ġ I
Ġa s
Ġa re
u ro
Ġ M
u l
Ġd e
it h
p ort
Ġ P
i g
uro pe
ĠE urope
o w
Ġw ith
c h
ou ld
Ġn ot
il l
Ġha ve
i es
Ġs t
s ion
at e
i r
Th e
Ġs u
ou n
a y
ic h
e m
it y
Ġwh ich
ĠC omm
t h
Ġn e
o p
b le
i ve
ĠEurope an
a d
o s
k e
Ġ S
u s
t er
Ġe x
i f
u st
o re
Ġw ill
Ġs h
Ġ y
Ġb y
er s
is sion
an t
a in
i a
es s
e ct
Ġ v
i al
Ġ im
q u
ig h
Ġh as
Ġ en
e re
Ġ r
ĠComm ission
o c
es t
Ġa t
Ġa g
i v
a m
g e
ar t
Ġc om
b er
ou r
u re
Ġre s
t r
u m
Ġo r
Ġal l
Ġ un
Ġ le
ion s
Ġ U
res id
en d
igh t
p p
Ġs e
i e
s o
Ġ A
f f
ro m
Ġw ould
Ġc an
Ġw or
Ġal so
ĠM r
ĠP resid
e l
Ġp ol
Ġm e
Ġin t
o d
ar d
Ġthe re
u p
Ġsh ould
an d
Ġd o
is t
Ġt a
Ġo ur
u d
ĠU n
Ġp art
at es
Ġf rom
Ġ -
Ġre g
W e
ar l
ĠPresid ent
Ġm ust
ver y
Ġa d
ation s
Ġa m
p port
Ġf a
arl ia
arlia ment
ic al
Ġb ut
d er
ĠS t
Ġc oun
re e
Ġbe en
u se
ul t
is h
ĠM em
ment s
c on
Ġa b
ve l
an s
Ġa c
ĠUn ion
Ġg o
Ġm a
Ġcoun tr
u e
p l
' s
ou t
om e
ou s
Ġc h
al l
re at
Ġre port
i re
th er
Ġy ou
Ġl i
ĠP arliament
c il
d u
ar y
Ġ j
p os
k ing
I t
p le
b l
Ġ G
Ġd is
Ġm ore
a c
Ġw as
a st
Ġc omm
Ġ qu
Ġne ed
g h
Ġ us
c ess
Ġcon t
o se
an ce
Ġc o
s i
Ġin c
Ġt r
ĠMem ber
Ġit s
ĠSt ates
re n
Ġ 1
Ġ 2
Ġ B
a ble
0 0
Ġa pp
Ġli ke
ĠE U
ĠC oun
ĠCoun cil
Ġthe ir
Ġs o
Ġim port
I n
p t
im e
Ġr ight
it t
ct ion
al ly
Ġ very
e ar
Ġcon s
Ġp os
it ion
un d
Ġwh o
Ġp e
Ġp l
Â ł
Ġ R
on g
h er
Ġbe c
Ġcon c
Ġpol ic
Ġpro pos
Th is
Ġp r
o in
f ore
Ġthe se
ation al
Ġf in
ut ion
Ġthe y
en s
res s
c y
Ġp re
Ġon e
or m
a use
Ġo ut
j ect
c es
ter n
Ġcountr ies
Ġh e
r u
Ġ T
en ce
â Ģ
oin t
c ial
at ed
Ġo ther
Ġth an
Ġm an
b il
pe ct
Ġwor k
p er
Ġ F
is e
vel op
Ġwh at
Ġab out
Ġbe t
con om
Ġm y
Ġin d
it ies
Ġsu pport
op le
c ed
l l
Ġ up
g et
id e
ic e
Ġs pe
Ġe ff
it i
Ġimport ant
Ġne w
ar k
on e
a re
o g
Ġs a
ig n
a g
Ġde c
Ġy ear
Ġ ra
Ġpe ople
er n
Ġon ly
m s
o st
Ġt ime
Ġde velop
Ġpart ic
f orm
Ġ H
a ge
Ġn o
Ġun der
e e
Ġ D
ra m
Ġag ree
Ġpolic y
i ous
Ġe conom
Ġis s
as e
Ġe v
Ġag ain
Ġbec ause
e ver
Ġ k
ul ar
Ġpropos al
Ġ if
Ġre c
Ġa ct
Ġc l
Ġle g
r i
ie ve
Ġv ot
Ġt ra
a ch
Ġc r
M r
bil ity
ent ion
Ġe m
Ġs oc
le ar
t ain
Ġthe m
Ġde m
ere n
Ġ L
Ġ N
u res
p on
Ġg ro
w e
Ġs er
Ġan y
Ġn ow
i p
res ent
Ġpro v
ir st
if ic
in e
Ġin st
am e
Ġp oint
Ġsu ch
Ġre l
Ġpol it
e p
if f
Ġh ow
Ġtr ans
Ġpro g
at ive
ire ct
un ity
a ce
Ġs ome
Ġl a
Ġta ke
Ġcom p
Ġs ay
Ġpartic ular
si ble
Ġin v
Ġbe l
Ġo b
Ġma ke
Ġm ark
e w
Ġsu b
Ġint o
we en
ad e
Ġbet ween
Ġconc ern
k s
Ġth ose
Ġd iff
g y
Ġt er
a p
Ġde b
Ġpro ble
Ġfa ct
Ġim p
se l
itt ee
Ġj ust
u bl
Ġpro du
x t
n ow
r ic
Ġp er
Ġbe ing
u gh
Ġmark et
Ġright s
um an
Ġwh en
Ġw ay
ver n
Ġ (
iv es
u es
or d
Ġpolit ical
Ġthere fore
l ud
Ġqu est
at ing
in k
Ġapp ro
Ġc lear
v ed
Ġac c
Ġs y
Ġo ver
Ġm ade
Ġres pon
d ay
o b
Ġt e
ur al
Ġwe re
ard s
ce pt
Ġ ro
a ct
Ġb as
c i
ubl ic
en cy
Ġf irst
ie w
Ġpro t
Ġeconom ic
ou gh
o y
Ġw ant
Ġf und
Ġk now
Ġin tern
Ġre f
Ġg reat
Ġbel ieve
r at
er ation
ac k
Ġ2 00
Ġre m
Ġh uman
in d
Ġst r
Ġdis c
st em
v ing
i an
it u
is ion
it e
Ġd irect
Ġsoc ial
Ġse e
e g
Ġas s
Ġman y
or s
iti z
Ġagain st
W h
Ġo p
Ġme as
ro ugh
ĠCommission er
i b
Ġsy stem
Ġm at
Ġad d
Ġat t
ment al
a k
f ul
an g
m e
Ġre qu
Ġfin an
Ġdeb ate
Ġam end
Ġs itu
Ġc itiz
Ġprot ect
Ġt w
Ġex t
u al
w n
ud get
u ch
Th at
n ot
The re
Ġth ink
d e
i ed
Ġinc re
is ed
ol ution
l ow
Ġgo od
er tain
re ad
Ġ âĢ
Ġeff ect
Ġwe ll
b ers
ren t
Ġen s
Ġto o
op t
ĠComm ittee
r y
Ġa r
ot h
le ct
Ġev en
Ġdevelop ment
is m
Ġiss ue
Ġad opt
Ġyear s
Ġquest ion
pl oy
o pe
Ġwh ere
Ġcons id
Ġcitiz ens
iv en
âĢ Ļ
Ġg en
pe t
ic es
ir on
Ġf ut
Ġcon f
Ġcountr y
Ġfut ure
Ġsitu ation
Ġor der
Ġf ar
Ġtw o
Ġinc lud
Ġv iew
v iron
Ġn ational
c ur
it ed
Ġcont in
Ġcan not
Ġp ublic
Ġh ere
ing s
Ġex p
Ġ use
Ġle vel
Ġin form
Ġ ent
Ġdo es
Ġmeas ures
Ġof f
Ġex am
ple ment
ic t
ul ation
Ġs ame
Ġha d
Ġreg ard
Ġta k
Ġprog ram
Ġ '
Ġre p
Ġpos sible
Ġh igh
Ġc ur
Ġe very
H ow
or y
A s
o ve
Ġc ertain
Ġc our
Ġm ost
Ġco op
Ġc ould
an ge
ere st
Ġl ong
et y
Ġb udget
p h
Ġsa id
Ġto day
Ġde f
re d
Ġen d
ar ge
Ġ J
e ur
oun t
Ġagree ment
Ġcom pet
ut ions
ut h
Ġmat ter
read y
Ġm uch
Ġth rough
ĠI n
Ġal ready
v es
Ġim plement
Ġfinan cial
Ġint erest
Ġres ult
Ġdem oc
Ġs et
is ation
is l
Ġm on
er al
m en
Ġp ut
Ġ W
as s
Ġa ch
ĠC on
Ġpro cess
Ġwith in
Ġs ect
al ity
Ġc all
or ity
Ġs p
pport eur
il d
Ġvot e
u c
Ġp resent
a bl
Ġn um
Ġ K
Ġleg isl
Ġst ill
Ġres pect
Ġen viron
ĠC h
con d
Ġdisc us
Ġbe h
a il
Ġcomm on
Ġwor ld
er gy
et h
Ġy our
Ġo wn
Ġgo vern
Ġh ope
Ġb oth
Ġpre v
Ġne g
al th
ut e
in ce
Ġf ul
ra ct
as on
ĠâĢ ĵ
Ġd ra
How ever
g an
Ġgro up
Ġcoop eration
or k
ru ct
Ġg u
Ġens ure
O n
ou se
ĠComm unity
Ġra pporteur
in is
Ġcour se
o od
ay s
ur ther
Âł Âł
Ġ1 9
Ġinst it
Ġpr in
re ed
Ġla w
Ġtak en
o v
Ġimp ro
Ġs ign
i le
Ġre ason
ur ing
a ir
cur ity
Ġser v
Ġintern ational
Ġd es
ic i
ĠMr s
Ġl ast
Ġdiff eren
r it
Ġc ase
Ġst ate
Ġpro m
Ġa ble
Ġare a
Ġh is
tr ib
Ġcur rent
om en
Ġspe c
it ions
Ġne cess
al f
ent ial
Ġpl ace
Ġs im
Ġh el
a b
or ities
Ġwh y
Ġm ain
Ġm ay
Ġprin ci
Ġob ject
Ġen ergy
Ġproble m
Ġa uth
Ġin ter
Ġthe n
Ġ O
f t
Ġb r
h ip
o o
Ġma j
reat y
Ġhel p
Ġcon d
c ing
Ġc ol
Ġme ans
Ġinform ation
Ġnum ber
Ġas k
Ġ est
ent le
Ġa ction
Ġg entle
l u
ch n
ploy ment
Ġexam ple
Ġgentle men
ad ies
Ġde al
Ġp ers
Ġinv ol
et her
Ġwith out
Ġst and
Ġsa f
Ġcon st
ol low
Ġprotect ion
ĠA m
ĠH ouse
c ome
ĠG ro
Ġproble ms
Ġapp l
it ive
ul es
m an
Ġwe l
t e
Ġhow ever
Ġdirect ive
ot i
Ġc ar
n ing
Ġall ow
I f
Ġfor m
ou ra
ow n
en e
t y
ad am
Ġparticular ly
Ġa w
ate ly
Ġac cept
Ġnecess ary
ol og
Ġconsid er
Ġbe fore
Ġneg oti
Ġre du
Ġo pport
Ġfa v
in es
abl ish
Ġreg ion
ar ch
Ġg ive
sel f
Ġ ke
Ġind ust
f ter
Ġrep resent
Ġs ol
i z
Ġiss ues
Ġs ince
Ġor gan
Ġhe alth
Ġf ollow
Ġres olution
Ġw ish
ent ly
Ġse curity
in ation
Ġd et
Ġare as
Ġg iven
ill ion
Ġpos ition
Ġstr ate
Ġleg al
ent s
Ġre al
ĠT reaty
Ġest ablish
Ġcons um
ĠGro up
r ation
Ġa v
ic ult
b our
ram ew
Ġsect or
ical ly
Ġf urther
oun d
Ġ 3
Ġme et
l and
Ġpro ced
Ġle ad
Ġdiff icult
el l
Ġprodu ct
a bility
si bility
Ġwh ether
ramew ork
Ġrequ ire
ir d
Ġamend ments
Ġw omen
Ġl adies
Ġs om
Ġthan k
Ġcr is
e c
Ġg l
Ġop in
ric ult
Ġdec ision
Ġc re
ver s
Ġe qu
Ġte chn
Ġdifferen t
as ed
Ġfav our
Ġinv est
ere d
Ġbeh alf
ar m
Ġr at
Ġcon trib
Ġp ow
ĠUn ited
is ions
Ġacc ount
Ġprov id
our ces
Ġro le
Ġs m
Ġf ish
Ġprogram me
Ġproposal s
p r
t ing
Ġsu c
ĠMem bers
Ġ2 0
w ard
Ġbas is
Ġser ious
Ġter ms
Ġa ff
Ġne xt
ro du
Ġprom ot
Ġe lect
Ġeff ort
Ġin iti
Ġf e
Ġp ract
Ġprog ress
Ġv al
Ġcr it
Ġd one
Ġre form
Ġr ules
Ġserv ices
w ards
Ġa id
Ġm in
Ġa im
Ġ V
Ġtra de
Ġcom e
sion s
Ġre st
eren ce
Ġeffect ive
Ġs c
Ġh and
Ġcris is
p a
Ġadopt ed
ro l
an k
Ġl oo
Ġ19 9
Ġbet ter
Ġlegisl ation
st and
Ġha pp
Ġappro ach
Ġwor d
ic ation
Ġneed s
Ġcom ple
Ġfin d
Ġsub ject
f it
Ġse cond
is ing
Ġf ramework
Ġm od
Wh at
Ġpr i
Ġim m
Ġa fter
t ic
s s
ol d
l ed
Ġop en
Ġf ew
Ġin f
Ġch ange
Ġm em
o vern
Ġex ist
Ġopin ion
Ġcontin ue
Ġm ed
Ġwho le
Ġm ention
Ġgro w
Ġinstit utions
reed om
Ġre v
it al
Ġpro ject
sel ves
B ut
Ġf ore
Ġt al
Ġ ur
en g
are d
ra cy
Ġj ob
Ġo per
o ver
F or
t s
t en
Ġconcern ed
Ġ es
Ġfor ward
Ġag ricult
if ied
ob al
Ġg et
Ġgo ing
Ġimpro ve
iv ing
eth ing
rat ic
Ġad v
ar ant
Ġwor king
le g
Ġc ap
a mental
Ġco st
ĠSt ate
u ally
Ġth ree
Ġb ack
Ġto wards
Ġsoc i
Ġst art
Ġwel come
Ġta x
Ġexp ress
Ġb ene
m it
Ġst ep
get her
re t
es e
as es
Ġin s
Ġsom ething
Ġgu arant
pe cial
Ġ ess
Ġvot ed
inis ter
Ġp ur
Ġrem ain
al s
ĠP ro
Ġch ild
Ġpers on
Ġach ieve
Ġf reedom
p ri
Ġex pl
at ives
im es
Ġtrans port
Ġre se
Ġsm all
ar ity
Ġspec ific
Ġres ources
Ġprinci ple
w ays
Ġ ide
Ġcond itions
Ġc or
Ġde l
ot her
in ess
il y
Ġex per
Ġr is
Ġinclud ing
Ġint rodu
Ġrel ations
Ġdiscus s
Ġint eg
v ention
Ġv ar
air s
Ġcomp an
a v
Ġp ay
if y
Ġimport ance
ur n
Ġd own
ĠPresid ency
it ution
Ġpropos ed
Ġopport unity
ent r
Ġac cess
Ġpl an
Ġre ally
Ġ 5
Ġpre p
r or
Ġcomm un
Ġem ployment
Ġauth orities
i ol
Ġsuc cess
Ġth ird
Ġd id
id ent
Ġrese arch
Ġess ential
Ġsh all
Ġn at
im ate
Ġgl obal
pecial ly
Ġto gether
e ad
Ġpolic ies
Ġm ove
Ġus ed
at h
Ġprov ide
Ġincre ase
Ġa p
Ġb us
Ġgen eral
Ġes pecially
Ġstr ong
Ġcomm it
ĠT ur
Ġcont rol
A n
Ġd uring
Ġpe ace
og n
Ġl ess
Ġpl ay
Ġre ad
n ers
Ġl arge
ĠA g
Ġindust ry
t al
ĠD e
in ed
Ġreg ulation
Ġrec ogn
r ant
Ġunder stand
Ġclear ly
Ġstrate gy
se qu
Ġnegoti ations
Ġ 4
Ġact iv
Ġenviron mental
Ġgreat er
Ġfund amental
iv id
Ġit self
Ġbec ome
g th
Ġf ree
ren gth
Ġenviron ment
Ġm illion
a king
Ġrespon sibility
Ġan other
Ġte xt
Ġqu ite
Ġsaf ety
im in
Ġle ast
Ġproduct s
Ġsu ff
Ġc ult
st ain
Ġst rength
Ġbr ing
Ġv iol
en ing
is es
Ġre ach
b on
Ġreg ul
Ġrat her
Ġsh ow
Ġcol le
at er
ist s
The y
Ġh er
n ess
l es
Ġ .
Ġsu pp
Ġext re
i od
as ing
Ġadd ition
Ġspe ak
e ed
ie ld
Ġl if
Ġth ough
Ġdemoc racy
Ġbus iness
an ces
ĠA r
Ġach ie
Ġinst ru
Ġal ways
Ġdem and
Ġatt ention
Ġen c
Ġb u
Ġappro pri
one y
Ġon ce
en ces
Ġpos itive
Ġcom b
u g
in ing
Ġma king
Ġreg ions
Ġprev ent
Th ese
iv il
Ġpow er
g in
Ġo pp
ing le
Ġloo k
n er
Ġinterest s
ro ss
ĠS e
Ġth ings
ĠR us
Ġsoci ety
Ġbene fit
Ġmaj or
Ġl im
th ough
Ġf ood
i ble
Ġta king
Ġimplement ation
Ġcl os
Ġeconom y
Ġintern al
Ġbas ed
g est
Ġf ight
i um
Ġdemoc ratic
Ġeffort s
ific ation
Ġle t
Ġst ruct
A t
Ġm oney
Ġvar ious
Ġ ed
Ġsign ific
Ġb l
Ġab s
Ġter ror
Ġgovern ment
Ġprogram m
Ġas pect
Ġre ce
ren cy
Ġpoint s
Ġmem bers
Ġe ach
ic k
Ġch ang
pl es
Ġsh ort
ĠG overn
Ġp le
Ġadd ress
ap s
t ed
s ia
Ġmon th
Ġextre me
Ġad m
Ġen l
Ġword s
Ġfa il
Ġo c
er v
Ġy et
og ue
Ġcolle ag
Ġdra ft
i er
Ġpro per
i vers
Ġwh ile
Ġex pect
Ġproced ure
Ġfund s
r an
Ġind ivid
Ġa ir
Ġper iod
Ġinvol ved
Ġc reat
ir m
Ġacc ord
Ġman age
Ġful l
ag es
Ġpart ners
Ġp ress
Ġb an
Ġcomm ittee
Ġem ph
itt ed
th ing
Ġch all
ic s
Ġf ield
Ġs ingle
Ġgrow th
g ed
Ġsu stain
ĠA f
c om
Ġcon g
Ġse em
Ġtrans pa
Ġed uc
Ġwork ers
Ġc a
tic le
ro w
Ġwe e
Ġn on
Ġconcern s
Ġp arliament
Ġe l
ff airs
Ġchild ren
en ed
ial ogue
rat ul
Ġha ving
ĠA ffairs
Ġcompet ition
Ġfe el
i ation
ĠEU R
ut es
Ġc ivil
entr al
ĠGovern ment
Ġb al
Ġindivid ual
e xt
is bon
Ġcompan ies
Ġam ong
c ise
Ġc are
Ġrequ est
Ġaff ect
Ġcl ose
Ġprogramm es
Ġcong ratul
M adam
ic ial
p ly
ĠF und
Ġobject ives
Ġp h
em ber
Ġw ar
Ġsub st
Ġf l
Ġl oc
Ġb est
f ort
Ġqu ality
Ġenc oura
ab ly
ĠL isbon
end ed
Ġagree ments
lu sion
u le
Ġp ass
ra ph
Ġt reat
Ġamend ment
Ġful ly
Ġemph as
Ġde p
Ġav ail
Ġtr y
S o
Ġap pe
s w
Ġref er
Ġfor ce
ke y
Ġp op
r on
Ġs olution
Ġincre asing
Ġmaj ority
Ġs ur
ĠM inister
en sion
Ġan n
Ġstand ards
Ġres ol
Ġfollow ing
ici ent
Ġof ten
Ġe uro
Ġme an
Ġrec ent
ĠM adam
Ġcertain ly
Ġsim ply
Ġdec isions
Ġexper i
ith er
Ġe le
Ġco h
Ġan sw
Ġn ame
em pt
ight s
u ge
ce ed
in ally
Ġd ialogue
ou b
Ġbe gin
2 00
end ing
W ith
Ġagricult ural
Y ou
Ġgroup s
Ġprodu ction
inis tr
Ġaw are
it or
Ġm ot
Ġfar m
ĠP ol
Ġextreme ly
Ġf am
Ġb ro
Ġcont ext
id ence
h aps
Ġsignific ant
Ġm il
Ġk ind
Ġtechn olog
Ġ The
Ġco ord
th ers
Ġh arm
Ġl ist
c k
Ġobject ive
end a
in a
Ġv is
ro und
Ġsu m
Ġenl arge
Ġcre ate
oc u
Ġcomp rom
Ġpartic ip
fort un
Ġd at
ĠI s
Ġag o
Ġact ually
Ġquest ions
Ġris k
Ġiniti ative
h ing
Ġcom pl
Ġrec omm
Ġlif e
Ġm ight
Ġass ess
Ġcomple te
our t
e ch
s id
tern al
Ġst ates
Ġass ist
ĠTur key
Ġimp act
Ġsu g
m ost
e es
E urope
Ġj oint
Ġsu re
y s
Ġmention ed
ĠN o
Ġs en
Ġavail able
ens ive
p ose
oc k
ĠAm end
Ġp ar
Ġregion al
Ġjob s
k es
l ict
Ġst at
Ġo thers
Ġd ocu
Ġdevelop ing
Ġspe cial
er man
Ġind eed
ĠC ourt
Ġm o
ce ll
Ġre t
Ġenlarge ment
Ġcon v
Ġcon sequ
er ing
Ġmeet ing
Ġresult s
Ġf ound
Ġapp ly
Ġguarant ee
st itution
Ġw rit
us ed
resid ent
T o
Ġcl imate
ep end
Ġconcern ing
Ġcurrent ly
i x
Ġappropri ate
Ġopp os
F inally
Ġt ar
L et
ar ian
l ess
w h
Ġs ch
Ġpr iv
Ġur g
ĠD irect
Ġ 6
Ġp a
Ġf oc
Ġh on
F irst
Ġdra w
Ġeduc ation
Ġrespon sible
ĠS oc
Ġconsum ers
Ġdat a
ort h
Ġwrit ing
Ġf le
iv ed
Ġc ases
es sion
ĠS tr
m ber
ber al
ff ice
it s
Ġthem selves
Ġsol id
ces sion
er ia
Ġmonth s
Ġne ver
Ġmanage ment
Ġdo ing
Ġke y
Ġo bl
Ġsystem s
Ġneed ed
ric t
Ġh im
Ġmatter s
Ġobl ig
a ve
Ġth ing
er ic
ĠAr ticle
f or
c ies
Ġreason s
Ġconf lict
Ġprinci ples
el ess
le v
i bility
ĠRus sia
Ġm om
it er
D E
ĠE n
Ġadm inistr
Ġfish er
Ġen ough
iven ess
An d
Ġcont ain
Ġfin al
ig ration
Ġd ay
Ġex cell
ĠG erman
Ġdec l
oun g
Ġrecomm end
Ġpart ies
Ġmon itor
S e
Ġke ep
Ġcost s
l ing
Ġex c
Ġcomprom ise
Ġn et
fortun ately
st r
Ġproject s
Ġbu ild
Ġor ig
Ġreport s
Ġreg ards
at ors
Ġdem on
c o
Ġlong er
Ġst ud
n e
Ġachie ved
ĠSoc ial
at ory
v ious
or der
Ġfund ing
uc lear
ĠU S
Ġent ire
Ġbro ad
Ġt as
Ġth reat
Ġactiv ities
Ġmain tain
em oc
Ġin n
Ġmom ent
Ġl ack
Ġloc al
Ġh ist
Ġpri ority
Ġd ist
Ġy oung
Ġre ject
P resident
u b
Ġcommit ment
Ġ20 1
Ġind epend
itt le
Ġp ast
p or
Ġdet er
Ġide a
Ġp o
od y
2 0
Ġpromot e
Ġst a
Ġal though
Ġ 7
ĠP art
Ġinstit ution
ĠAm eric
ĠAf ric
ur d
Ġj ud
ri ed
ĠCon vention
Ġgovern ments
or row
ect ion
Ġsug gest
Ġl ittle
Ġcontin u
Ġtr ue
t il
Ġla bour
Ġtra d
Ġst ress
ĠIn tern
Ġent er
Ġam ount
id ed
es ion
Ġcongratul ate
Ġlegisl ative
00 0
Ġprovid ed
Ġd ue
Ġl ine
Ġan im
Ġc ru
Ġm ind
Ġsustain able
ĠS p
Ġnot hing
Ġo pt
Ġexcell ent
Ġconc lud
Ġper haps
Ġ 8
Ġfore ign
U n
Ġd oub
im s
Ġoc c
s ide
M y
Ġ ident
Ġtar get
Ġl ow
Ġsolid arity
Ġre n
Ġmarket s
Ġc red
end s
Ġinclud e
ĠE ast
m b
Ġn uclear
Ġse ver
ie f
Ġc ent
Ġprev ious
Ġaspect s
i o
Ġag reed
O ffice
Ġab ove
Ġm ult
Ġregard ing
ĠR eg
Ġ1 0
Se cond
Ġsh are
Ġw r
Ġf el
Ġv ict
Ġam b
Ġorig in
Ġma kes
Ġp res
at ic
ag ed
Ġit em
ĠR om
Ġdet ail
e qu
ĠR ights
Ġorgan is
Ġ 9
Ġob s
ol ute
Ġse en
Ġtranspa rency
Ġfa ir
Ġinteg ration
on d
ful ly
ĠDirect ive
un ities
Ġim pos
ed i
Ġter m
res sion
im um
ir c
Ġta bl
Ġfoc us
Ġsever al
Ġm eth
Ġsub sid
it ary
Ġro ad
l ight
at is
Ġd ang
Ġabs olute
Ġag enda
ĠE uro
Ġso on
Ġconsum er
Ġcom es
al e
Ġp resid
Ġto m
id es
Ġact ions
Ġc irc
Ġrespon se
Ġe as
Ġcontrib ution
Ġf our
Ġt y
Ġrel ation
ĠS w
Ġmeth od
er ous
Ġpop ulation
Ġp ot
Ġt urn
O ur
ĠR ep
re en
led ge
Ġtom orrow
ru g
Ġtechn ical
atis f
Ġup on
Ġp at
There fore
T O
ĠE C
ant s
r ing
Ġdiscus sion
n ed
f erence
ĠU N
Ġval ues
b y
bil ities
Ġansw er
Ġterror ism
over ty
Ġinn ov
Ġm ar
re ct
e an
Ġcommun ication
g ing
ĠI tal
ra el
Ġprov isions
Ġelect ions
ĠB el
Ġseem s
Ġpract ice
Ġcrit eria
Ġcolleag ues
Ġdemon str
an ia
p ite
Ġinvest ment
On e
Ġexist ing
an ced
Ġp ack
Second ly
Ġs ci
ter m
Ġnet w
Ġharm on
Ġchang es
A ll
Ġ ve
conom ic
Ġple ased
Ġwee k
Ġe ar
Ġrev iew
Ġcru cial
Ġproced ures
et ary
t i
Ġvot ing
Ġindust r
ĠM on
Ġdef in
ĠS ch
Ġm is
Ġst ability
ĠD emoc
is on
ar ing
Ġav o
Ġob vious
Ġinteg r
v en
Ġg rant
ĠA l
Ġcons ult
ch an
ĠF r
Ġme chan
ic ations
ĠAmend ment
Ġt ell
ang u
itt ing
Ġac cession
Ġt imes
Ġviol ence
Ġpre cise
Ġch o
Ġour selves
Ġassist ance
Ġp en
Ġh ard
Ġcoh esion
Ġh old
Ġun til
el s
Ġcre ation
Ġqu ick
Ġevery one
Ġem ploy
Ġp overty
il leg
Ġpot ential
oura ble
Ġw ast
ĠâĢ ĺ
g ic
im ination
Ġcar ried
Ġtal k
Ġar r
Ġpro f
Ġask ed
Ġregul ations
Ġch ar
Ġbas ic
Ġ illeg
ĠIs rael
ĠB rit
Ġre pe
ĠA n
Ġsay ing
Ġun em
Ġp ost
f er
ĠCh ina
Ġb o
ĠG ree
Ġconsequ ences
Ġd ut
Ġcon n
ission s
Ġd est
Ġserv ice
Ġtabl ed
Ġincre ased
Ġgro und
Ġfa cil
Ġorganis ations
Ġmil itary
Ġfarm ers
Ġhe ld
u ine
Ġtra ining
Ġchall eng
Ġm or
Ġfish ing
Ġrel ating
Ġstate ment
ĠB ar
A l
Ġcult ural
ist ic
Ġappl ication
Ġsen se
Ġredu ce
ou th
Ġf all
Ġname ly
Ġrequire ments
ar s
Ġw ater
Ġtra ff
Ġse c
Ġ1 2
it ing
ive ly
ĠP al
Ġfle x
Ġbal ance
Ġgu id
Ġ1 5
Wh en
Ġcar ry
i ans
Ġinstru ments
Ġrequire d
sel s
Ġdis ast
Ġl angu
Ġr ule
Ġal ong
Ġevery thing
Ġan al
Ġatt empt
Ġpresent ed
Ġth us
Ġc ut
Ġdeter m
it arian
Ġli beral
Ġequ al
Ġspe ech
Ġunder t
Ġval ue
Ġthrough out
u ly
Ġclos ed
Ġfa ce
ar ation
Ġopport unities
ac ed
Ġimm edi
ĠIn d
m ore
i res
ru ction
Ġgen er
Ġj oin
Th ank
Ġsh e
Ġst age
h e
Ġpri orities
un ction
Ġcall ed
Ġnat ure
Ġdisc r
Ġbudget ary
Ġe ither
Ġs atisf
Ġiniti atives
l ine
iz e
Ġdoub t
en cies
g u
ra st
Ġa round
Ġter rit
ct ions
y l
Ġcor rect
Ġ200 0
igh bour
Ġcomm unity
Ġtraff ic
ra d
Ġdec ided
at eral
Ġpur s
ĠCon stitution
Ġind ic
Ġex ternal
Ġprep ared
Ġh ear
Ġo ld
Ġst op
ĠPart y
Ġcr imin
Ġavo id
us es
Ġpro s
' .
ord ers
Ġem er
Ġencoura ge
Ġac ross
Ġmove ment
Ġreach ed
Ġeff ici
Ġpress ure
Ġf ive
Ġ1 1
Ġw a
Ġpow ers
un e
Ġinstru ment
Ġtas k
Ġexpress ed
Ġd ire
Ġ 000
rough t
Ġra ised
il ateral
Ġass oc
ĠB al
Ġus ing
Ġlevel s
Ġmonitor ing
Ġrem ind
Ġreg ret
Ġfisher ies
Ġcap ital
ĠL e
Ġex port
Ġtal king
Ġc ross
Ġex ch
Ġchalleng es
Ġwast e
ag raph
Ġoff icial
Ġconc lusion
th eless
Ġl ive
velop ment
Ġimplement ed
ren ch
Ġmed ium
Ġpack age
re land
Ġdocu ment
Ġde ath
Ġinvol ve
ish ed
i ance
al u
Ġle ar
un g
Ġsu per
a pp
Ġd am
Ġhe ad
Ġqu ot
Ġread ing
Ġref lect
Ġexperi ence
Ġcompet it
Ġdire ction
c ri
Ġv ital
Ġwh ose
Ġinclud ed
Ġgen uine
Ġilleg al
Ġfel low
Ġrespon d
Ġre lev
Ġcr ime
Ġjust ice
rat s
re g
Ġaccord ing
Ġe ver
Ġf ra
Ġquick ly
Ġrec ently
Ġestablish ed
Ġabsolute ly
Ġm ess
ĠPal est
Europe an
Ġpriv ate
Ġg r
Ġb orders
Ġpresid ency
Ġc am
Ġsci ent
Ġcom ing
Ġsect ors
Ġb re
Ġen able
Ġvict ims
Ġsupport ed
Ġpartners hip
Ġex er
Ġl ight
du ct
Ġthan ks
Ġr un
Ġcap ac
Ġeffect s
Ġimm igration
Ġout side
Ġredu ction
il ar
Ġto p
ĠI reland
Ġret urn
ĠF in
re h
Ġre ality
Ġagricult ure
si bilities
Ġd r
ĠF rench
F urther
Ġl ink
g es
ition al
ĠM ed
Ġenter pr
Ã ©
Ġren ew
Ġev ent
Ġcomplete ly
Ġnot e
Ġreform s
ĠCon ference
Ġcrit ic
ĠP ort
Ġb rought
Ġmot ion
s p
Ġbec om
Ġun ac
Ġle ft
Ġ Y
Ġcl a
el ines
Ġstruct ural
M ore
ce mber
Ġext ent
Ġy es
Ġg iving
Ġpr ice
Ġex cept
ĠW or
Ġc od
Ġfin ally
e x
iter ran
r up
iterran ean
Q u
Ġne ighbour
Ġpr ices
l a
t o
Ġcons ist
Ġunem ployment
Ġb ig
ree ment
Ġrepresent atives
t le
Ġcan d
in king
ĠRep ublic
ĠDe velopment
j ust
m itted
Ġbusiness es
Ġrece ived
ĠSw ed
Ġhigh light
Ġsum mit
Ġtoo k
Ġem issions
Ġb illion
Ġde leg
er ve
r ist
ust r
Ġappro ved
an ish
Ġappl ied
Ġaddition al
Ġcirc um
Ġcand id
l er
Ġde v
ist an
Ġdis e
Ġpos sibility
Ġhe ard
Ġcoord ination
p ar
Ġal most
Ġel se
p id
Ġdiscuss ed
ar ily
Ġta ck
Ġmod el
Ġc ause
ĠFr ance
i ver
Ġens uring
ĠN ations
ĠB r
pect ive
ve re
at or
Ġunac cept
Ġtreat ment
Ġto tal
Ġen g
ivers ity
b e
ĠDe cember
Ġs ix
Ġanal ys
Ġrelev ant
Ġt est
ĠPort ug
Ġpract ical
Ġnat ural
Ġbeh ind
Ġcompetit iveness
Ġdiscus sions
Ġtak es
Ġl iving
Ġlead ers
Ġcreat ing
Ġaw ay
Ġev ents
id d
Ġl ot
ra q
Ġinf lu
ĠAfric a
Ġassess ment
Ġstrength en
Ġrest rict
Ġ %
Ġun d
Ġconf idence
Ġoff er
Ġra il
ac y
Ġunaccept able
Ġguid elines
for ce
Ġm en
Ġs ent
Ġcon duct
Ġf ig
Ġadopt ion
Ġc entral
yl um
Ġparliament ary
Ġremain s
Ġsim pl
ĠM E
Ġmeas ure
it ud
Further more
ĠI raq
Ġknow ledge
Ġpar agraph
First ly
st er
Ġn or
Ġd ays
h old
Ġcapac ity
E C
ĠBrit ish
un ch
Ġgood s
Ġl os
rast ruct
if ically
Ġprov ision
Ġsol utions
Ġh uge
Ġwe ak
ĠB ank
ut ed
o ol
Ġpro ceed
Ġconsid ered
Ġsc ope
Ġt en
Ġv ol
P arliament
pt ion
k now
ar ter
Ġaffect ed
Ġdep end
lu sions
ĠB udget
Ġaim ed
Ġre con
Ġinf rastruct
iz ation
Ġ er
is c
Ġeffective ly
Ġcomb at
Ġdiscr imination
eg u
Ġhuman itarian
Ġd om
Ġdef ence
Ġdes pite
Ġr ate
Ġsubst ant
Ġev alu
Ġcond em
Ġd en
Ġcircum st
O f
Ġdes ign
l f
an n
Ġdifficult ies
Ġcontrib ute
en ge
Ġindustr ial
Ġf irm
ent ions
ic y
Ġtry ing
Ġs itting
Ġob tain
ol id
bour g
Ġm et
Ġcrimin al
w ay
Ġprecise ly
Ġal tern
Ġexpl ain
Ġsaf egu
ion al
) .
Ġar gu
Ġconf irm
Ġl and
Ġ2 5
ia ble
Ġsh own
Ġa ut
Ġeffici ency
Ġfam ily
end it
ĠDemoc rats
Ġs ide
ĠC entral
w ise
Ġre in
Ġdevelop ed
olog ical
C on
Ġocc as
Ġse lf
Ġas ylum
ure a
ĠR e
os ov
ter day
it ation
Ġsupp ly
Ġref erence
Ġf unction
Ġinst ead
Ġ1 4
Ġperson al
Ġhon ourable
Ġconn ection
Ġre pl
ĠJ ust
Ġcon cept
Ġcircumst ances
Ġsp o
ĠAg reement
z ed
Ġh alf
Ġpol l
Ġcoord in
om p
Ġaccord ance
Ġreg ime
Ġcl ar
N ow
g o
ĠA s
Ġconc lusions
Ġ ir
Ġcont ent
Ġprodu c
Ġimpro ving
Ġo il
ous ly
a ke
Ġfor ces
Ġmess age
Ġref uge
Ġact ive
Ġpen al
all ed
Ġqu al
Ġ ill
ĠWor ld
Ġd rug
Ġm and
og raph
Ġcomm itted
Ġwr ong
ĠJust ice
Ġtechnolog y
Ġinstitution al
Ġadv ant
er ial
Ġadministr ative
Ġchall enge
Ġconst itution
e ople
ugh t
Ġprovid ing
ĠJ une
er b
ĠK osov
Ġinvest ig
Ġstat us
Ġenterpr ises
Ġall oc
H e
Ġcult ure
Ġg ra
g overn
an u
Ġcom ments
Ġcreat ed
Ġprovid es
Ġallow ed
ĠPalest in
C omm
Ġdut y
Ġbegin ning
en eral
o h
Ġgo es
ĠReg ulation
er t
Ġaccept ed
Ġinnov ation
Ġindepend ent
Ġconsider able
Ġpur pose
Ġbenefit s
Ġconsid eration
Ġright ly
Ġmod ern
Ġ We
ig rant
Ġco ver
Ġd ate
Ġ ver
Ġpro pose
Ġcall s
Ġmin imum
Ġm ass
y ond
an y
us sels
Ġla b
Ġimplement ing
Ġparticip ation
as h
Ġst ated
Ġrefer red
Ġun fortunately
Ġconv in
Ġview s
Ġpo or
Ġsuccess ful
Ġh ome
Ġl ives
Ġconst ruct
ust om
Ġpromot ing
Ġmat erial
Ġfor ms
Ġr ural
ĠM in
d am
Ġ3 0
ĠGerman y
Ġstep s
p s
ĠPol icy
Ġspec ifically
Ġclose ly
b an
Ġcolleag ue
Ġw orth
Ġserious ly
Ġcomp reh
ĠBr ussels
ĠIntern ational
Ġover all
Ġrece ive
Ġpl ans
Ġrel ig
Ġdeal ing
ĠW TO
a pt
ĠL i
Ġ200 7
Ġpr im
Ġintrodu ction
ac ks
Ġfam il
Ġsim ilar
Ġm ut
d om
ous and
Ġlim it
Ġsp ir
Ġurg ent
Ġauth or
Ġbe yond
Ġexpl o
Ġm ere
ra de
govern mental
Ġf ear
Ġmed ia
Ġs an
ĠE conomic
ĠKosov o
Ġscient ific
Ġdis p
itud e
Ġdec ide
Ġstud y
Ġhist ory
Ġl at
Ġf ri
Ġsee k
Ġe th
Ġtra vel
Ġway s
Ġrelations hip
is ms
Ġstrate gic
rup t
Ġexp endit
a z
ĠO r
Ġ "
Ġ Th
Ġs ens
Ġwant ed
Ġfinan cing
Ġleg it
od ay
Ġhapp en
a f
Ġdirect ly
iti ous
pa ign
Ġrequ ires
ure d
or ks
Ġcoun ter
Ġexch ange
k ra
ĠMed iterranean
S E
Ġc at
Ġb od
Ġprodu ce
anu ary
Ġexpendit ure
Ġcommit ments
Ġre d
Ġad equ
Ġle ave
Ġbr ief
Ġcam paign
a ction
Ġth ousand
idd le
si zed
land s
Ġag e
si an
et imes
Ġto ur
Ġint ended
r ish
Ġb order
us h
Ġcont ract
Ġra pid
ĠME P
Ġex act
k en
Ġdemand s
Ġcomm er
Ġde g
l i
Ġset ting
Ġb ar
end er
ĠS um
Ġem b
Ġful f
Ġad apt
Ġ1 3
Ġmy self
Ġcom ment
Ġequ ality
Ġpa id
Ġinc or
Ġe arl
Ġactiv ity
Ġsuff icient
im ately
Ġuse ful
Ġrem ark
Ġsupport ing
Ġpart y
Ġs ort
Ġproper ly
Ġdis trib
ĠP a
Ġb urd
Ġp ort
) ,
Ġc e
ĠI rish
ĠSum mit
oc ol
Ġal one
Ġbod ies
Ġeff icient
wh ere
Ġinter p
I s
T oday
Ġcol lect
Ġspe aking
Ġsubstant ial
Ġcompet itive
Ġhigh ly
A pp
Ġany thing
Ġyes terday
Ġan ti
ic it
Ġshow s
Ġwee ks
Ġhigh er
Ġdiscuss ing
Ġpolic e
h ead
Ġde ep
an im
Ġl ed
ĠEuropean s
Ġlim ited
v is
h ic
Ġknow n
Ġsch em
Ġdevelop ments
Ġg ain
Ġconclud e
Ġincreasing ly
Ġca used
Ġref eren
Ġsh ip
in s
Ġty pe
Ġanim al
Ġestablish ing
Ġamb itious
Ġwh om
Ġd im
Ġform er
Ġcall ing
ĠM ay
iz ed
in ary
Ġfor get
Ġm inister
Ġear ly
ĠMin utes
Ġc le
Ġg ives
Ã ¶
ĠU kra
Ġrepresent s
Ġrem ember
ĠGree ce
Ġra d
Ġauth ority
Ġprof ession
ur ally
d ra
Ġimpro ved
Ġris ks
M E
Ġw on
Ġg as
m aking
L ast
Ġhist or
ĠI ran
l ov
Ġcomple x
Ġobvious ly
Ġprodu ced
Ġaw a
Ġwel com
Ġun anim
ĠJ anuary
Ġv o
Ġve hic
u ct
Ġdes ire
ĠR ules
Ġachie ving
Ġann ual
Ġcompreh ensive
Ġassoc i
Ġstrength ening
Ġoppos ition
Ġdes cri
. .
Ġpro b
ron t
Ġaim s
Ġhapp ened
ify ing
tr ary
Ġch ec
Un fortunately
Ġproduc ers
Ġur ge
our s
ĠF ore
b ly
Ġanim als
F R
Ġsafegu ard
u ff
Ġpurs u
b order
re te
Ġcur rency
g er
Ġac know
9 9
ĠH e
Ġstate ments
Ġemphas ise
Ġman ner
Ġredu cing
ens us
Ġen orm
Ġtrans fer
Ġ z
Ġthough t
Ġl ater
ĠEn viron
i ent
Ġpro fit
Ġlangu age
i ra
Ġfra ud
un t
Ġcomb ating
Ġla unch
igrant s
ĠS outh
Ġloo king
ĠC y
ot e
Al though
Ġrespon sibilities
Ġconvin ced
Ġinfrastruct ure
Ġtr ust
ĠG reen
Ġfacil it
re st
cil iation
it ors
Ġmon etary
Ġpass eng
S ince
Ġr ise
Ġpr ison
ĠPro t
ĠPro g
Ġout come
Ġun ion
Ġwant s
D o
Ġapp re
Ġsay s
c alled
Ġearl ier
Ġ5 0
b ody
Ġanalys is
Ġconst it
Ġconc rete
Ġbal anced
Ġen h
Ġb ad
it ial
Ġfirst ly
Ġele ments
o ber
Ġsom etimes
Ġsta ff
N ever
Ġcomp ens
Ġprev ention
Ġdam age
ĠH uman
Ġconf erence
ĠT r
olog y
Ġoc cur
Ġcandid ate
ĠFore ign
Ġintrodu ced
More over
Ġdocu ments
Ġth inking
Ġrecogn ition
Ġfa cing
ĠM arch
Ġsuc ceed
op h
Ġrecogn ise
Ġinflu ence
Ġext ra
v al
Ġpoint ed
Ġaccept able
Ġhe art
Ġdel ay
ĠSp anish
Ġrapporteur s
Ġc ustom
Ġconst ant
Ġpart s
our ce
o f
Ġentire ly
Ġspir it
Ġmem ber
Ġwill ing
Ġbuild ing
Ġcoop er
Ġintrodu ce
Ġde ad
ĠP r
Ġneg ative
Ġbecom ing
Ġcon trary
Ġdang erous
ist ics
Ġstand ard
Ġ200 9
ĠSe curity
Ġappre ci
ar ia
am ber
l ines
her n
Ġs ources
Ġrecommend ations
Ġcommer cial
ĠItal y
' ,
Ġsu sp
Ġob st
t ies
Ġlaw s
o ot
Ġcons ensus
Ġdifferen ces
est ic
Ġredu ced
u f
ore d
Ġn orm
ĠU K
pt ember
Ġarr ange
ĠIntern et
ĠBel g
Ġas king
Ġspe ed
y n
ĠH ung
Ġaltern ative
a ving
Ġin itial
Ġ199 9
Ġto ol
Ġadd ed
t on
Ġflex ibility
Ġsch ool
S ome
de ed
il ity
Ġrec ord
Ġdeleg ation
ĠS lov
Never theless
se c
Ġ200 4
Ġmor ning
or ies
Ġestablish ment
Ġb ody
Ġ Z
Ġass um
Ġann oun
se t
es tern
l us
Ġra ise
Ġtranspa rent
ag ing
ĠK ing
ĠI t
ul g
ĠTur k
ĠEnviron ment
Ġse par
Ġw ide
Ġclos er
ur y
a pon
ĠAmeric an
C h
Ġmethod s
Ġincor por
Ġstrong ly
Ġprob ably
Ġcompan y
Ġdis ch
ĠMinister s
Ġg e
Ġst rict
th e
Ġliberal isation
Ġappl ies
Ġnetw orks
Ġlos s
Ġinter vention
Ġexact ly
Ġpract ices
eren t
Qu est
Ġorgan isation
i j
i et
ove mber
Ġs ound
Ġpers pective
ĠSp ain
itt en
port ion
Ġdra wn
Ġsan ctions
uf act
Ġdirect ives
Ġrep ly
Ġbe ar
c c
ĠIn ter
Ġ ult
ur ance
Ġse x
Ġappl ic
Ġide as
y ing
A fter
Ġsub mitted
Ġch ance
Ġf re
Ġ201 0
Ġ200 6
Ġrefuge es
Ġs k
In deed
ĠM a
Ġ200 8
Ġfail ure
ĠRom ania
act er
Ġla id
Ġtarget s
Ġdeal t
ĠStr ate
Ġman ufact
erv ation
ĠSe ptember
Ġintegr ated
ĠP eople
il st
Ġag encies
ict ion
Ġb i
Ġcont act
Comm ission
Ġfore st
ĠPro ced
Ġoblig ations
Ġ ut
Ġm er
Ġmechan ism
Ġ This
Ġenorm ous
Wh y
Ġ1 8
Ġwith dra
Ġdim ension
Ġinform ed
Ġopen ing
Ġhapp y
Ġsubsid i
Ġwe apon
Ġnetw ork
Ġcol l
Ġcrit ical
Ġar m
Ġdef end
Ġchar acter
Ġa f
Ġon es
Ġaddress ed
Ġcon ver
Ġac qu
Ġcont ro
Ġf u
s man
ĠS ME
ĠAmeric a
0 1
Ġto t
b ed
at s
ĠProced ure
Ġgovern ance
Ġgrow ing
ar us
ĠCon s
Ġimprove ment
Ġs w
id ents
ĠPa per
ct ober
Ġappe al
Ġh op
rist ian
Ġconstruct ive
ĠPalestin ian
ĠProg ram
N o
Ġex cess
Ġput ting
Ġcontain s
Ġimmedi ately
Ġb urea
ĠMEP s
Ġmand ate
ĠN ovember
ĠKing dom
Ġman aged
Ġorgan ised
Th ird
Ġun ivers
com ing
Ġconsult ation
Ġmain ly
Ġ ign
Ġmechan isms
ĠM iddle
Ġparliament s
Ġresol utions
Ġun able
Ġa head
Ġs al
Ġen abl
Ġsens itive
ĠItal ian
Ġm ist
Ġmut ual
Ġs end
Ġ200 5
Ġun f
Ġoper ation
Ġreject ed
Ġcho ice
Ġl o
Ġw at
Ġpos itions
ster dam
re am
Ġl ar
ĠStrate gy
Ġdefin ition
ind ing
Ġperson s
Ġmere ly
Ġins ist
Ġsign ed
ĠTurk ish
ĠUkra ine
g ies
P L
j oy
Ġint ention
Ġcomp ly
Ġunderstand ing
it able
ĠBel arus
i pl
Ġab ol
Ġcontinu ing
ate g
Ġappe ar
Ġreferen d
Ġt im
Ġlead ing
ĠAg ency
ĠAm sterdam
Ã ¡
Ġsim ple
App l
ĠProgram me
ar ies
Ġen joy
Ġadministr ation
I T
C O
Ġdeb ates
Ġinterp ret
Ġburea uc
ĠR es
ĠCh amber
Ġeas y
f ect
ĠCh arter
ĠB ulg
Ġguarant ees
Ġelect ed
Ġim pl
Ġinclud es
Ġexer cise
Ġdisch arge
or se
Ġthousand s
Ġre act
o or
Ġl ost
Ġ200 3
B y
ĠO ctober
eng en
vere ign
Ġfig ures
u x
em por
Ġto ld
Ġobs er
Ġimpos sible
Ġburd en
Ġdisast er
Ġ1 6
e b
Ġso vereign
Ġspeak ers
Ġpros pect
Ġresol ve
Ġc ame
ĠRus sian
Ġindepend ence
f in
i ents
l ant
ĠTr ans
O s
op les
Ġconc entr
Ġwork ed
E ven
Ġne ar
Ġwon der
d i
Ġs port
Ġev idence
Appl ause
Ġtot ally
Ġadequ ate
m p
Ġmed ic
Ġtechnolog ies
Ġo ught
Ġstruct ure
ate ful
Ġwish es
Ġw arm
itt ees
Ġocc up
ĠPr ime
Ġsaf e
Ġrecommend ation
Ġrenew able
Ġsubsidi arity
e v
Ġadvant age
M any
Ġpay ments
Ġ200 2
Ġeconom ies
Ġr ates
ight ed
ark et
h a
Ġrel ated
Ġp ill
Ġpromot ion
Ġrepe at
Ġatt itude
Ġinter v
P E
res pon
Ġta ble
oura ge
Ġinst ance
Ġsum m
Ġma x
Ġfail ed
ell ing
Commission er
Ġad ver
Ġreg ular
Ġ1 7
ec ision
ĠSch engen
Ġdeg ree
or n
Ġpe oples
Ġcontrol s
iv al
Ġtraffic king
Ġaff airs
ul ated
h ood
Ġterrit ory
Ġinc ome
ill ions
at ure
Ġgr ateful
o very
Ġsupport s
Ġper form
Ġsitu ations
ic ated
ill ed
cc ord
Ġext end
Ġexp ression
Ġcondem n
ur s
ĠHe alth
Ġsur pr
Ġmembers hip
Ġfamil ies
pr us
gh an
Ġbring ing
ĠBal k
Ġp ubl
Ġ20 20
en ary
Ġfor th
Ġinvolve ment
Ġt reaty
ĠS erb
Ġvot es
ĠA ud
Ġlink ed
w ide
Ġtour ism
sequ ently
Ġcompl ain
ĠP act
uct ural
ĠT rade
A m
Ġobst ac
Ġtal ks
ĠMon etary
Ġint end
Ġimmedi ate
ĠSME s
Ġl ines
Ġorigin al
Ġlear n
Ġoppos ed
Ġele ment
Ġgo al
ter s
Third ly
Ġbel ie
Ġact s
Ġsec ure
Ġg reen
Ġtr uly
Ġper man
k ed
Ġhapp ening
Ġun c
Ġact ual
ĠCy prus
Ġl og
Ġinvol ving
Ġre le
Ġoff ice
C P
ire d
Ġcla im
h ol
Ġget ting
Ġfin ance
Ġd er
ĠAf ghan
Ġread y
Ġp ension
om b
Ġemer g
Ġfor ced
ort hern
Ġ200 1
r s
E S
Ġfa ced
ĠC o
Ġdrug s
Ġs ides
if t
Ġexpl an
p ol
Ġprotect ing
Ġper fect
i or
iv ity
ĠN os
Ġele ction
Ġpl ac
ĠI I
Ġunder m
ĠE x
ĠPortug al
ĠFund s
ĠStr uctural
Ġgreat est
Ġcons olid
Ġ2 7
Ġdise ase
Ġh y
Ġ2 1
Ġpl enary
Quest ion
Ġrecogn ised
it ime
lant ic
ra in
Ġadopt ing
Ġstart ing
ccord ing
Ġd iv
Ġfollow ed
ipl om
re p
Ġt ro
ĠN orth
qu e
Ġreferend um
Ġsubst ances
ve red
Ġgrant ed
Ġtack le
m a
i k
p ing
Ġv ia
Ġcomm ittees
Ġinterest ing
ici ans
on es
Ġsee king
se mb
semb ly
Ġc al
rupt ion
a h
oc ks
Ġmo bility
Ġsh ared
Ġf oot
ĠOr gan
M ember
am ic
Ġmeet ings
Ġmin orities
Ġco vered
le ment
ak en
Ġcontin ues
Ġweapon s
Ġdang er
Ġapp oint
y a
Ġcred it
Ġpoll ution
Ġro und
Ġbene f
Ġglobal isation
Ġab ility
Ġcare fully
Ġt on
0 2
L adies
Ġd iplom
Ġdetail ed
Ġc ateg
Ġchang ed
c a
Ġch air
ĠJ uly
ed eral
Ġdesign ed
Ġcommun ities
Ġe y
stand ing
Ġvehic les
Ġd ict
empor ary
Ġthere by
Ġpropos ing
ĠAg ricult
Ġfl oor
ĠAfric an
en n
Ġd iversity
in ks
Ġ4 0
ren d
Mr s
ough t
Ġse a
ur ning
Ġevalu ation
A ccording
Ġsuff ering
Ġundert aking
Ġstruct ures
Ġc ourage
Ġcl ass
Ġpres ence
ĠBar ro
or g
re l
Ġnat urally
Ġp ath
Ġser ve
ĠPol and
Ġg ender
Ġdis app
ĠAud itors
Ġcritic ism
Ġcompet ence
ĠC O
Ġr ange
ĠL at
Ġsp ent
et s
Ġpro portion
ru it
Ġca uses
Ġb ilateral
a w
und red
Ġcontin ent
ar ations
Wh ile
Ġemphas is
en ced
Ġmin ority
ĠAmend ments
Ġconsist ent
Ġadv oc
op en
Ġexpect ed
Ġb inding
Ġsubsid ies
Ġser ies
at ically
go ing
Ġa ud
Ġatt ack
Ġimprove ments
Ġend orse
Ġvo ice
ot s
Ġor al
Ġar ms
ĠN A
ĠB er
er ves
Ġconsum ption
Ġharmon isation
Ġh ours
Ġso le
pr il
an a
Ġst ri
Ġvol unt
ĠM ar
Ġany one
Ġty p
ĠSwed ish
Ġjud icial
c omm
Ġme ant
Ġl ate
Ġtax ation
us ing
Ġreg is
Ġent it
Ġexc lud
Ġj our
Ġemploy ees
eg al
ĠA ustr
Ġbo ard
f are
Ġreason able
Ġlim its
Ġother wise
Ġdeb t
Ġrepe ated
ĠEast ern
Ġrec overy
ĠB l
Ġcred ibility
Ġappro val
Ġe c
Ġprofession al
ag en
Ġpros per
ri ers
Ġdest ro
A T
Ġa ver
Ġfulf il
n ic
Ġplan ning
Ġfe ed
Ġarrange ments
Ġl ay
Ġwithdra w
A P
ĠC an
On ly
z ech
Ġdecl aration
Ġrelig ious
Ġhe av
Ġw id
Ġimm igrants
Ġamong st
ĠA CP
Ġent ry
Ġgo als
Ġrepresent ative
ĠBulg aria
n es
Ġ1 00
Ġcomp ar
Ġgl ad
Ġsta ke
Ġte le
Ġl ies
Ġex ec
Ġfreedom s
Ġoblig ation
Ġ199 8
Ġmax imum
Ġh undred
Ġsh a
Ġn ations
ĠA pril
Ġatt acks
Ġdec is
Ġparticip ate
ĠP PE
ate ver
Ġfact ors
Ġs ession
ĠW estern
Ġg ave
Ġstart ed
ĠA ll
Ġsign al
Ġterror ist
Ġground s
Ġen force
Ġwork s
Ġregul atory
ĠC zech
Ġgener ally
Ġcitiz en
Ġpolit icians
Ġlangu ages
en se
mb ud
Ġne ither
at her
Ġfact or
Ġlow er
Ġcontrib utions
ĠGree k
Ġdisapp oint
Ġban ks
Ġin h
Ġencoura ging
E very
Ġsuper v
Ġdom estic
Ġeas ier
P T
ear ch
ploy ed
Ġbel ong
ĠG e
ĠSwed en
ĠB ur
si bly
Ġs ource
Ġpolit ics
Ġwh ilst
Ġd on
Ġappe ars
ĠSe a
stitution al
Ġun s
pos es
S uch
ul ate
Ġcompens ation
oo k
an cing
ĠSocial ist
ren ess
Ġrespect ed
b ased
Ġnew s
is s
ly ing
Ġd ign
Ġspeak er
ĠR ule
Ġperman ent
Ġv ir
Ġpre fer
Ġel imin
ĠCommission ers
Ġdel ighted
Ġf r
Ġh om
Th ose
Ġinc lusion
Ġfacilit ate
ux em
an cial
Ġvis a
F rom
Ġmo ving
Ġimpos ed
ro at
ĠM or
Ġ ,
ĠRom a
b ur
ac co
ĠC ol
Ġflex ible
act ory
Ġeven ing
Ġar rest
on ia
er y
Ġiss u
Ġpropos es
y r
Ġcompl iance
Ġopin ions
Ġsp ending
uxem bourg
ron ic
Ġconst ruction
Ġpl aced
Ġawa reness
Ġrestrict ions
Ġgra du
Ġhelp ing
h agen
ac king
Ġexper ts
c ast
ul ner
Ġp un
Ġcr imes
Ġlike ly
b al
Ġad just
Ġinvest ments
Ġconflict s
ĠAgricult ure
Ġcap able
ish ing
Ġoper ations
mbud sman
Ġrequire ment
Y et
on s
op eration
ether lands
Ġwel fare
Ġequ ally
er ies
ĠEC U
Ġsupp lement
Ġinterest ed
Ġfight ing
e f
Ġforth coming
Ġconstitution al
d d
Ġsc ale
ĠN etherlands
al t
Ġm igration
Ġpur poses
Ġcustom s
m ark
ir ms
Ġcent ury
Ġnegoti ating
Ġlab elling
Ġsol ve
Ġ199 7
Ġv ulner
Ġpart ner
ĠL uxembourg
Ġr ig
ut ing
Ġnum erous
Ġperson ally
Ġtas ks
Ġdel i
ĠP ublic
eth eless
Ġguarant eed
Ġdise ases
ut ch
l ation
as bourg
Ġs low
Ġresol ved
E U
pp ing
Ġcont rad
Ġsa ving
ĠBalk ans
em ical
or ial
Ġimp ose
Ġp ra
Ġallow ing
Ġinc ent
Ġdef ined
ĠV er
Ġdisast ers
Ġtr uth
Ġpay ment
Ġvolunt ary
Ġlet ter
Ġcontinu ed
erv ations
ĠSt ability
ĠG eneral
Ġsepar ate
Ġmanufact ure
Ġexist ence
ĠAfghan istan
Ġe ast
Ġatt ach
Ġv es
ific ations
or ough
Ġmar itime
c ent
Ġbre ak
Ġf if
Ġexist s
ĠM arket
Ġpri or
it es
ĠStr asbourg
Ġm illions
Ġappropri ations
g ence
D P
Ġqu ant
Ġwor se
ic ate
Ġoccas ion
Ġfunction ing
Ġtrad ing
open hagen
Ġremark s
ĠBarro so
Ġpeace ful
Ġdistrib ution
Ġdemonstr ated
Ġto b
Ġtrad itional
ill s
Ġth orough
ues e
Ġco ast
Ġpo ore
Ġdel iver
Ġindividual s
Ġtob acco
Ġdemonstr ate
Ġassoci ated
Ġopt ion
r ich
Ġschem e
ĠF ramework
Ġset tle
Ġm ission
ĠBudget s
ro g
Ġf low
Ġst e
Ġequ ip
B e
ĠNA TO
Ġoccas ions
ĠL egal
Ġrem o
a rent
not her
ĠN G
ri an
Ġoper ate
ĠEn ergy
ĠPortug uese
Ġeffect iveness
ĠC openhagen
Ġtr ied
Ġofficial s
Ġwr itten
Ġb ank
Ġcontain ed
Ġult imately
e conomic
ines e
Ġoper ators
ĠH ead
Ġknow s
Ġprotect ed
Ġrel ative
Ġrest ruct
Ġfri end
A nother
N ot
Ġb ase
ĠUS A
Ġair port
ĠBal tic
Ġre tain
um er
Ġexam ples
Ġentit led
oub ted
Ġh ost
Ġlegit imate
Ġv ision
Ġcor ruption
ĠO mbudsman
Ġprim arily
Ġconclud ed
Ġass ure
l av
Ġsex ual
Ġ19 8
Ġeth nic
Ġjust ified
Ġaver age
ad es
ul ations
Ġover come
Ġpasseng ers
g n
Ġhand s
Ġfre qu
ot t
9 8
m ission
ce l
0 3
Ġdefin ite
Ġappro ve
ĠCh inese
p ay
ĠC roat
Ġsm o
Ġamount s
h ib
Ġex empt
Ġmean ing
Ġdis pos
Ġexam ine
Ġelect ric
ou ther
Ġnot ed
ab or
Ġreal ise
Ġviol ations
Ġsp read
P er
ure ly
le ction
Ġsubst ance
Ġinvol ves
Ġpass ed
Ġdign ity
Ġcour t
Ġh or
Ġinf ring
Ġstat istics
Ġext ended
Ġdifferen ce
Ġto ler
Ġplay ed
outher n
b r
ad v
es pite
ill ing
9 7
Ġw in
wh at
ĠInd ia
ll ed
il t
Ġcollect ive
Ġcooper ate
ĠD utch
ĠE m
Ġdemoc rat
Ġrev ision
oubted ly
Ġemerg ency
ru ary
Ġfirm ly
eb ruary
ĠA ra
Ġalloc ated
Ġpenal ty
ĠGe org
Ġplan ned
ĠT reat
Ġnever theless
Last ly
ĠRes earch
e chn
o on
Ġwh atever
Ġr ich
Ġcond ition
Ġim ag
Ġw it
Ġ Wh
Ġvis it
Ġnorm al
Ġtreat ed
Ġminister s
Ġfarm ing
Ġsp ace
Ġval u
ad ow
Ġcl ause
av i
pp ed
Ġrequest ed
ect ed
isc al
Ġor d
Ġt emporary
Ġg ot
ĠAustr ia
Ġre iter
ĠTreat ies
Ġ199 6
Ġch emical
Ġc ou
Ġdecis ive
Ġvulner able
Ġd ou
Ġtechnolog ical
S ub
il ing
Ġobstac les
Ġsec ret
g ment
Ġl ose
ul s
Ġoff ers
Ġindustr ies
os ed
Ġun less
ade qu
Ġimport s
ec ause
ĠAs sembly
Ġs l
ĠK y
Ġquot as
ĠOrgan isation
Ġexcess ive
ĠG u
Ġprep are
Ġab use
Ġhapp ens
Ġlat ter
Ġag ency
in stitutional
Ġsome what
Ġimp ression
20 1
Ġprep aring
Ġch e
Ġproper ty
Ġmis s
l in
Ġaff ord
Ġr ul
Ġtax es
Ġfisher men
Ġg one
Ġcomp ared
if orm
Ġhon est
adv ant
ĠC AP
Ġn ation
y ear
ing u
ĠA ss
D espite
Ġwor ry
ap an
200 1
avi our
Ġallow s
Ġsince re
Ġple ase
Ġacknow ledge
Ġconsider ing
ph ere
Ġprevent ing
Ġsecond ly
Ġexc lus
Ġcent re
Per haps
Ġin adequ
G iven
Ġdis advant
Ġhigh est
Ġunf air
n al
Ġdetail s
Ġurg ently
ĠLi ber
Ġund oubtedly
ra ft
am es
ish eries
Ġform al
b u
ĠH igh
Ġd yn
Ġannoun ced
ĠP l
ĠS erv
ĠAg enda
Ġb ound
Ġappreci ate
en omen
ĠS ec
Ġelect ronic
Ġconstant ly
Ġspo ken
Ġelect or
v a
Ġph enomen
Ġt rend
ent y
Ġoper ational
Ġaut om
H ere
Ġrel ates
Ġaccount s
Ġexcept ion
con t
Ġdraw ing
Ġpro ve
ĠIs l
Ġph ase
Ġspo ke
ĠF ebruary
Ġbeh aviour
ĠA ction
Ġf iscal
ou l
Ġge ograph
Ġcon vention
in t
Ġf ruit
Ġapp arent
Ġpurs ue
Ġdist ort
Ġsuperv ision
Ġins urance
Ġprocess es
ĠIsrael i
Ġf ront
Ġst ocks
ĠC ub
Ġintrodu cing
Ġapply ing
Ġpill ar
ag ue
st ood
Ġexpect ations
Ġb at
ĠInter governmental
Ġtax pay
Ġfact s
Ġext ension
Ġsen sible
ĠSlov ak
Ġlat est
Ġoper ating
Ġfri ends
Ġplac es
Ġdeterm ined
Ġwelcom ed
Ġunc ertain
Ġprosper ity
ĠNG Os
Ġab stain
Ġwit ness
e ff
Ġstrong er
Ġab and
Ġeng age
Ġexc lusion
Ġdut ies
Ġmin utes
Ġdescri bed
Ġadv ance
An y
Ġkeep ing
ĠF isheries
Ġint ends
s k
Ġpa per
s c
Ġrest ric
Ġcod ecision
Ġexplo itation
B ecause
Ġ i
Ġse ven
ot o
Ġproceed ings
ĠAll iance
ĠTrans port
Ġstrength ened
v est
in ated
Ġaband on
l ined
Th en
G eneral
R O
g round
es sions
c are
ĠS c
Ġmaterial s
Ġtra ged
Ġconver gence
Ġbar riers
p art
Ġim per
Ġassoc iation
Ġconfirm ed
Ġsub mit
Ġstrate gies
Ġtim et
Ġar t
Ġequip ment
ĠJ apan
os lav
ĠA sia
Ġdis ag
Ġpre m
ress ive
Ġcoordin ated
Ġrepresent ed
ug oslav
a u
tr y
Ġbl ock
Ġstud ies
Ġhistor ic
Ġsupp l
Ġke pt
respon d
am b
Ġargu ments
Ġadver t
Ġp et
Ġpro c
Ġclar ify
Ġfield s
Ġdestro y
Ġ2 3
Ġun iform
Ġrepl ace
ĠSec ret
Ġcon ciliation
Ġpl ant
Ġtyp es
re es
Ġatt ract
Ġfu el
Ġ2 4
ĠY ugoslav
Ġt end
Ġpolitical ly
mb ol
ult ure
Ġacc omp
ak istan
Ġ6 0
Ġmar gin
ĠK ore
Ġcor respond
Ġs ad
Ġrat ification
Ġlarge ly
N L
Ġbeing s
ĠA t
Ġdeb ating
Ġpubl ished
et er
Ġbrief ly
c er
ĠB os
Ġprot est
Y es
st ruction
Ġlar gest
Ġfollow s
Ġcoh erent
A C
s h
Ġp ie
id ing
Ġleaders hip
Ġsy mbol
am p
Ġreal istic
Ġcontract s
Ġbr ings
Ġvir t
Ġpat ients
ĠPro di
Ġst im
ut in
un der
Ġb it
Ġres um
a i
Ġpro hib
Ġl ic
Ġmaintain ing
Ġst ra
5 0
ĠWh ite
Ġest im
Ġurg ency
Ġmo bil
ĠFund amental
Ġon going
Ġsuff er
Ġsovereign ty
O ther
Ġmult ilateral
R eg
ĠV ice
Ġamend ing
Ġundert aken
ĠFin ancial
Ġperfect ly
Ġansw ers
i ke
ici ently
Ġident ity
Ġelectric ity
ĠCon t
Ġsur ve
Ġcle an
re ens
or ry
Ġoff ered
et ic
Ġcare ful
Ġbelie ves
Ġsignificant ly
Ġsh adow
ĠIn st
ĠConstitution al
Ġfel t
ĠB e
Ġe t
Ġro om
Ġfind ing
ĠCroat ia
Ġun ited
ĠComm un
Ġinnov ative
Ġves sels
ĠP akistan
Ġ2 2
Ġacc idents
z e
Ġprov ed
Ġdepend ent
y stem
Ġwa iting
af ety
Ã ¼
Ġterrit orial
Ġregret t
Ġst able
Ġleg ally
Ġabs ence
Ġchang ing
Ġdeterm ination
Ġargu ment
Ġrestruct uring
ll ing
Ġv ig
Ġbudget s
C an
on a
Ġw ine
pos ition
Ġunivers al
Ġfin e
Ġqual ified
uls ory
Ġtrans ition
ĠA d
Ġdef ine
de av
Ġwa it
Ġres ist
Ġrec all
Ġcar s
qu ir
Ġen deav
Ġdifficult y
Ġmed ical
Ġdr iving
Ġunder stood
Ġlear ning
n el
Ġhighlight ed
Ġamend ed
ld er
Ġsupp osed
lev ision
ĠO b
ĠHead s
Ġconst itu
ĠEm ployment
Ġvalu able
ĠCons umer
A g
Ġwe alth
ach ing
Ġexper t
Ġdispos al
ap pe
9 6
Ġsignific ance
Ġcho ose
Ġwat ers
Ġsur v
Ġen vis
Ġpat ent
g le
ell ig
Ġdist in
ĠProt ocol
ĠSerb ia
Ġc ro
Ġhold ing
Ġresult ing
Ġexport s
Ġext ensive
Ġmil k
Ġra c
ĠW est
Ġsustain ability
Ġe ight
ak es
Ġrefer ring
Ġhon our
in i
g l
ĠC ong
ĠRep resent
3 0
Ġpre ced
Ġsee ing
Ġgenuine ly
ĠN ew
% .
ail y
Ġdef icit
Ġprim ary
a ff
ch es
ĠA ust
Ġfig ure
Ġdis pl
Ġsatisf actory
ĠProt ection
ĠHung arian
Sub ject
Ġap art
Ġdeli ber
rodu ct
li ke
Ġinfring e
âĢĻ .
urs day
Ġsoci et
at ible
pos ed
Ġto uch
Ġneighbour s
Ġlegit im
Ġins pect
Ġbo ost
S t
form ation
ro c
Ġis ol
ne cess
Ġlead s
I S
Ġnegoti ation
Ġper mit
Ġur ban
Ġs light
A F
s ession
Ġd aily
Ġbecom es
Ġdis m
ĠV AT
Ġsuggest ed
Ġst ock
b it
Ġfl ood
Ġprep aration
op s
ia bility
Ġbu ilt
Ġact ively
Ġ199 5
on om
Ġprot ocol
Ġconsid ers
ĠAra b
ĠBos n
Ġun necess
Con sequently
Ġassum e
Ġst rug
Ġacknow led
On ce
Ġtr ial
Ġnum bers
Ġsa w
Ġd ivid
el lect
Ġneighbour ing
ĠG reens
Ġus ers
ĠAn d
Ġsome one
Ġme at
In st
Ġplay ing
Ġd ram
Ġpl ants
ĠTh ursday
Ġjour nal
Ġmon op
Ġav iation
Ġdis appe
Ġconstit ute
Ġcoll abor
Ã Ń
Ġwid er
Ġse vere
r ies
Ġz one
Ġprevious ly
Ġdest ruction
Ġoblig ed
Ġset s
Ġrele ase
r imin
Ġval id
Ġsatisf ied
Ġcod e
Ġident ify
Ġver sion
ĠM c
ĠN orthern
Ġrequest s
Ġpa rent
Ġindic ated
Ġelse where
ut r
Ġbre ach
Wh ere
Ġlist en
u sion
Ġ8 0
Ġmaintain ed
ar i
Ġinvestig ation
Ġstand s
eng th
ĠMor oc
Ġsuff iciently
i ar
Ġte am
Ġpos sibly
Ġspeech es
Ġchec k
ĠH a
Ġprison ers
ang ing
Ġthan king
Ġlaunch ed
Ġconcentr ate
Ġtra gic
ĠLat in
ĠG DP
i que
Ġd iver
Ġtr ib
Ġgreat ly
Ġback ground
ix ed
rel ated
os en
Ġaffect s
Ġinadequ ate
Ġpart ly
act ive
Ġet c
Ġl inks
Ġv ac
Ch ristian
Ġrun ning
Ġoppos ite
h ouse
ĠGeorg ia
Ġaf tern
d ict
Ġcomple ted
Ġli ber
ig u
Ġsuff ered
Ġinterpret ation
a ment
it age
Ġident ified
Ġattempt s
Ġtop ic
Ġcom plement
Ġtrans itional
Ġs il
Ġtimet able
Inst ead
Ġenforce ment
Ġspec ies
p ir
Ġcomp ulsory
Ġrem ove
Ġp ush
Ġpos sibilities
Ġacc ident
ĠKy oto
ĠAust rian
Ġre action
al le
Ġdou ble
ellect ual
Ġte levision
ĠCh rist
D uring
Ġissu ed
Ġenh ance
Ġple as
Ġconduct ed
Ġschem es
ĠB SE
Ġhim self
Ġm id
Th us
Ġw ent
Ġmore over
Ġsociet ies
Ġopt ions
Ġrecon struction
Ġd ri
A re
v ent
im b
ĠEx ternal
Ġch osen
Ġhear ing
CO M
Ġmedic ines
ĠCont rol
ĠIn ternal
Ġhelp ed
Ġint ellig
Ġmot or
Ġp ain
Ġdes erves
Ġguarantee ing
qu ality
Ġcompl icated
ĠBrit ain
Ġcarry ing
Ġun p
Ġdep art
Ġmor al
Ġimpl ications
Ġaftern oon
Ġdeb ated
Do es
ard ing
Ġl ength
Ġbl ood
ĠRepresent ative
Ġh ouse
Ġst ay
Ġg ap
Ġsee ks
te en
Ġfacil ities
O ver
Ġfl ag
ĠBelg ian
Ġbel ief
Ġsta bil
Ġsure ly
i ety
Ġmass ive
Ġtraged y
n o
bu ild
Ġtext s
Ġport s
Ġc y
an e
Ġcompet ent
Ġprospect s
c l
Ġrat ified
Ġbe g
Ġs outhern
f ree
ners hip
ĠSecret ary
ĠFin land
r is
Ġcoun t
Ġp urely
Ġsp ite
Ġdefinite ly
Ġs orry
ĠE M
ith u
ĠT un
Ġmist ake
E L
Ġwhere by
ĠN ice
Ġdeal s
Ġworld wide
f e
With out
ĠS afety
at ures
Am end
Ġc ities
Ġs ize
Ġc op
Ġint entions
H aving
itiz ens
Ġheav y
cel ona
ĠP at
Ġint ellectual
Ġsuccess fully
Ġjud ge
Ġopt im
Ġpoore st
Ġh ar
Ġl ob
co hol
ĠBosn ia
Ġv an
Ġ3 1
Ġadvert ising
Ġaddress ing
Ġexp and
ira ble
Ġcent res
Ġco al
ĠCh ristian
as m
Ġincre ases
Ġpro of
ĠSocial ists
Ġdiplom atic
Ġcontrad ict
Ġ 0
Ġopen ed
Ġch ap
ĠF ood
Ġunanim ously
Ġaut onom
ĠEuro pol
Ġact ing
Ġ2 6
gy pt
Ġschool s
comm un
um ping
Ġ5 00
Ġphenomen on
Ġconsider ations
Ġworry ing
Ġgen eration
m on
Ġappro x
Ġhundred s
Ġwor st
Ġper cent
Ġopen ness
Ġhealth y
Ġfor g
Ġch ann
ang es
R e
Ġstress ed
Ġrelative ly
Ġin ev
Ġdeterm ine
Ġrapid ly
E n
Ġsk ills
Ġ2 8
abl ed
Ġin equ
ĠBar celona
sc ale
Ġdisp ute
Ġprodu cing
Ġph ys
Ġsole ly
Ġd ig
Ġacqu is
at lantic
Ġmult i
Ġref ers
Ġessential ly
ĠBelg ium
E x
Ġex ceed
Ġdemand ing
Ġdep ends
Ġsug ar
Ġeas ily
Ġpur ch
p ed
ĠComm on
Ġsc and
1 99
Ġcorrect ly
Ġinter institutional
Ġtool s
Ġtaxpay ers
L AF
Ġpro ud
Ġher itage
ĠHung ary
ed ly
Ġh ous
Ġgovern ing
Ġp ict
Ġpen sions
Ġcris es
Ġplay ers
ib et
Ġadv ice
bur g
Ã ³
in c
Ġc ore
Ġchar ges
Ġfore most
ĠPresident s
Ġext ending
ĠPol ish
Ġbe ef
Ġhop es
W ill
Ġre ve
Ġprev ail
ĠReg ional
ra z
Ġdec ades
Ġrec ip
Ġthreat s
Ġharm ful
Ġconsider ably
hold ers
a ud
h r
Ġnational s
Un der
Ġenvironment ally
ĠPart nership
Ġcut s
Ġextra ord
Ġprofit s
Ġenabl ing
Ġsaving s
ĠL ithu
Ġrespect s
Ġexpl icit
e in
Ġpasseng er
Ġprom ised
Ġquot e
Ġcla ims
Ġrein for
Ġrein force
Ġter ri
ci pl
Ġadvant ages
ĠG M
Ġrel iable
Ġbureauc racy
Ġchair man
Ġal cohol
Ġremain ing
s es
Ġt ort
Ġto wn
or ing
Ġre ass
ĠLe ft
i pe
Ġachieve ment
Ġgrant ing
Ġfa ith
ot ed
Ġcl arity
re m
0 4
Ġinc om
Ġpro sec
Ġexperi enced
ĠEC B
if ies
Ġdict ators
Ġmanufacture rs
200 0
B oth
en cing
Ġbl ack
Ġfoc used
Ġrev en
ĠA uth
P ro
Ġpay ing
Ġundertaking s
ĠE gypt
Ġpie ce
Ġfav ourable
Ġp an
ĠCh air
Ġfeel ing
Ġsp end
Ġcal c
Ġencoura ged
Ġdecl ared
Ġdoub ts
ĠS an
Ġsu itable
Ġgeograph ical
Ġd ed
Ġcom pon
ĠD anish
Ġcontrib uted
Ġopp ose
ad a
n ual
ĠD en
ĠLi beral
in o
Ġapplic able
S P
a x
Ġemphas ised
Ġregrett able
ĠH ome
Ġreflect ed
is ch
Ġis land
Ġeast ern
ĠT ibet
Ġregard ed
Ġcommun ications
J ust
ut ive
rep ren
repren eur
Ġwilling ness
l s
il es
Ġar ticle
ĠKore a
ro ad
th ly
Ġhistor ical
h us
Ġ Thank
Ġbig gest
mp ath
Ġent ered
Ġcompet ences
Ġmod ified
Ġs la
Ġal leg
cept ion
Ġcertain ty
Ġappl ications
S C
Ġag g
Ġma c
a bilities
ĠM aced
Ġf irms
Ġdyn amic
our ism
Ġpun ish
Ġup d
Ġcontro vers
Ġ201 1
Ġsucceed ed
Ġunnecess ary
Ġad mit
Ġins uff
Ġind irect
Ġrad ical
Ġconstit utes
Ġreach ing
ĠP et
ĠW omen
Ġremo ved
âĢ ĵ
Ġaffect ing
c le
Ġwhere as
ou red
Ġown ers
Ġimag ine
res h
ul ating
Ġviol ation
ĠL a
Ġend ors
M ay
Ġsy mpath
Ġsupplement ary
ĠGro w
Ġdet ri
Ġhead ing
Ġperform ance
Ġlegitim acy
rich t
Ġar ise
Ġcour ts
ĠGrow th
k a
er ved
ol l
ĠRe port
ast richt
Ġhealth care
Ġship s
Ġsumm er
ĠCo operation
Ġnegoti ated
ĠTun is
Ġpower ful
Ġr ational
and a
i ence
Ġv ast
Ġsc r
Ġconsequ ence
Ġair lines
Ġincorpor ated
ad ing
o res
ic ro
Ġprom pt
Ġtrad ition
Ġlead er
Ġan tic
ra id
tic les
Ġear th
quir y
Ġs ought
Ġreiter ate
Ġinterv ene
Ġover l
c ip
Ġcar bon
Ġsur round
Ġemb ar
res hold
ter ing
Ġch ain
Ġcitizens hip
Ġfair ly
ĠMa astricht
Ġaf raid
Ġc ert
Ġapplic ant
Ġd ro
D A
Ġpers u
Ġobtain ed
Ġres ervations
Ġstra ight
r id
Ġh ence
Ġpresent ing
Ġsmall er
Ġwe ight
Ġal arm
Ġtest s
Ġrelig ion
Ġth reshold
Ġs outh
Ġfor um
Ġas ide
Ġfa st
Ġrest ore
Ġgreen house
o x
o ard
ĠR ural
ĠAuth ority
ĠS ud
Ġut most
ĠCub a
Ġdeep ly
in ational
Ġent repreneur
Ġtarget ed
ut er
ĠW ar
Ġevery body
Ġsubject s
ust ry
ĠSlov en
Ġinf lation
Ġn ight
ĠBudget ary
ĠAss oc
Ġsa ke
oph ob
Ġt ight
Ã ¤
in al
Ġ2 9
Ġt un
Ġb iod
du c
act ions
Ġsa ve
ĠPl an
Ġelector al
n a
Ġj e
Ġtrans l
ograph ic
Ġb io
ĠG az
Ġmarket ing
in ent
le t
Ġdes erve
Ġrad io
Ġcre ates
Ġsuggest ions
Ġle aving
ĠParliament ary
Ġwat ch
ĠBur ma
ill enn
O b
l obal
w ork
Ġimportant ly
Ġra ising
Ġnecess arily
Ġnegoti ate
Ġpriv ile
Ġantic ip
Ġord inary
Ġdecl arations
s pect
ov a
j ud
p oint
Ġword ing
Ġsch ed
Ġdo or
Ġjoint ly
% ,
m ing
ĠD ec
wh ile
Ġexplan ation
ĠC oh
L ike
on y
al ities
Ġexclud ed
it z
os p
ĠDen mark
ĠC F
com ings
Ġmult inational
Ġhy p
Ġent ail
Ġdraft ing
S im
Ġfle et
Ġterri ble
Ġorgan iz
Ġey es
Ġrepeated ly
s y
all ing
Ġno on
Ġincent ives
Ġscr utin
Ġrev ised
Ġmac ro
ĠAssoc iation
Ġst ip
Ġexam ined
Ġwelcom es
Ġsettle ment
I D
ĠE st
ra pporteur
it le
Ġshort comings
Ġdo ct
Ġcomplain ts
st uff
Ġbu y
Ġd os
Ġcomb ined
Ġshow ing
Ġey e
Ġch arge
Ġrail way
N or
w ing
Ġemploy ers
Ġbureauc ratic
Ġton nes
p read
ab we
imb abwe
ĠB ro
Ġenl ar
Ġbuild ings
Ġ7 0
illenn ium
Ġchec ks
Ġnear ly
Ġhard ly
ĠM us
Ġint ens
p ut
are r
ĠBer lin
b ate
ĠN ational
Ġcred ible
Ġarm ed
C lear
op ard
Ġcan cer
ollow ing
Ġsurpr ised
Ġelimin ate
ĠSud an
It s
Ġdis abled
ides pread
Ġexcept ional
Ġsimpl ification
Ġrepresent ation
Ġp act
Ġdisag ree
Ġreflect s
Ġairport s
Ġtrans actions
Ġper sec
ob ile
Ġfound ations
b ania
ar a
Ġh it
Ġout standing
Ġacc ur
Ġw idespread
ĠF or
Ġeduc ational
or ous
ĠE P
Ġrac ism
Ġtreat ies
Ġquot a
Ġunder line
us al
commun ications
ĠP SE
ĠA z
W ell
Ġsci ence
Ġs ac
ĠM art
Ġ Question
Ġjust ify
Ġexpress ing
Ġder og
g ue
ĠT ime
Ġbroad er
ĠS ol
Ġse lect
Ġcomm end
Ġf ederal
Ġdel ays
it ative
Ġcandid ates
Ġsusp ended
Ġpleas ure
Ġturn ed
c raft
Ġj ur
it ute
Ġje opard
a ks
ol it
Ġperiod s
ĠYugoslav ia
. )
ul l
Ġyou th
Ġ9 0
ĠMoroc co
A R
ĠC ivil
ĠS h
Ġkind s
ĠSlovak ia
ure ment
Ġto ugh
ers on
ĠG al
Ġfew er
Ġpict ure
ĠV an
Ġwarm ly
eren ces
Ġred und
Ġf resh
Ġunem ployed
Ġfamil iar
E N
Ġdiscr imin
Ġloss es
ĠB urea
vious ly
ast ro
Ġabol ition
ĠMaced onia
Ġn one
Ġint ensive
Ġfall s
ĠC ulture
Ġlob by
Ġbe aring
Ġeconom ically
Ġresult ed
em ic
b re
Ġbiod iversity
b ing
Ġinc ident
Ġamb ition
Ġsha pe
ĠBurea u
Ġinc omp
Ġ19 7
Ġtack ling
Ġalloc ation
Ġr id
Ġdead line
uc k
ĠRom an
Ġphys ical
Ġbel ow
M ed
ĠSt at
ĠT ourism
Ġdraft ed
ĠZ imbabwe
Ġb omb
T w
Ġsatisf action
ic ed
Ġstud ents
Ġl iability
Ġmin im
Ġexp ensive
Ġair craft
an ks
Ġin con
Ġexp ense
Ġprep arations
ĠM old
Ġdis cipl
Ġtar iff
Ġenh anced
gl ish
S V
Ġscand al
Ġrel ate
Ġlast ing
Ġpar am
Ġunderm ine
Ġf ost
Ġqual ifications
Ġrestric ted
ĠAl bania
Ġst ance
ĠL am
alle l
Ġte ach
Ġfor t
Ġde pr
Ġpenal ties
g en
Ġinter governmental
Ġsha res
Ġwide ly
Ġun ity
ĠJ oint
Ġprocess ing
ĠPalestin ians
Ġf ire
Ġindic ate
Ġdictators hip
Ġbroad cast
Ġoccur red
Ã¡ n
ate ll
Ġfree ly
Ġcateg ory
Ġbec ame
Ġadv is
b s
Ġco vers
ene va
Ġless ons
Ġmot ions
Ġc ity
Ġra w
Ġtrans atlantic
Ġ. ..
Ġcondem ned
ol er
Ġcivil ian
Ġpres erve
fortun ate
Ġs pl
ĠIsl amic
ĠEn glish
Ġlar ger
Ġcollabor ation
ĠGaz a
se e
ĠK urd
Ġun fortunate
Ġinsuff icient
ĠFin n
F ollowing
iti ative
Ġindic ators
Ġproc urement
raz il
Ġw ind
Ġuncertain ty
ĠL ib
Ġp il
Ġarm y
ĠG eneva
ĠInd ustry
Ġexplain ed
ĠP ar
ĠDirect or
Ġsw ift
Ġjur is
Ġcor por
Ġfinan ced
Ġregul ated
lder ly
Ġf il
Ġput s
ĠC ent
Ġterror ists
Ġca using
Ġec ological
build ing
Ġas se
Ġout set
Ġregul ate
Ġdis s
ĠA ct
Ġtw enty
Ġrece iving
Ġcoordin ate
Ġannoun ce
vest ment
ĠI G
Ġtele communications
Ġoff ering
Ġpop ulations
Ġeth ical
Ġfr ank
stuff s
Ġfinan ces
Ġce le
Ġt urning
Ġpre f
ov iet
reg ular
Ġbas ically
Ġdecl are
Ġgradu ally
N on
it ch
Be fore
Ġaccomp an
Ġparent s
d isc
Ġf un
Ġrem ed
Ġregis ter
qu es
ĠH er
Ġt ang
Ġgener ations
Ġres erve
Ġdemonstr ates
ir th
Ġmin ute
Ġun ique
Ġextre m
Ġdeter ior
Ġdeath s
Ġeng aged
o e
Ġha z
Ġequ ival
Ġsuggest ion
Ġign ore
Ġdri vers
S he
a ut
Ġwar ning
Ġe lderly
Ġprom ises
P eople
h and
en sible
Ġcon ce
Ġcat ch
Ġl ie
Ġnot ice
Ġcongratul ations
Ġun w
Ġjournal ists
ab it
Ġregard less
Ġlist ened
Ġextraord inary
200 2
Ġundert ake
Ġweak ness
Ġunanim ous
Clear ly
s pe
Ġin j
um e
Ġcompar ison
Ġdos si
ap ers
ab our
Ġfrequ ently
c oun
ĠR ome
pect ives
Ġbe gan
Ġs phere
Ġcontact s
Ġendeav our
ou d
Ġd ia
Ġrel oc
Ġterrit ories
Ġassoci ations
Ġk illed
l im
Ġobser ved
Ġpresent ation
Ġdig ital
om an
roduct ive
Ġinform al
ĠM alt
Ġatt end
vis ory
Ġsuppl ies
o ly
Ġdemon st
Ġbat tle
Ob viously
o z
Ġs pect
Ġill ustr
Ġv iable
Ġent hus
Ġnon etheless
Ġstrug gle
Ġcolle ction
Ġir regular
Ġad h
pl ace
Ġprevent ed
A L
Ġdem ographic
m ination
Ġlook ed
Ġnecess ity
Ġexer c
E EC
Ġprom ise
o ff
g m
app ro
ĠEM U
ĠIG C
l aration
Ġbenef icial
Ġforg ot
at o
Ġtrib ute
an cy
Ġsh ame
Ġpre ca
Ġar ising
Ġcomp atible
ĠLithu ania
Ġag rees
Ġforest s
Ġ199 0
Ġpromot ed
âĢĻ ,
Ġabstain ed
Ġstri ke
Ġse arch
Ġs ending
ist ical
Ġshort ly
) :
as c
oc king
et ically
Ġpursu ed
Ġd umping
Ġk n
Ġsect ion
ĠO ffice
ond on
Ġsincere ly
S h
abl es
Ġsu spect
ĠF isch
Ġcle arer
Ġtort ure
Ġun like
r itten
he art
Ġbl ame
Ġno body
ĠDec laration
ĠS oviet
ĠB as
Ġvac c
F our
Ġpre dict
Ġcou ple
F I
Ġtalk ed
Ġmo ved
ir ing
Ġemer ging
le vel
Ġaccompan ied
Ġpre c
Ġsoci o
Ġban king
ĠAmeric ans
. '
Ġun re
Ġc ard
ill ance
Ġreven ue
A b
f u
Ġtrans it
Ġclar ification
ĠL ondon
Ġprin cip
Ġcho ices
Ġeffici ently
Ġexclus ively
Ġno ise
Ġcongratul ating
Ġconv entions
Ġche ap
Ġim bal
Ġ3 5
Ġfour th
ar ians
Ġpers ist
Ġn orthern
Ġapprox imately
ID S
Ġke en
ĠFinn ish
Ġaccess ible
reg ulation
Ġso ft
Ġlo ans
Ġreve al
A r
Ġan t
Ġrespect ing
Ġharmon ised
Ġr ising
ĠB razil
Ġroad s
Ġtro ops
Ġdistin ction
Ġ201 3
Ġdef ending
Ġobs ervation
Ġvehic le
t ime
Ġ199 4
ĠAs h
f ence
Ġpercent age
cy c
Ġtime ly
ĠN e
Ġitem s
ul a
ĠA L
Ġenlar ged
Ġun ions
Ġreject ion
olid arity
Ġw age
Ġpers pectives
Ġalong side
Ġin eff
Ġsp ring
Ġstand ing
ro us
Ġcampaign s
0 5
l ights
ĠM er
Ġorgan ise
O r
Ġbeg un
Ġer ad
Ġst ations
Ġsy n
Ġconsult ed
Ġv oc
Ġjud gment
Ġdiv ision
Ġfriend ly
Ġsurve illance
ĠCh echn
Ġdist ingu
Ġsimpl ify
Ġstrict ly
Ġdivid ed
Ġb irth
Ġmar ine
ĠLe ban
Ġcro ps
Ġexperi encing
ĠCan ada
A S
Ġaltern atives
t ion
I B
Ġun equ
Ġqu arter
Ġev ident
Al so
m in
p ro
ĠChechn ya
Ġcons ervation
Ġcoh erence
Ġce ase
Ġdes irable
Ġdisappoint ed
Ġorganiz ations
Med iterranean
ver se
Ġpar allel
Non etheless
ed eration
Ġro ute
ĠT am
Ġdirect ed
Ġhor iz
ĠAt lantic
ĠM al
Ġh um
Ġref use
200 6
Ġthreat ened
ĠY ear
Ġhyp oc
Ġtang ible
Ġinh abit
ĠServ ice
Ġf em
Ġus ual
Ġso il
ke ep
Ġinv ite
de bate
Ġrul ing
re qu
coun try
Ġstr ing
Ġtext ile
Ġb ott
M ost
r ust
at form
ĠC a
199 9
R es
Ġst em
Ġhop ed
Ġ That
Ġd ream
Ġint oler
Ġref lection
ex ist
201 3
duc ation
Ġm ur
ĠC itizens
Ġabs urd
Ġrail ways
ĠCent re
Ġse cur
Ġunanim ity
ĠG lobal
Ġrespect ive
Ġconn ected
ophob ia
in n
Ġim age
The ir
ent ed
Ġaccept ance
Ġtrad itions
Ġrepl aced
re y
Ġr ating
Ġper mitted
Ġyour self
ĠO LAF
d own
ĠS ingle
Ġobser vers
Ġbenef ici
Ġsh aring
pet us
Ġshow ed
l o
n ational
Ġassess ments
Ġl acking
Ġst re
Ġph arm
Ġjoin ed
od e
Ġcateg ories
Ġim petus
Ġens hr
os is
Ġcompet e
Ġpart ial
Ġforgot ten
Ġra re
Ġneighbour hood
Ġdef ining
Ġpop ular
Ġ You
ĠG o
ĠF ree
enn a
r ison
if e
ubl in
Ġref used
l imin
Ġout er
Ġvict im
Ġpursu ant
H U
Ġconf usion
Ġfar ms
Ġinter im
iz ing
Ġobs erve
Ġm ent
Ġn orth
Ġor ient
Ġimpos ing
Ġauthor isation
Ġresum ed
r imination
om et
sk i
Ġestim ated
Ġgen etically
Sim ilar
il os
Ġra ises
Ġhigh lights
Ġconsequ ently
ĠL abour
Ġunder lying
Ã ¨
ark ed
Ġcontrib uting
Ġlog ical
Ġdram atic
Ġhous ing
z one
Ġres ource
Ġpl ays
Ġm icro
oun tain
Ġup hold
b all
i ate
Ġsign ing
Ġworth y
Ġb en
le ase
Ġcharacter istics
Ġm igrants
Ġentrepreneur s
Ġpre jud
ĠMold ova
Ġpl ural
Ġsystem atic
Ġproced ural
ĠStat ute
m m
Ġma ch
Ġachieve ments
oth ing
Ġintegr ity
Ġsal es
Ġslight ly
Ġprevent ive
Ġscrutin y
Ġnot ably
Ġreport ed
Ġchap ter
ĠPalest ine
Ġcounter fe
Ġmiss ing
so ever
ĠH ow
Amend ment
Ġexp an
Ġmur der
an cies
Ġcons ci
Y our
r ors
re w
Ġcontrovers ial
ĠW all
Ġjoin ing
tr ation
Ġfund ed
Ġide al
Ġexch anges
ĠOb ject
a ves
Ġm urd
Ġpre limin
Ġtra ck
Ġpost al
Ġdestroy ed
Ġrecon ciliation
Ġsub sequently
Ġhelp ful
ĠDe fence
st ream
ect ive
.. .
Ġlaw y
Ġpriv at
io x
Ġdis reg
Ġcoast al
d iction
ist ered
Ġwhat soever
ĠM ad
ian nual
ex ic
Ġequival ent
t eg
ĠPet itions
os s
Ġapproach es
ĠD ublin
Ġem ission
Ġprelimin ary
in der
ra ce
Ġcont rast
Ġrepresent ing
Ġcult ures
Ġexpan sion
R ule
m ar
Ġpil ot
Ġdistrib uted
ĠCons erv
Ġcele br
ĠIn vestment
Ġadver se
) )
or ne
Ġf ires
Ġenvis aged
Ġadv anced
Ġman aging
ote chn
ed nes
Ġredu ctions
Ġmove ments
sequ ent
Ġcontro lled
Ġunivers ities
Ġsac r
ednes day
Ġcomm ission
Ġaccording ly
Ġg rat
Ġexcept ions
rimin al
te xt
Ġchemical s
Tw o
Ġflow s
Other wise
Ag ain
uc as
Ġmot iv
Ġsafeguard ing
yr ia
Ġ [
ant ly
Ġun ilateral
Ġrat ify
Ġmist akes
Ġregular ly
Ġsurround ing
Ġadvoc ate
ig ation
ĠSt ock
Ġban ned
ĠFr id
Ġir re
Ġouter most
p one
Ġd iox
ug ust
Ġfe as
Ġanal y
I F
Ġprovid ers
it ably
Ġc ens
Ġm obile
Ġprof ound
Ġer ror
Reg arding
Ġimport ed
Ġsub sequent
Ġph ilos
Ġparticip ating
ĠH am
Ġhoriz on
ĠP e
Ġjust ification
Ġlos ing
a bil
Ġc ell
Ġinvest ors
Ġamb itions
Ġinhabit ants
Ġsc en
al ia
ĠN ord
Ġn ine
if eration
Ġloo ks
Ġpost pone
All ow
ugh ter
Ġsol ved
Ġel ig
Ġdev ast
ard ed
Ġab uses
Ġgain ed
Ġcont am
Ġper pe
Ġfear s
W ritten
em b
Ġar bit
Ġfound ed
it ored
Ġexperi ences
Ġdeleg ations
Ġsent ence
Ġincorpor ate
Ġappoint ment
Ġresist ance
Ġf ixed
Ġconv iction
know n
R ec
Ġcomprom ises
Ġevent ually
Ġdisp utes
ĠTunis ia
on ing
Ġdec re
ivers ary
Ġrestrict ive
Ġperpe tr
ĠN ig
Ġfail s
Ġcover ing
Ġoccup ation
Ġhaz ard
Ġfail ing
Ġw ages
el ong
Ġreg imes
Ġfre ight
C S
i pping
Ġre ly
ĠT im
Ġas pir
ĠMon day
dd en
Ġinfringe ment
appro pri
P lease
ĠI C
Ġold er
Ġinfrastruct ures
ĠMalt a
R us
Ġn om
Ġinter f
Ġw oman
um n
Ġexam ination
Ġconc ent
Ġsign s
Ġre aff
Ġpro l
bl ing
ign ed
Ġmon itored
ten ance
le y
ut ical
ĠM il
Ġrev olution
Ġmand atory
Ġres idence
Ġbl ind
Ġasse ts
er ving
Ġign ored
i ov
Ġaccept ing
ĠAL DE
Ġen for
Ġde pl
ĠD ay
Ġins ide
Ġdr ive
Ġinvestig ations
ĠLat v
T A
Ġd ivers
Ġsuggest s
Ġf at
Ġf al
ch e
Ġab road
Ġgro ss
Ġwhole heart
ug en
Ġdang ers
Ġsuper visory
Ġ x
ĠS ystem
Ġpre text
Ġann iversary
Ġlist ening
Ġfun ctions
Ġar ch
oo king
Ġmod els
oh a
Ġdisappe ar
Ġst ages
Ġli ked
Ġm ountain
Ġre cyc
Ġconsist ency
Ġpursu ing
Ġtoler ance
us sions
Ġhuman ity
be it
Ġconv ince
ĠCommun ist
SC E
requ is
Ġacknowled ged
Ġconcent ration
Ġ3 00
g ling
Ġcons ent
Ġjuris diction
Wh o
Ġwar rant
Ġ201 2
Ġintegr ate
Ġn ar
Ġconf ident
ĠE IB
Ġmark ed
Ġcrimin als
Similar ly
w an
Ġcon ve
N G
Ġtra in
C ould
ation ally
Ġbr ut
Ġbr id
Ġcontain ing
Ġinn oc
Ġexpert ise
ĠCoh esion
Ġaccount ability
Ġdecl ine
Ġpreca ution
Ġun just
Ġp resident
re aching
Ġansw ered
Ġfound ation
Ġwithdraw al
astro ph
p ow
ĠF er
Ġstake holders
Ġw ise
Ġsu dden
s ist
er o
Ġal beit
em pl
Ġap olog
Ġeng ine
Ġfu els
ash ion
ĠAsh ton
le x
Ġcat astroph
ĠI M
Ġpre requis
Ġind is
Ġoff ices
ĠRe form
ca pe
Ġreport ing
Ġout lined
ĠW ednesday
Ġaccount ing
Ġconclud es
Ġmeant ime
Ġbio fu
H O
Ġinv ited
Ġvar iety
ĠIraq i
Ġx en
Ġ Ã
ĠC ar
Ġse ll
Ġh our
Ġh ung
ĠM exic
H ence
ur ies
Ġdec ent
Ġvis ited
Ġden ied
Ġviol ent
Ġarr ive
Ġstring ent
ne x
Ġemploy ed
Ġconsolid ation
ct ic
ĠA b
Ġresol ving
hol m
un ately
Ġen er
Ġus ually
ĠInd ones
Ġf it
Ġne utr
ĠD oha
ĠJ oh
Ġeuro s
Ġc ast
Ġfin ish
Ġact ors
ĠCol omb
N at
ĠC or
Ġsol d
ĠA ugust
m illion
Ġimp rison
Ġconst rain
Ġstat ute
ul ous
Ġv it
Ġsympath y
C ertain
Ġes c
Ġpost pon
Ġn ames
Ġrec ital
Ġprov en
Ġautonom y
Ġnot es
ov ina
he ugen
Ġrele ased
Ġton ight
ĠServ ices
om pl
Ġs ight
Ġb acking
ce ler
Ġorgan ic
Ġut il
ĠSc ot
ĠF reedom
Ġdec entral
Ġneg lect
ĠR ed
Ġfall ing
ap se
Ġmain tenance
Ġrecogn ises
Ġvis ible
re a
Ġmodern isation
Th rough
Ġvis as
Ġage ing
Ġcorrespond ing
Ġvirt ually
Ġfem ale
Ã¶ m
Ġregis tration
v ote
st ic
Ġfe atures
Ġfore cast
Ġsafegu ards
Ġvot ers
Ġfurther more
Ġve get
Ġfif th
ĠObject ive
ee p
str Ã¶m
u pp
er ion
Ġat m
Ġpriv acy
ace utical
ĠO SCE
Ġh es
ne y
ĠLib ya
y es
Ġcrit erion
Ġir respon
vent h
Ġs ites
Ġpr ime
Ġincent ive
Ġmonop ol
Ġadequ ately
ĠB on
Ġlear ned
Ġgradu al
ri end
200 3
ĠAl ban
Ġdossi er
Ġac celer
man n
Ġconsult ations
Ġrenew ed
ĠPat ten
N S
est y
Ġparagraph s
Ġsubstantial ly
Ġfif teen
r ate
Ġs atell
Ġdisast rous
Ġexplan ations
ĠFrid ay
ul f
Ġcut ting
Ġce iling
Ġendors ed
A d
ress ed
Ġobs ervations
ĠDemoc ratic
h ne
er land
Ġh osp
Ġess ence
res pective
Ġind ication
Ġact ed
Ġphilos oph
o k
Ġent ering
z eg
ĠM s
Ġdom in
fin ancing
Ġf ron
Ġhelp s
Ġrefuge e
1 1
Ġp estic
am ed
Ġhope fully
wh el
Ġpartnership s
Ġdev oted
Ġappoint ed
Ġs qu
Ġb ra
ĠM illennium
Ġass urance
Ġscient ists
ĠChair man
itz erland
s on
Ġp ipe
op er
ĠF irst
Ġcomple tion
Ġmis under
Ġcla uses
Ġexec utive
P art
ĠS yria
Ġover whel
Ġconf ront
ove red
ĠLiber als
Ġfal se
Ġm al
Ġar gue
Ġ199 2
ha ust
or age
Ġd ied
ĠC riminal
Ġproduct ivity
Ġconsist ently
Ġcor ner
Ġsur pl
Ġb orne
Ġapparent ly
ĠE ducation
Ġclos ure
pe ction
Ġavo ided
Ġbad ly
ĠSol ana
i ated
Ġle aves
Ġevery where
Ġemer ged
Ġann ex
ĠAl g
Ġinitial ly
ĠR oth
Ġ3 7
Ġpra gm
Ġdism ant
disc rimination
Ġimm unity
Ġexc use
zeg ovina
Ġc ere
Ġe arm
Ġtra ce
ru ck
Ġsmo oth
at ur
Ġin quiry
Ġret ire
s ch
ic its
Ġst ric
ĠS olidarity
Ġins pection
Ġdefin itive
ĠSan ter
Ġpharm aceutical
U E
ol es
ament ally
Ġwar n
Ġfocus ing
Ġtack led
Ġenabl es
ut or
f riend
is en
Ġpre t
Ġcoll apse
st ate
Ġm other
Ġre per
Ġevalu ate
Ġirregular ities
i ment
Ġdet ention
Ġres erves
ci ent
Ġg ame
Ġproduct ive
Ġrecip roc
Ġinter m
ell ed
Ġprogramm ing
Ġd ie
Ġdef icits
pe l
Ġch a
Ġmat ch
Ġres ort
Ġco pe
Ġexam ining
ĠScot land
a uth
ĠP ers
Ġpl atform
ĠFisch ler
ol ved
With in
Ġfoot ball
Ġc ow
Rus sia
Ġpre cond
Ġmeet s
Ġarr ived
Ġst orage
Ġtrans f
Ġf ate
ul z
Ġcontinu ation
Ġdam aging
Ġdemocrat ically
ul ed
Ġsect ions
Ġimper ative
Ġtrans form
a j
Ġsu ms
Ġpresent s
Ġrig orous
Ġ Qu
ĠLeban on
ĠD ecision
Ġtest ing
ĠCong o
Ġgra ve
ra cies
Ġensure d
Ġrecomm ended
Ġexclus ive
1 0
Ġst ruck
oun ce
Ġrep ression
ĠVer heugen
Ġvig il
Ġvoc ational
Ġrespon ses
Ġ7 5
ĠAn nex
z en
Ġs it
Ġin appropri
Ġaut umn
h ow
Ġf ought
Ġus es
ĠStock holm
Nat urally
Ġreper c
Ġf lu
Ġmin or
Ġembar go
er ted
pe re
Ġfa ult
Ġdis g
Ġgen erous
ound ed
Ġvol ume
Ġan x
Ġacc used
Ġset t
Ġmargin al
friend ly
A N
Ġpro p
Ġst ory
Ġexplicit ly
Ab ove
Ġgu ard
Ġperson nel
Ġsocial ly
Ġprecaution ary
Ġstat istical
Ġdispl ay
Ġreperc ussions
ar atory
id ential
Ġcomp uter
ang ed
Ġprogress ive
Ġpres cri
Ġrem ov
Ġear n
Ġadapt ed
ĠLiber ties
ĠSloven ia
d ep
Ġpl ed
ĠN or
Ġex haust
et t
ip her
G F
ad m
Ġhazard ous
ust er
Ġadm itted
Ġhead s
Ġinvestig ate
1 5
Ġsh ift
ĠG UE
ĠSw itzerland
Ġfulf illed
ĠTam pere
Ġm iddle
Ġdisadvant aged
ĠS up
ĠB ush
Ġfund amentally
ive red
Ġdesire d
Ġexempt ion
a ire
Ġforest ry
Ġl ists
Ġex posed
Ġenshr ined
NG L
Ġw all
Ġfl ights
Ġdist ur
ĠGM Os
s en
u k
Ġsimpl ified
Ġden y
Ġdemocrat isation
Ġcompon ent
ile o
Ġsol di
Ġlay ing
Ġsoldi ers
Ġa st
Ġdel ivered
Ġhom es
al a
Ġl ingu
Ġde le
Ġnot ion
Ġexplo it
N e
as hing
qu al
Ġtele ph
Ġun res
Ġlif elong
Ġparticip ants
Ġer rors
Ġlog ic
Ġremov al
Ġdis par
Ġtw ice
Ġmil it
ustr ial
Ġattract ive
Ġf ashion
ĠT echn
Ġintern ationally
Ġwhere ver
Ġsc ar
emoc ratic
Ġattach ed
Ġhand ling
Ġconsolid ate
Ġfind ings
Ġenabl ed
keep ing
I V
ĠIn formation
Ġprep aratory
Ġseek ers
Ġreaff irm
D e
k o
Ġincre d
Ġpresid ential
Ġinspect ions
it ology
ĠCon f
Ġopen ly
Ġsurpr ise
auth or
Ġtransfer red
W ould
Ġiniti ated
Ġobstac le
u v
Ġman if
ink i
ĠV i
els inki
Ġdetri ment
Ġalarm ing
Ġconve y
Ġmult iannual
Ġpra ise
S K
Ġresearch ers
AL E
T ur
Ġs ale
ĠInst itute
Ġhosp ital
Ġp ace
Ġser ves
oo ks
ĠIran ian
as ion
ĠB ang
Ġowners hip
in itiative
Ġfra g
Ġacc ompl
Ġ199 3
Ġmind s
Ġsport s
Ġstric ter
0 6
Ġse at
Ġfood stuffs
Ġsil ence
Ġro utes
Ġend ed
200 4
la w
Ġis lands
Ġobject ions
Ġorig inally
E R
Ġb ul
Ġin se
Ġspec ulation
Ġwish ed
p ens
ĠH elsinki
c ul
Ġst ick
ib ly
Ġdepend ence
Ġrecyc ling
2 5
Ġat tain
Ġinev itably
Ġplan et
Ġfall en
Ġconstitu ency
Ġro b
Ġd oll
Ġpress ing
ĠUS D
Ġfacil ity
Ġaccur ate
ĠRoman ian
Ġoverwhel ming
Ġt rem
Ġdis se
Ġass ured
Ġappl aud
Ġearth qu
ust ain
Wh ilst
ai wan
D F
r ia
is ual
Ġcult iv
Ġinequ alities
Ġbiofu els
x ic
age ment
p in
Ġw estern
ed s
Ġsusp ic
Ar ticle
Ġnar row
Ġcivil ians
Ġpost s
Ġprincip al
Ġinnoc ent
Ġinappropri ate
Ġt itle
ies t
ĠG reat
Ġapp alling
Ġdes per
Ġconstrain ts
f ur
t t
Four thly
Ġwholeheart edly
Ġp ays
Ġpill ars
Ġpotential ly
sy ch
Ġir respective
omm od
Ġgener ate
Ġenterpr ise
Ġburd ens
Ġmonop oly
iov isual
Ġf ing
ro v
Ġdist ance
Ġcompar able
Ġlingu istic
in ian
Ġta pe
Ġpract ically
Ġassess ing
ic ing
ul ates
Ġsh ipping
Ġco inc
Ġem pt
Ġpersec ution
ĠAlg eria
Ġbroad ly
Ġproduc er
Every one
a res
Ġharmon ise
Ġtell ing
Ġdiscipl ine
Ġacc ommod
Ġgen oc
Ġdet ain
Ġcritic isms
Ġrecord ed
Ġflood s
Ġv ary
ĠF ederal
Ġfe ature
Ġhorizon tal
Ġdis abilities
ĠF ron
be ing
an as
Ġsystem atically
ari at
Ġmanif est
er ate
es ides
Ġm issions
il ty
ĠCy pri
Ġcom itology
Ġconc essions
ĠF l
Ġbas es
Ġ4 5
Ġsurv ival
Ġoff ic
ĠSch ulz
ĠVer ts
ĠKurd ish
Ġben ch
ĠE ur
Ġdemand ed
Ġclos ing
Ġstop ped
ĠIsl am
Ġtrem end
Ġst ating
Ġad ult
ĠB ol
Ġcharacter ised
ic king
os phere
Ġinst all
Ġplac ing
Ġautom atically
ĠP ri
Ġinc idents
Ġremain ed
Ġdon ors
ĠTim or
o et
x ual
Ġb ook
Ġtun a
b a
Ġp sych
Ġcom position
Ġcompl ied
Ġsubject ed
Ġmor ator
Ġmedic inal
Ġtrans position
Ġcol on
Ġlab el
Ġstim ulate
Ġretire ment
Ġappreci ation
ĠGal ileo
m ed
Ġarbit r
Ġgu ilty
Ġadjust ment
o ke
Ġs em
al d
Ġbi otechn
Ġun it
Ġdec iding
Ġmark s
ĠH ar
Ġtop ical
Ã³ n
Ġcontrib utes
Ġfra gment
Ġadapt ation
ar ious
Ġon to
ĠVi enna
Ġbl ue
Ġreferen ces
Ġwor ried
Ġpl ain
Ġro ot
Ġassess ed
r ight
Ġab ort
Ġpar ad
ĠYou th
dep th
em ployed
ĠG ar
Ġless on
Ġdead lines
Ġthorough ly
Ġdisp ro
Ġgrant s
lus ive
Ġpass port
Ġvict ory
Ġtravel ling
Ġpunish ment
Ġtransf ers
S om
Ġrel ief
Ġ3 6
Ġcoordin ating
Ġintellig ent
Ġhung er
est ablish
v y
w are
re ced
Ġbott om
Ġsatell ite
st an
Ġprotection ism
Ġform ally
Ġban ana
ĠB Ã¶
ĠBro k
Ġchann els
Ġh ot
Ġinter ference
ten eg
200 5
Ġsens it
ĠS ah
Ġcoun cil
ern ity
Ġevery day
Ġide ological
Ġcritic ised
ĠLatv ia
n am
ly mp
Ġref usal
Ġwa ke
Ġwithdra wn
Ġmorator ium
on ess
ĠM os
r ates
ĠA IDS
Ġdec ade
Ġcam ps
Ġem ot
Ġdel icate
Ġm ine
ĠMexic o
w ater
Ġunp reced
Ġincom es
Ġcan cell
ac erb
Ġz ero
r um
ĠM ich
In c
ĠO lymp
Ġremind ed
Ġauthor ised
Am ong
Ġex acerb
Ġtop ics
ĠE l
ĠP h
Ġr h
Ġoff ences
Ġpat ient
Ġg ir
Ġavoid ing
Ġobtain ing
ir ty
ĠD an
Ġins p
Ġill ness
Ġcontrad iction
ĠChrist ians
Ġt empt
Ġst ream
est ock
iv estock
Ġar ises
m itting
Ġemb ry
Ġtown s
Ġatm osphere
Ġgenoc ide
Ġcon form
Ġarrest ed
b and
Ġar ticles
Ġwar s
Ġestim ates
Ġsched uled
Ġbenefici aries
Ġra ce
Ġreal ised
Ġcorpor ate
Ġdemonst ration
Ġemphas ize
Ġunpreced ented
Ġ Q
Ġf er
um b
ĠT aiwan
ĠD im
Ġph r
Ġund erest
Ġer a
iv oc
Ġdiff er
ĠK ar
ĠAr men
Ġdep th
Ġreview ed
ĠMc C
Ġb orn
st at
Ġk ill
L T
Ġcon j
ĠCa ucas
if iable
under ing
Ġisol ation
ens es
inn ock
Ġany where
ific ial
Ġmod est
Ġconsci ence
il i
ĠP os
ĠG uine
Ġfacilit ating
ĠGlobal isation
Ġo l
Ġre un
ĠF ederation
Ġconf ron
Ġdat ab
Ġremark able
Ġmain stream
Ġpass ing
Ġste el
w ith
Ġ X
ĠC ode
Ġinst ability
Ġpubl ish
Ġpersu ade
t ra
Ġth row
Ġstress es
Ġheav ily
Ġxen ophobia
Ġclar ified
li hood
g ent
or gan
il s
Ġcons ists
t ini
ĠM an
con n
al y
ĠE r
Ġl ivestock
ĠBl ack
Ġanaly se
Ġd ur
Ġthird ly
Ġnorm ally
Ġabol ish
Ġaud iovisual
Ġend ang
Ġarrange ment
Ġfost er
Ġth inks
Ġin put
Ġtrend s
u ber
Ġde em
Ġwork force
te x
Ġorgan ization
Ġcreat ive
iet nam
igu ous
Ġprerequis ite
ĠEst onia
m ail
Ġb all
Ġm ort
ol i
Ġres c
Ġaddress es
Ġcat tle
Ġwitness ed
Ġindis pens
Ġempt y
Ġd ual
Ġass ert
Ġindic ates
Ġult imate
Ġimper ial
Ġreinfor ced
an o
Ġabol ished
teneg ro
Ġgovern ed
Ġdifferent ly
Ġinvest ing
at t
Ġreturn ed
Ġdisadvant age
Ġsustain ed
Ġprem ium
Ġdiver se
ĠMad rid
j our
Ġs cept
Ġg ases
Ġreg istered
Con c
Ġirrespon sible
I P
is sible
Ġk il
Ġident ification
Ġmis le
rad ing
Ġquant ity
k i
Ġac ced
Ġsol ving
Ġdescri be
i ant
ult ural
Ġdis arm
air y
Ġindispens able
en sions
Ġp ick
Ġre verse
Ġpoint ing
reh ensible
Ġart ificial
Ġ3 2
ograph y
Ġexclud e
T r
or ation
ra ge
Sh ould
Ġpestic ides
Ġwe bs
Ġrec over
Ġgl ob
C om
b oard
ĠA sian
Ġcont ra
Ġfood s
Ġconn ect
en ous
Ġens ures
EC D
Ġaccomp any
Ġdispro portion
Ġemphas ises
Ġconcept s
Ġlic ences
Ġcy cle
k ers
ot ing
Ġde ar
ĠH ague
Ġro ll
Ġadd ing
ĠK innock
Ġrespond ing
Ġenjoy ed
Ġisol ated
Ġacc us
Ġinterv entions
Ġprop ag
z z
Ġ There
Ġse es
Ġma p
Ġorient ation
Ġca ught
ĠNord ic
ĠR E
Ġser ved
Ġrem it
Ġattempt ing
Ġsatisf y
ĠCaucas us
Ġto xic
Ġintegr al
ur ch
Ġpublic ly
Ġlic ence
ĠHam as
id s
Ġend s
Ġwonder ful
ĠHa iti
Ġdispar ities
al es
Ġconv ict
Ġbelie ved
S pe
i asm
ol a
ow ski
ad ed
us iness
Ġpos ed
Ġaff air
ĠMon ti
ĠCF SP
oe uv
Ġmonopol ies
ol ly
Ġsh ock
Ġexp enses
Ġrecogn ising
Ġilleg ally
CO D
u ble
in ations
ch o
Ġ3 3
Ġcomb ination
i pped
Ġm un
ad dam
Ġtrans lation
Ġwhen ever
Ġstr ange
or ously
or ient
Ġas sembly
oc ial
Ġavail ability
olit ical
m as
Ġm ix
ĠR o
Ġmo ves
ĠCong ress
ut ors
Ġman oeuv
ĠL aw
ak is
ĠDemoc rat
Ġstri kes
Ġour s
Ġd airy
ov ation
Ġmess ages
Ġcritic ise
Ġunequ ivoc
d eter
Ġg ather
ri er
Ġmay be
Ġremo ving
Ġenthus iasm
Ġment al
Ġaspir ations
A part
L O
Ġre cession
ĠT ra
Ġstr ive
Ġ4 00
Ġcondemn ation
Ġl iter
Ġv on
men se
idd en
Ġfoot ing
Ġdisg race
v iew
ic ip
ĠE co
Ġinc ur
Ġadv ances
Ġtotal itarian
Ġdiv ide
Ġinev itable
Ġener gies
ĠH IV
Ġencourage ment
Ġsurpr ising
Ġpreced ent
ro s
Ġn av
Ġdo ors
st one
Ġim mense
Ġcomm od
just ment
Ġinequ ality
Ġincon sist
Ġfle ets
Ġpoore r
is ations
ici ency
Ġfeel s
ti ers
Ġ They
ĠC l
os ystem
Ġgen etic
Ġconf irms
Ġdemoc racies
Ġget s
Ġlow est
Ġsecur ing
ĠA SE
Ġinst ruct
Ġpat ents
Ġmanufact uring
Ġclaim ed
Ġfrank ly
ĠAr ctic
Ġearm arked
In d
ror ism
Ġappe ared
Ġrelationship s
Ġphilosoph y
Ġfing er
us hing
Ġpromot es
ĠI N
Ġparliament arians
Ġv ent
Ġdr inking
Ġdro p
Ġrecogn ize
Ġabs or
ĠPri ze
ll or
Ġtrans national
Ġemer ge
Ġrem ote
ĠV ietnam
et or
Ġun b
Ġdispl aced
Ã ł
ird s
Ġcomb ine
ĠSe cond
Ġec osystem
ion ed
Ġ4 8
Ġcivil isation
Ġinterpret ed
Ġcomp r
Ġloc ation
ious ly
Ġorgan ized
Ġgr ass
itud es
Ġmultinational s
ars h
Ġaud it
Tur key
ĠE S
Ġfocus es
Ġsmo king
I A
ĠD av
Ġform ula
Ġopp on
Ġfa ces
Ġpublic ation
Ġbro ken
Un til
Ġgrat itude
am o
Ġprefer red
) ]
b es
Ġpr ud
Ġ3 4
Ġdon or
Ġpet ition
Ġindirect ly
W omen
ic able
Ġel imination
ustain able
Ġtremend ous
Ġv ague
Ġrequ iring
Ġoccup ied
i ot
Ġin g
Ġy ield
Ġsaf er
Ġlim iting
Ġexer t
Ġl ays
sid er
v ic
Ġaim ing
ĠNig eria
Ġro ots
ici ary
Ġhand led
Ġwarm ing
ipher al
g ments
r anging
Ġwork place
Ġconvin cing
yr ight
Ġsla ughter
1 2
el ve
ob od
Ġthreat ening
Ġdia gn
E ach
t urn
Ġconf idential
Ġconclud ing
Con s
Ġdiox ide
) ).
Ġe pid
Ġsub s
Ġpostpon ed
our se
Ġpragm atic
el ations
Ġsign als
Ġdelay ed
Ġded icated
Ġin tr
Ġat trib
ĠY ork
Ġexplo ited
Ġrh etor
C NS
Ġsector al
Ġdoct ors
ĠMos c
a ult
ose vic
Ġpositive ly
Ġintellig ence
ĠPar is
ent h
ber g
Ġun its
Ġper ce
ĠHow ever
Ġconj unction
ĠS om
ance llor
C l
ĠB u
Ġharmon ization
Ġcal m
Ġremed y
Ġpre ference
Ġexpress ly
Ġsurv ive
Ġsacr ific
e ken
em bers
ĠH ol
Ġregul ating
Ġabandon ed
ĠEco fin
Ġon line
Ġban anas
Ġquant ities
cont ro
ĠColomb ia
at ch
Ġup he
ĠBar oness
ij ing
Ġteach ers
I I
f ire
Ġp ose
am a
ĠR ec
Ġaccept s
Ġsecond ary
Ġman ag
cur y
Ġc ul
ĠS en
ĠD ep
Ġur ged
ĠEuro stat
Ġdr iven
u el
Ġv ill
Ġiniti ate
Ġunderstand able
Ġintegr ating
li ers
Ġinterp re
Ġsusp ension
Ġut ter
as sion
ĠD ar
Ġinvest ed
Ġencoura ges
Ġjud iciary
Ġve to
Ġp ity
Ġproblem atic
Ġviol ated
Ġ9 5
Ġfeas ible
ĠFron tex
o le
Ġsh ar
ĠO ECD
Ġadministr ations
Ġbi ological
ĠNe ighbour
Ġcell s
Ġpipe line
r ass
Ġd up
Yes terday
Ġweakness es
t ical
Ġst ead
ĠS pecial
ĠS addam
ĠCon ciliation
Ġcontro lling
b ack
ĠA ir
Ġdeterm ining
Ġsw itch
ĠAd justment
Ġprivat isation
an i
Th anks
Ġplay er
ĠMon tenegro
Ġbrut al
Ne ither
H is
ag n
Ġsymbol ic
ĠP ap
ĠT AC
Ġenfor ced
ĠIM F
I m
ce land
Ġspec ified
iz es
Ġawa it
Ġl ag
Ġac ad
Ġresol ute
Ġcomplain t
Ġuns atisf
Ġbroadcast ing
Ġout bre
ĠPro cess
ĠLa eken
Ġfa ster
Ġsupp liers
Qu ite
P re
Ġag ents
Ġext rad
Ġsm ug
Ġfl ight
Ġh olid
id ity
ĠS al
Ġli qu
Ġ3 8
Ġhold s
Ġz ones
Ġadjust ments
exist ence
ĠGuine a
Ġ19 6
pa per
Ġrun s
Ġannounce ment
ĠIndones ia
Ġsh eep
Ġshort age
Ġban ning
Ġcomplex ity
ro p
Ġprofession als
Ġprior it
Ġimbal ances
ar io
ac cession
Ġrel uct
asm us
ĠC amb
Ġcl ub
ab e
Ġestablish es
Ġconcentr ated
Ġradio active
i ers
Ġm ines
ĠN et
Ġcompon ents
Ġing red
ult ane
ĠBalk an
E A
us se
Ġinv itation
Ġdeliber ately
ĠNeighbour hood
ic ism
ur t
Ġdisappoint ment
C o
F ort
V ice
p aration
ĠC om
Ġmer it
0 8
Ġal lev
Ġsc ra
Ġgener ated
ak ers
Ġpres ervation
Ġdev ote
Ġhes it
obod a
Ġun ified
Ġback ed
Ġ15 0
pow er
m et
Ġ iron
Ġm ig
Ġse paration
ĠRes olution
Ġimpl ies
AC H
Conc ern
Ġb ill
rat tini
Ġh alt
Ġun iversity
Ġcons c
ress ing
Ġsimpl ifying
Ġinh uman
ĠBe ijing
Ġspl it
ĠMil osevic
m all
Ġsh op
Ġgu ide
Ġmin ors
Ġreject ing
Ġtrace ability
at ri
it ect
ĠC ot
Ġal ter
Ġanalys es
Ġspect rum
ĠGo als
Certain ly
Ġfrag ile
Ġh ide
Ġe cho
Ġst ation
Ġdef ended
Ġsad ly
ashing ton
B ar
pet ition
Ġexec ution
Ġbelong ing
Ġtrans mission
Ġrenew al
App ro
in ate
ose xual
Ġknow ing
Ġdemonstr ations
Ġenh ancing
Ġco financing
Ġdec omm
ĠD G
Ġcirc ulation
Ġacqu ired
Ġmobil isation
Ġdup l
Ġunsatisf actory
Ġmacro economic
ĠFer re
ĠPers pective
Ġcontinu ous
R E
en ko
Ġp orn
Ġse as
Ġsim ultane
Ġexist ed
ither to
Ġrespond ed
ĠMus lim
Ġ These
Ġb low
Ġse lection
ĠB oard
Ġinter oper
Ġthreat en
Ġentail s
ĠS IS
ac ing
Ġcop yright
Ġteleph one
if ul
Ch ina
Ġmedic ine
Ġelig ible
Ġarch itect
v o
Ġseem ed
Ġca ut
Any one
m arket
Ġsu pr
Ġres idents
Ġunder pin
Ġstabil isation
Ġdepr ived
Ġplural ism
Ġlawy ers
Ġsurpl us
Ġgir ls
U S
Ġt ies
Ġre b
ĠK ong
ik a
Ġdiplom acy
ur rent
Ġar isen
Ġend ing
ĠW ashington
Ġwish ing
4 0
Ġex pos
Ġma gn
Ġinc ap
Ġform ulated
Ġtro uble
Ġsupr an
Ġ On
Ġse ats
Ġtour ist
Ġsal aries
c all
Ġbe ars
ĠComm unities
ĠB ut
ĠO s
Ġloc ated
Ġintoler able
9 5
H uman
Ġout l
Ġgro wn
ĠCh ancellor
Ġaff irm
Ġret ail
Quest ions
ĠBl air
Ġderog ation
Ġscar ce
Ġthe ory
ĠP er
ac io
ĠCol le
ĠDar fur
ci le
Ġten sions
Ġrid ic
Ġcl oning
Ġfisher y
Ġpres erving
Ġsubstant ive
Ġunderm ining
Ġo dd
ust ration
Ġappro ving
ĠAr ticles
Comm unity
Ġhop ing
Ġwork er
Ġjour ney
deter mination
c os
Ġconsolid ated
Ġfeed ing
ĠFreedom s
Ġsupran ational
k er
Ġb oy
Ġtabl ing
Ġissu ing
k est
Ġun amb
Ġmar king
ĠBar n
Ġb ooks
Ġint ense
Ġrep roductive
Ġguid ance
Ġexempt ions
Ġconce al
Ġt ension
ĠC am
Ġprov es
Ġoper ates
Ġcommun icate
Ġfulf illing
Ġelimin ating
Ġderog ations
om Ã©
Ġpro stitution
Ġmoment um
Ġmer cury
Ġd ates
Ġde regulation
ore n
Ġreform ing
Ġair line
erb a
ris y
Ġearthqu ake
Ġres ign
Ġch amp
ĠT e
Ġind ications
ram e
ues day
Ġreact ions
Ġb reed
con i
Ġswift ly
g s
Ġl uck
ra y
Ġman ip
Ġorgan ising
Ġcre w
Ġaccount able
Ġjud ges
ĠSw oboda
Ġdefin itions
Ġelector ate
Ġcens ure
ro up
Ġas ks
ĠL adies
Ġdef e
Ġ4 2
Ġdetri mental
ĠFor um
ĠCamb od
Ġre ct
Ġpension ers
Ġabort ion
Ġdecomm ission
kest ein
N P
ic ian
ig enous
Ġ201 5
Ġcru el
Ġofficial ly
Ġexplan atory
ĠGu ant
Ġblock ed
Ġflag s
Ġmisle ading
Ġsocial ist
Ġcar riers
Ġes cape
Ġgr and
Ġadvoc ates
Ġhypoc risy
ĠAlban ian
ĠOlymp ic
Ġsensit ivity
ĠH ong
Ġfam ous
Ġpack aging
Ġweek end
Ġcustom ers
Ġdistort ions
Ġinfringe ments
Ġpurch ase
ig e
Ġen rich
ac es
Ġdep ending
inistr ation
Ġlist ed
Ġsubsid y
Ġmer its
Ġlearn t
Ġnews paper
ĠChrist mas
Ġthough ts
Ġdemonstr ating
Ġstre ets
ro ots
Ġnot iced
Re port
Ġkn ew
C oun
Ġa ro
ĠI celand
ad or
Ġatt ended
Ġrep ut
Ġhy d
Ġdism iss
Ġcert ific
Ġredund ancies
Ġrec ruit
Ġimp art
Ġworth while
ĠOrgan ization
Ġreveal ed
ĠMosc ow
se en
Ġg aps
ĠP ack
ĠH usse
Ġunder lined
de velop
Ġauth ors
Ġcontinu ity
Ġdom ain
Ġbiotechn ology
res p
Ġex empl
Ġminister ial
Ġreass ure
Ġneutr al
Ġfron tiers
Ġh at
Ġform ed
Ġcapac ities
Ġmass ac
Ġw ave
ĠI T
Ġdisc over
ild ren
S ch
Ġsudden ly
Ġdis ability
Ġfind s
Ġexpress es
Ġrecon cile
Ġsumm ary
Ġcourage ous
Ġtend ency
Ġtariff s
ĠR ound
Ġref using
Ġtransport ation
Ġpursu it
Ġdisappoint ing
k y
Ġin land
ro wn
ic ating
Ġbe aut
Ġwant ing
ĠK h
ĠIs lands
ĠSerb ian
Ġbreach es
ĠHusse in
an en
Ġg am
Ġ5 5
Ġdyn am
Ġdistingu ish
Ġinse curity
Ġarbitr ary
s ess
Ġto ys
Ġnational ity
Ġfinancial ly
Ġoptim istic
i en
in y
re ening
is trib
Ġc os
Ġd a
et ers
Ġobject ion
Ġ14 9
Ġcoal ition
Ġautonom ous
er m
Ġatt itudes
Ġident ifying
Ġve ter
N ew
Ġw is
Ġm ixed
ĠA rea
Ġwor s
Ġdeterior ation
Tr ans
at om
Ġen em
Ġco ins
Ġnew ly
Ġref und
Ġincor rect
Ġlength y
Ġ6 5
Ġjud gments
Ġalleg ed
Ġredund ant
Ġinterm edi
Ġpropag anda
ch ed
Ġawa iting
Ġadvoc ated
ĠHer zegovina
ĠBarn ier
Ġt ick
it a
Ġl end
Ġsuccess es
Ġoffic ers
as p
ke l
ap ing
Ġoff ence
ĠV al
Ġcare er
Ġdeli very
Ġdistin ct
Ġoppon ents
f all
Ġsen ior
Ġacqu ire
Ġvigil ant
a per
Ġse lling
ĠUkra inian
Ġcounterfe iting
Ġscen ario
Ġp ig
Ġin just
Ġtw elve
Ġdes p
Ġmeaning ful
Ġprem ature
oet tering
ĠColle ge
D R
c an
Ġp apers
Ġ4 3
Ġsoon er
ug abe
Ġca ution
Ġcomplement ary
Ġhar ass
ĠRE ACH
ĠInd ustrial
Ġbank rupt
i xt
Ġa qu
Ġind igenous
Ġstruct ured
Ġesc al
Ġsubs cri
e per
Ġ Å
Ġreform ed
Ġca pt
ĠMich el
Ġphr ase
Concern ing
d o
Ġm us
Ġpre de
Ġtext iles
un al
ĠD el
oth ers
ĠPal acio
ustom s
Ġunderm ined
ĠFl oren
ĠS ak
Ġsh ut
Ġfa ire
Ġbig ger
cos ur
Ġspe aks
Ġcondem ning
Ġdict ator
Ġautom atic
Ġhouse hold
Ġcontradict ory
M embers
p rodu
Ġwh olly
Ġmut ually
Ġtr ig
Ġthem e
Ġreal ities
less ly
ĠC ard
Ġch ief
bl es
Ġwr ite
Ġdest abil
Ġfruit ful
e el
il le
Ġus er
Ġmem ory
Ġrestrict ion
Ġge ared
Ġbelong s
Ġparad ox
1 3
re me
Ġo we
ĠE ri
Ġcent uries
Ġcert ification
Ġdevast ating
it ives
Ġmobil ise
o ked
Ġb old
Ġh itherto
Ġd imin
ck er
ĠDirector ate
ment ioned
Ġun h
Ġad jour
ĠT uesday
Ġvo ices
Ġsumm ar
Ġincomp atible
Ġrob ust
Ã º
ĠR ad
rit ical
ann es
Ġcomp are
Ġins ult
Ġrecogn ized
Ġadapt ing
Ġcompens ate
Ġconstitu ents
sp apers
ij an
ĠConf ederal
P l
Ġre de
Ġtr ip
Ġsent ences
Ġpermit s
Ġdepart ments
Ġbrid ge
M uch
or ate
al istic
ĠM ac
Ġab st
Ġdisc overed
Ġabs ent
ĠMart in
Ġincomp rehensible
v ens
Ġex cise
Ġengage ment
Ġm it
Ġg ri
Ġout line
Ġagree ing
Ġk illing
Ġfrequ ent
Ġprivile ged
m er
Ġw ood
Ġ199 1
Ġcost ly
Ġsusp end
Ġrhetor ic
Ġprede cess
l ock
re ts
Ġb reat
Ġall ies
Ġall iance
ever al
Ġexpect ing
Ġret urning
Ġslow ly
P erson
e y
Ġwh ite
Ġg est
Ġpre gn
Ġexcess ively
S urely
Ġse ason
Ġcontin ually
Ġbu ying
ha rov
ĠG ra
Ġinc lusive
ĠT ri
Ġchar ter
ĠII I
Ġapolog ise
ĠBol kestein
Ġt ens
on ou
Ġb illions
Ġm entions
Ġg all
Ġac ute
Ġserious ness
e ast
Ġupd ate
Ġprejud ice
Ġvit ally
R ather
k ind
ĠE th
Ġhom osexual
Ġpet itions
Ġdeliber ations
1 4
N I
op oul
Ġnew spapers
Ġproportion ality
e as
Ġt em
ic ious
Ġcounter part
Ġconvention al
Ġdisproportion ate
f ront
ro te
ĠG od
Ġsupport ers
Ġass ent
Ġprison s
Ġcontam ination
Ġinterf ere
Ġdiff ering
Ġallow ances
ĠInd ian
Ġtest ed
Ġcollect ed
Ġrestric ting
i ques
Ġh arsh
Ġpref erences
g ans
al ib
Ġpro port
Ġsc our
Ġfore see
ater ally
Ġreferendum s
Ġre ward
ĠS outhern
ĠR elations
Ġte aching
Ġcol d
Ġtransl ated
ĠCot onou
g a
en burg
il aterally
am ing
Ġfeel ings
ĠReg ions
la im
Ġche aper
ĠConserv ative
Ġor gans
Ġla undering
Ġview ed
Ġdim ensions
ĠBas que
Ġmanoeuv re
T urning
i racy
Ġe at
Ġpos es
Ġaw arded
Ġrecommend s
ĠSak harov
Ġchar ged
Amend ments
Ġresc ue
p ass
Ġha m
th ink
Ġinter conn
Ġcond itional
Ġforecast s
ur ances
Ġcl othing
Ġcompetit ors
Ġweak en
ĠCub an
Ġliber ty
Ġpain ful
S everal
h ard
ĠJ er
Ġsc ore
Ġmention ing
ator ies
Ġunc lear
Ġscandal ous
Ġdisreg ard
en er
de z
Ġappropri ately
Ġlaunch ing
Ġmurd ered
i op
Ġs ite
Ġh inder
Ġrece ives
Ġincap able
f ace
or king
ĠM ugabe
Ġinst ances
rol iferation
Ġobs erv
Ġdest ination
Ġassum ed
Ġtoler ate
Ġsoft ware
Ġconsc ious
Ġporn ography
develop ed
N ext
Ġha st
Ġdeb ts
ie v
Ġsuper f
Ġlimit ations
' t
en ess
al an
il ed
Ġcountry side
Ġfound ing
ĠFin ance
Ġcooper ating
Ġingred ients
A f
u ous
y an
Ġrec ourse
Ġh ect
sel t
Ġide ology
201 0
Ġsevere ly
Ġminim al
Ġd w
Ġr u
Ġpl us
Ġadvis ory
Ġinteroper ability
Ġc ig
ion e
Ġha bit
am i
Ġ% .
ha bil
. ,
Ġp ending
Ġun us
ĠA c
Ġint im
ud e
Ġcont ents
Ġmat ernity
Ġparticip ated
Ġred istrib
Ġcooper ative
ĠNor way
Ġre ception
Ġl it
ĠU EN
Ġeuro zone
Ġargu ed
Ġqual itative
Ġquant itative
Ġ198 9
ĠBe fore
Ġadh ere
Ġdisarm ament
Ġmun icip
Ġh al
Ġd are
Ġl acks
ob yl
Ġbo x
Ġship y
hern obyl
iling ual
oss il
Ġb are
Ġpro active
Ġunder lines
Ġacc um
eg oti
Ġliberal ization
to gether
Ġreinfor cing
ĠPe ace
le z
ad ays
Ġdra stic
ene z
To gether
Ġprof essions
Again st
F O
m akers
Ġm ad
Ġre vers
Ġfin ished
Ġany body
Ġspec ul
Ġtechn iques
Ġcap abilities
ĠSch m
Ġattempt ed
Ġpoll ut
Ġliber ties
rey er
Ġkil omet
it ical
Ġn utr
ici encies
ĠLe on
Ġbre aking
erba ijan
Ġreput ation
Ġimpart ial
Ġop ens
Ġtechn ically
ath ers
Ġ14 2
Ġbar b
Fort unately
H er
Ġm others
Ġre habil
Ġview point
Ġhand ed
Ġconv en
Ġun rest
Ġprom ising
Ġexcell ence
Ġbre ast
Ġsimpl er
Ġfaire r
at ibility
ĠE quality
Ġl ove
ĠM and
ĠF ound
ĠMer cosur
Ġsett led
ĠL ank
Ġlif ting
Ġprofit able
bur se
Ġbound aries
ĠAd m
Ġg old
Ġentire ty
uster ity
Ġs ends
Ġst ood
Ġconf ine
Ġrev ise
ean while
bal anced
1 7
Ġro les
Ġrequest ing
Ġhear ings
ĠWor king
Ġpun ished
Ġrul ed
w ill
ar z
Ġst orm
Ġsh if
Ġcommer ce
Ġprecond ition
m es
Ġc ab
Ġhand le
Ġpress ures
Ġchap ters
Ġinj ured
N R
Ġa er
Ġc art
ĠC hernobyl
and s
Ġpos sess
Ġhighlight ing
Ġclass ification
Ġbench mark
g ers
n ovation
Ġp ushing
Ġd il
Ġimp unity
Ġmod es
Ġthreat ens
According ly
ĠEur atom
Ġe co
Ġshould er
ĠF if
ĠF rattini
Ġinform ing
Ġactiv ists
0 7
Ġf ossil
oun ced
ib iot
200 8
epend ent
Ġvia bility
Ġsuppl ied
Ġprotest s
Ã¤ n
enez uel
z a
oc ation
um p
200 7
itor ing
ĠEn g
Ġwelcom ing
Ġinspect ors
ĠG oth
I C
g roup
em ann
Ġind iff
Wh ether
Ġent rust
Ġretain ed
Ġpsych ological
2 7
4 5
o id
in u
im er
Ġref rain
Ġconduct ing
un te
Ġsp ot
ĠCh ile
Ġland s
Ġlab or
Ġmist aken
Ġinh erent
Ġsurve y
Ġdecre ase
E ast
ĠS ri
Ġconf erences
Ġsh el
ib b
Ġent ities
ĠJ ew
Ġorganis ms
sp ace
ĠSloven ian
e k
r ical
Ġ What
Ġa usterity
Ġup g
Ġ19 5
Ġharmon ising
Ġprof ile
Ġrig id
Ġdivers ification
Ġdeem ed
Ġhat red
a unch
ĠEC HO
Ġprohib ited
ĠCF P
Ġconfron ted
Person ally
P A
g i
Ġjud ged
Ġmeasure d
ĠBulg arian
e lect
rat ory
ĠW ork
Ġrelev ance
Ġdestro ying
Ġtouch ed
Ġsil ent
ĠSah ara
Ġcaut ious
M eanwhile
pe lled
ĠI f
ĠP utin
ĠT itle
Ġprodu ces
Ġadd itives
Ġlet ters
Ġguid ing
Ġcig are
il ation
ag u
Ġoppos ing
Ġstri king
Ġineff ective
f ar
Ġw rote
Ġh oc
Ġtrans formation
pr ing
Ġmod erate
Ġglobal ised
ĠSe venth
Ġident ical
ĠAn g
Ġinsist ed
Ġfil m
ul ling
Ġj un
Ġappreci ated
Ġattach es
Ġdiscrimin atory
Ġsuspic ion
ĠGoth enburg
Ġtrans posed
ak h
Ġsepar ately
Ġmiss ed
Ġexempl ary
er red
Ġdisc rep
Ġspread ing
Ġdisag reement
atur a
Ġdur ation
ĠFound ation
in ter
Ġs ick
ic ity
ĠC ustoms
ĠI LO
em en
Ġlike wise
Ġsent enced
ĠPos selt
Ġmainstream ing
re z
erent ial
re asing
Ġf ix
Ġfl aw
Ġcho os
D C
o a
Ġc yn
ĠP oettering
Ġch ose
Ġdis tr
Ġgu ided
Ġinnov ations
ĠCommun ication
Ġveter inary
Ġthe ra
and er
ear ing
Ġform ulate
Ġbl ocking
Ġl oud
ia bly
Ġsome where
Ġvis its
ĠME DA
ats on
Ġ198 0
Ġol ive
Ġaccus ations
Ġw ild
id ently
ad d
ĠG ender
Ġrel ax
Ġdisc ret
200 9
Ġpat tern
Ġant ibiot
arz emb
P ar
h n
1 8
Ġn it
ĠV enezuel
reg ional
Ġdismant ling
c ks
Ġrep air
Ġtyp ical
Ġdepl ore
alib an
Ġth rust
ĠJ ean
Ġpres um
Ġexpos ure
l ig
Ġun ch
Ġpre rog
Ġout rage
Ġrel aunch
Ġemphas ising
Ġwebs ite
ĠEng land
arzemb owski
l ers
Ġs pon
Ġappl ause
Ġ4 4
Ġair space
Ġdistort ion
ony m
Ġreun ification
Ġdatab ase
Ġridic ulous
Ġintim id
Ġsu p
pl ed
Ġco existence
Ġmost ly
Ġalloc ate
Ġreact ors
Ġpartial ly
ĠEth iop
Ġinc in
Ġprocess ed
Ġequ ipped
l arge
u zz
Ġany way
Ġintern ally
Ġenc omp
Ġrepl acing
Ġincident ally
c ultural
Ġt one
re b
ct ure
Ġal together
so far
ĠA v
ĠG ulf
Ġdepart ure
usal em
Ġencomp ass
E T
ĠN atura
Ġprec arious
Ġdomin ant
Ġglob ally
Ġfor cing
ĠE L
bl ed
oy al
Ġconf ined
Ġrest oring
Ġpreced ence
Ġprosec ution
Ġdiscret ion
Ġsu it
Ġpl enty
Ġanticip ated
ĠConserv atives
or al
Ġb ond
ĠE DF
Ġfact o
Ġdeep ening
Ġenthus ia
B et
Ġn a
Ġsu ic
Ġun contro
ĠIsrael is
Ġprohib ition
Ġperpetr ators
ac ity
ren cies
ĠF ran
Ġper ipheral
Ġindepend ently
Ġsched ule
ĠAz erbaijan
ibb ean
ic a
ĠP ac
Ġres id
Ġ6 00
ĠDemoc racy
Ġsafeguard ed
comm er
Ġdeliver ing
Ġin ability
Ġf ill
Ġat roc
Ġcur rencies
Ġstrong est
h o
Ã §
ic ular
ist ance
ĠCouncil s
Ġprev ents
Ġlo oph
Ġunres olved
Ġvent ure
Ġextrad ition
Ġe g
Ġl inking
ĠS u
Ġdisappe ared
Ġexerc ised
Ġast on
h ere
l ins
Ġc ash
Ġch ances
ĠT aliban
ĠL omÃ©
ĠN az
Ġinv ent
Ġmin ing
Ġdraft sman
Ġindustrial ised
ik i
Ġexceed ed
Ġpref erential
P r
Ġre organ
ol ic
Ġcl ash
ind ed
Ġ3 9
Ġteam s
AR E
Ġimbal ance
Ġcultiv ation
Ġinstall ations
Ġmig ratory
C urrent
Ġf ell
Ġwe igh
Ġpr on
ĠMa ur
Ġaccompany ing
ĠJer usalem
Ġde eper
ramew orks
Ġmar ria
Ġparam eters
Ġunw illing
Ġreloc ation
Ġunre alistic
Ġdecommission ing
y le
Ġn ice
th rough
Ġconf used
Ġsec ured
Ġrecon sider
Ġrig our
Ġdisadvant ages
mon th
Ġprivile ge
Ġparam ount
Ġmotiv ated
Ġuphe ld
und i
Ġprompt ly
ĠEri ka
Ġt ur
Ġto ll
Ġf asc
Ġd ark
au er
spe ed
i ro
p ical
Ġass urances
leg isl
Ġrecord s
k h
u y
ĠP H
Ġper mission
Ġent ity
Ġrest ored
inistr y
Ġassist ing
ĠCan c
Ġelimin ated
ĠC at
Ġafter wards
Ġdraw s
Ġexception ally
Ġjeopard ise
Appro val
Ġadjour ned
R u
c in
at a
ĠE v
Ġsub mitting
ob ody
Ġadv ise
Ġins pir
Ġmax im
Ġexerc ising
cient ific
in ery
Ġd rew
ĠS ix
com p
Ġspeed y
Ġcomply ing
Ġtaxpay er
large ment
p roductive
ous es
Ġbr an
Ġrecon cil
ĠTh ird
Ġsal ary
Ġstip ulates
Ġprol iferation
b ett
Ġb ans
fore st
Ġsign atures
ĠMed ia
Ġinvestig ated
Ġexpand ing
Ġagg ressive
1 6
ĠG r
ost a
Ġev il
Ġsc reening
Ġintrodu ces
Ġlif t
Ġcapital ist
Ġsport ing
Ġenvis age
ĠCar ibbean
s ighted
Ġwast ed
Ġgain ing
Ġoccur s
Ġwitness ing
Ġresum e
Ġh ind
Ġun cond
Ġbenefit ing
Ġcompl iment
Ġmaintain s
Ġdepend ency
al us
Ġe ase
Ġl ived
Ġal ive
ess or
Ġab ide
ÂłÂł Ġ
Ġ8 5
Ġlive lihood
Ġoptim ism
Ġreciproc ity
Ġacad emic
ur ity
Ġas set
Ġex ag
Ġdec ides
Ġrep ressive
Ġpresid encies
Ġ25 0
Ġgain s
Ġstandard isation
Ġdiv isions
Ġjudge ment
Ġspl end
ĠRed ing
Ġscour ge
Th ree
ac ulture
Ġdef iciencies
Ġemph atically
H as
Ä į
Ġstrength ens
Ġspecial ist
ĠMar itime
Ġsecret ariat
Ġcolon ial
Ġwis dom
s erv
el t
out s
Ġnon s
Ġpurch asing
Ġf an
Ġf rameworks
Ġr um
ĠN ie
Ġcreat ivity
Ġship building
Ġprosper ous
Ġpush ed
al on
Ġd ub
ĠE GF
Ġk id
Ġimp ressive
Ġassum ption
Ġoutbre ak
t ered
Ġc ards
st ically
ĠC E
Ã© s
Ġstre et
Ġs un
Ġne o
Ġcons erv
for ward
Ġreplace ment
ĠJoh annes
Ġrecruit ment
t ail
Ġo wing
ark oz
ĠCambod ia
Af ric
E uro
l am
la h
Ġemerg ence
Ġendeav ours
ĠSom alia
A c
Ġreg ain
Ġrest oration
Ġsuggest ing
Ġbenef ited
A O
t aking
Ġun ification
ree ments
Ġcr y
Ġover r
Ġcour ses
Ġsp are
Ġenc oun
Ġfair ness
Ġves sel
ĠJoh n
ĠPH ARE
Ġsplend id
ĠO omen
Ġincorpor ating
t rodu
Ġth irty
Ġin sofar
ĠS und
Ġ4 6
ij ten
arkoz y
d s
ut y
Ġde ployment
Ġcom fort
ĠH el
Ġobst ruct
ĠCO M
Ġafford able
Ġdeliber ate
orient ed
Ru ijten
O L
s cept
Ġin ex
est ed
Ġun ite
ren ce
ong ue
Ġpr ide
Ġhuman e
Ġweak er
Ġsan ction
Ġbar rier
Ġphenomen a
Ġdoll ar
Ġp assion
ĠB an
Ġdescri ption
ia m
ĠJapan ese
Ġtrial s
Ġhous es
Ġinsp ired
Ġmanag ers
Ġutter ly
F in
ct u
arter s
ÃŃ a
Ġsimultane ously
Ãº n
) ;
r al
Ġd uly
Ġen act
Ġta ct
Ġdra g
Ġunderstand s
Ġprol ong
h or
m ese
orth y
Ġcirc le
Ġsummit s
Ġred ress
B esides
t w
v an
is tr
si ans
Ġbo ats
m n
Ġth rown
In tern
Ġsuccess ive
Ġbegin s
Ġunlike ly
uk ash
N obody
b acks
z Ã¡
ĠP en
og ues
ĠW atson
Ġindivid ually
Ġoblig atory
Ġvol unte
Ġmodern ise
Ġacknowled ges
ĠCor bett
Ġinjust ice
C omp
Ġb ab
Ġf ed
ĠP re
pl an
Ġaw ard
Ġopp ression
ĠPac ific
N othing
Ġev olution
Ġover coming
Ġeth ics
Every thing
Ġveget ables
Ġm outh
Ġpr icing
Ġ4 7
p erson
Ġal ike
Ġro t
Ġprotection ist
ell a
ub b
ĠBur mese
ĠASE AN
z ing
ed ge
arch y
Ġtransport ed
Ġdam aged
Ġevalu ated
Ġoccup ational
Ġord ers
Ġupd ated
Ġanticip ate
Ġintens ify
Ġneglect ed
Ġmilit ar
ald ner
Ġnav igation
ast ic
Ġneg lig
ĠEuro just
Ġwa iver
Ġconver sion
Ġrac ist
ĠCl imate
2 2
Ġserv ants
Ġform ation
Ġrehabil itation
ukash enko
re as
ll er
Un less
Ġmargin s
gi ene
P s
c ertain
Ġpolit ician
Ġfundamental ism
Ġclass es
Ġstraight forward
Ġaqu aculture
ĠC ath
ĠS arkozy
up port
Ġtell s
Ġevalu ating
Ã¶ r
Ġstim ul
Ġdram atically
if ice
ĠU C
ĠJ ac
own ers
Ġrest rain
Ġpop ul
Ġapplic ants
Ġcatastroph e
Ġharass ment
ĠEL DR
t ar
Ġpr ize
ĠF on
Ġev ol
Ġprot ein
Ġnational ism
Ġlif ted
Ġcod es
ĠSc ott
Ġvirt ue
Ġchann el
Ġimprison ed
ĠCypri ot
ĠArmen ia
ĠTAC IS
Ġt ank
Ġd read
qu arters
ĠR Ã¼
Ġbl at
rog en
Ġalleg ations
Ã¡n amo
Ġcorner stone
b ul
Ġapproach ing
Ġconsult ing
ĠAn n
Ġchalleng ing
ĠLe ague
Ġcover age
Ġsettle ments
Ġbeaut iful
Ġgall ery
S tr
W aldner
Ġtr ialogue
ĠT V
Ġsa ved
ĠJ arzembowski
Ġselect ed
Ã¨ s
Ġp age
Ġst ar
Ġqu iet
Ġdisc l
Ġdom inated
Ġchec ked
Ġobser ver
Ġentrepreneurs hip
ĠWall strÃ¶m
Ġgam bling
j o
an ian
Ġde ple
iv able
Ġdemoc rats
Ġfe es
Ġris en
Ġexpect s
itor ino
Ã© n
Ġperman ently
ik anen
Ġvig orously
Ġmulti ple
Ġimperial ist
Ġsmug gling
d es
Ġp ure
Ġsc ene
Ġ4 9
ub e
Is rael
Ġunjust ified
Ġmisunder standing
Ġp iracy
Ġh orm
ĠS A
Ġta il
Ġtrans pl
Ġstart s
f old
l ims
ut ory
Ġconc erted
Ġspec ify
Ġground water
Ġfr ustr
Ġdecentral ised
Ġdistur bing
V ery
e en
r ance
al ys
ĠCh ad
Ġreason ably
com pl
epend ence
r ig
Ġro ugh
Ġsal mon
ĠTibet an
i ments
Ġgood will
be k
Ġbi om
B endit
Ġse ize
ph e
ĠEr asmus
ĠJohannes burg
g row
Ġh idden
ĠE F
ch i
os ure
art et
Ġun ex
Ġstip ulated
Ġshame ful
u is
Ġd ying
il itary
Ġde port
ĠS pring
Ġtra ined
Ġsign ature
Ġign oring
Ġlic ens
i h
as se
Ġab und
Ġcont empt
ĠL ang
Ġcomple ting
Ġcorrect ed
Ġdev ices
ĠLi ikanen
Ġoccur ring
Ġconsolid ating
Ġadvoc ating
Ġunre ason
Ġmach inery
s uff
z he
Ġf lying
ar bon
ĠP NR
pl ing
Ġwork able
Ġstr iving
Ġfore front
Ġreject s
Ġassum ing
Ġhy giene
c ific
d ate
Ġnot ification
oo ked
Ġforget ting
Ġtim ber
Ġanx ious
b illion
l ooking
r ated
or and
Ġb ath
le ments
iv ate
de c
Ġhard er
Ġcat ches
Ġvalid ity
Ġlawy er
orand um
ĠT aj
ocol ate
Ġste pping
Ġreiter ated
Ġfront ier
Ġvacc ination
Som etimes
Ġperce ived
Ġc as
ing ly
Ġas h
Ġcoun ting
Ġback wards
Ġprovision al
Ġcateg or
Ġsuspect ed
ĠGuant Ã¡namo
zhe imer
F if
v oy
Ġal ert
ĠM u
pr in
Ġtreat ing
ĠSoc rates
Ġstud ied
Ġauthor itarian
Ġjournal ist
Ġcontradict ions
or a
Ġh ol
Ġcon gest
Ġal ign
Ġr ush
Ġint ent
Ġamb igu
Ġrepe al
Ġdub ious
ou re
Ġha b
us p
igh ter
um ers
ĠG SP
ĠB ow
Ġcond ol
Ġge op
Ġabol ishing
Ġlobby ists
Ġadult s
1 9
m ade
Ġm illennium
Ġh un
Ġover view
ec utive
ĠV itorino
Ġret ention
Ġfle e
Ġincred ibly
Ġincur red
P ublic
o king
z bek
Ġh ur
Ġwe ather
ount ered
Ġenc ountered
Ġrepl ies
oul try
ÃŃ n
teg ration
Ġveget able
Ġha vens
Ġfa b
ĠG ames
og en
Ġcompet ing
Ġcor rid
unction ing
Ġbreak through
Ġcere als
g ain
Ġd ies
ĠM ade
ess alon
Ġcomp atibility
ound s
Ġ7 00
Ġmult ilingual
Ġclaim ing
Ġfort unately
Ġmit ig
ĠSund ay
3 5
E conomic
a gh
ch et
qu est
ĠJ os
Ġhand ic
av al
Ġcommun aut
Ġsur face
Ġexperi ment
Ġpres erved
ĠEC O
Ġrepe ating
Ġexport ing
Ġrepl ied
Ġunderm ines
Ġimprison ment
ĠBang emann
f at
Ġp ull
Ġbe e
Ġfin es
Ġro ck
Ġurg ing
Ġturn s
Ġcam p
Ġexpand ed
f und
Ġ1 20
Ġhe at
Ġconfirm ation
Ġdead lock
Ġtim ing
Ġcro p
H ave
Ġs we
Ġb ur
Ġf ool
tain e
lus coni
Ġcha os
Ġdetain ed
Ġscarce ly
Ġgest ure
L e
Ġd rought
ĠG on
Ġintern et
Ġcross ing
Ġexplain ing
Ġstim ulating
Ġwind ow
Ġcommunaut aire
ĠIn itiative
ss en
Ġel abor
ĠFerre ro
m outh
Ġe ve
ĠP an
Ġun st
el ine
Ġsubst itute
Ġcompar ative
ĠKore an
Ġconnect ions
m inded
im ated
ra ud
Ġde ployed
ag er
Ġser ving
aps ed
Ġappe als
Ġren d
Ġrad ically
Ġincred ible
Ġkilomet res
Ġp oultry
Ġre im
Ġha ul
Ġar rog
Ġpoor ly
ĠTh essalon
Ġrad iation
Ġhypoc ritical
oli beral
Ġholid ay
T E
h m
Ġw ines
Ġleg ality
Ġprom inent
Al ong
Ġtour ists
Ġcontract ual
Ġport f
ĠAustr alia
Ġprevail ing
ĠSix th
ĠScott ish
Ġw al
al in
Ġsub ord
Ġass ass
Ġimpro ves
Ġ4 1
li beral
ij k
ĠSerb s
ĠEx ecutive
Ġshar p
burse ment
m ap
Ġb id
ĠM inistry
Ġtr ies
Ġlegisl ate
Ġlegisl ators
Ġcar ries
Ġund en
Ġspo kes
Ġsyn th
Ġbare ly
d or
Ġthe ore
Ġsh ocking
Ġta ught
Ġover se
ĠRus sians
Ġanalys ed
Ġenorm ously
hard t
a ul
f essor
w a
es ter
Ġas certain
Ġallow ance
Ġexport ed
Ġweak ened
Be h
omet ric
uber cul
Ġres erved
ĠAg reements
Ġstress ing
Ġdam ages
Ġtransfer ring
Ġdri ver
Ġcalc ulated
Ġsla very
Ġerad ication
ubercul osis
Ġp ock
itt ings
Ġcommun ist
ĠSw iss
ĠAn nual
Ġtraff ick
Ġcentral ised
ĠRe f
ira c
Ġillustr ates
Ġdiagn osis
in ating
re cy
ar th
ĠC osta
Ġbl ocks
Ġpack ages
ĠMon itoring
Ġarr ival
Ġult ra
Part icular
Ġunamb iguous
ĠLank a
i as
Ġp up
Ġne oliberal
Ġman kind
Ġassist ants
Ġguard ian
ĠThessalon iki
c ott
p ire
Ġl iable
Ġde pos
op ing
Ġun known
Ġpre dom
Ġread iness
Ġcapital ism
Ġvol at
Ġlo an
quir ies
Ġacceler ate
Ġconvict ions
Ġtem per
phe res
ĠLang en
Ġfab ric
S ad
T S
re et
Ġun ilaterally
Ġra pe
ĠD r
ap ed
Ġreview ing
Ġder ived
ĠMus lims
n esty
res sions
Ġunder way
olog ies
Ġcap ita
ĠAl zheimer
Ġvo iced
Ġattack ed
le m
ĠE qual
Ġqu o
Ġtra ins
ĠK en
Ġmod ification
Ġquot ed
Ġtransl ate
Ġextrem ism
ĠMade ira
om in
ĠC omp
Ġrem un
red it
Ġdes ert
com es
Ġvis ibility
Ġ8 00
ĠLe hne
Ġanalys ing
Ġproceed ing
resp o
A dd
r ine
Ġ ?
Ġb urn
om ic
Ġde ce
ĠN ic
Ġprov ing
Ġpoint less
Ġadd s
Ġest imate
Ġrat io
Ġaccess ibility
DE M
Ġclar ifying
Ġhor r
Ġcounterfe it
Ġpret ty
C or
or ries
Ġv ice
Ġint ra
ĠL ukashenko
ass ador
Ġfail ures
af e
Ġoccup ying
Ġproportion ate
Ġexec utions
Ġbat ter
Ġquarter s
Ġecosystem s
Ġunus ual
p es
an ium
Ġle v
ĠT er
Ġinter d
els on
Ġhonest y
Ġintoler ance
Ġallev iate
Ġf athers
Ġfor b
ĠE R
Ġch ocolate
ian ces
olog ically
Ġequ ity
leg ation
ĠInst ru
Ġerad icate
Ġbeh ave
Ġ5 2
Ġher self
rup ted
Ġbar gain
Ġagg ression
m un
ar on
Ġle ver
Ġsupport ive
Ġquestion able
Ġph asing
ĠReg ulations
Ġpostpone ment
ĠQu artet
ĠTri b
4 6
Ġm ale
ĠC respo
Ġadm ission
Ġden ounce
ĠIN D
Ġrefund s
E st
g age
o ch
ver t
ĠR w
reg ulated
Ġwatch ing
ĠNet work
Ġkid n
3 9
om s
ere rs
Wh atever
Ġfarm er
Ġshare holders
emb ered
Co operation
tr ies
ist ically
Ġdirect or
Ġrep atri
dra ft
ades h
a o
l ife
l adesh
Ġl ia
Ġadopt s
ex am
Ġsl og
Ġpie ces
ĠMal m
Ġscept ical
Ġcommod ity
Ġsuic ide
ĠCanc Ãºn
Sad ly
v ille
Ġsm art
Ġann ually
Ġincorpor ation
Ġart ists
Ġtun nel
IF E
Ġconfidential ity
4 8
z io
ĠU zbek
Ġcomm itting
Ġrel iability
Ġext ract
ĠMon t
Ġinsist ing
Ġproc laim
cl ass
Ġperpetr ated
Ġth r
ĠM en
we g
Ġfav oured
Ġbl oc
Ġren ational
Ġsec ular
Ġsec recy
Ġsort s
Ġcou p
Ġpan el
Ġdisse mination
ĠDan ube
Ġdefe at
ĠSchm id
Ġbarb ar
Ġantibiot ics
Ġl ending
Ġsome how
Ġper ception
Ġpass ive
Ġroad map
Ġpat ience
Ġweak ening
Ġlag ging
Ġl orries
ĠM ann
ĠD al
Ġthem atic
Ġflood ing
Ġcount less
Ġelig ibility
Ġdesper ate
Ġcouncil s
ĠÅ ł
S A
st ad
st ers
ul sion
Ġprotect s
Ġelect rical
Ġur anium
Ġviol ate
Ġimpos ition
Ġhonest ly
Ġsymbol s
Ġextrem ists
Ġcelebr ate
Ġt une
at z
Ġe p
Ġoff ensive
Ġlast ly
Ġfavour s
Ġpo ol
Ġindic ating
Ġhospital s
Ġshipy ards
f ord
on ed
ep al
Ġmil est
Ġvis iting
ĠBar Ã³n
Ġindic ative
min ute
Ġoverse as
Ġb rain
ud d
ap ital
Ġrem embered
Ġform ing
Ġmed i
Ġrev ital
Ġden ying
Ġcoordin ator
Ġlab els
Ġemb ark
Ġcollect ively
Ġdistingu ished
Ġepid emic
Ġcondol ences
6 0
T aking
Ġ um
ce an
ter rorism
Wh ich
Ġext ends
Ġcred its
Ġund emocratic
Ġrein trodu
Ġreve als
Ġgeop olitical
4 9
in et
Ġf ly
ĠI V
Ġrespon sibly
Ġeconomic s
Ġstand point
Ġopt ed
Ġ% ,
Ġbi ometric
Ġmer gers
ateg ory
Pro t
Ġoverl ook
Ġengine ering
Ġarchitect ure
Ġt ender
pport unities
land er
Ġinf ect
Ġread mission
Ġblack mail
Ġlobby ing
ĠKurd s
Ġillustr ate
stad t
j a
ot ive
ĠB ay
og au
Ġfact ories
hip s
Ġgrow ers
Ġdist ant
Ġemploy ee
Ġdefend ers
Ġregrett ably
St ate
Ġflu ctu
Ġcounterpart s
ĠFon taine
c ol
Ã ±
Ġimm inent
int ensive
Ġboost ing
Ġembar rass
ĠCoh n
mm et
ĠHar bour
ĠAng ola
ĠGon zÃ¡
" .
w ar
Ġb ol
il ities
ut s
Ġnow here
Ġcollect ing
Ġprefer able
Ġstrug gling
ĠLam y
Ġdele ted
A IDS
E F
S L
b ig
re ction
Ġd ial
Ġsh aping
Ġthem es
ĠCh ange
Ġpeace keeping
Ġfl our
Ġpersist ent
ĠAdm inistration
C C
a pporteur
u ction
ign ific
ruct ive
Ġdesign ated
ĠBon ino
as ide
ĠS port
ĠW ogau
ĠK az
Ġspecial ised
Ġharmon y
Ġchec king
Ġconcentr ating
Ġhost age
amp ed
Ġpersec uted
Ġbra ve
Ġembry os
Ġshock ed
E m
S ocial
on i
Ġr iver
Ġdo g
Ġab used
Ġref uses
Ġfe et
Ġvis itors
Ġearl iest
3 8
Ġp ages
ro ach
st ep
ĠR ober
Ġsome body
Ġmethod ology
Ġreact ed
ĠBer lusconi
Ġhum ans
Ġwor ries
ard o
ree vy
Ġsy m
Ġrev ising
Ġkeep s
Ġdr ift
Ġsix th
Ġrelig ions
Ġprohib it
I M
f irst
n y
p roliferation
Ġ Î
ĠM y
Ġun law
Ġcomm em
Ġsy ner
ĠAz ores
Ġbiom ass
Ġunreason able
2 4
Ġc ure
Ġun t
Ġme al
Ġless er
ĠAl ger
Ġcease fire
g ically
l t
Ġf ro
Ġun av
Ġapproach ed
Ġcap ability
ĠPro fessor
Ġshort er
Ġimpact s
Ġmom ents
ĠY emen
ĠInter institutional
Ġperform ed
upp er
with standing
b o
d ue
Ġb orrow
pt ions
Ġupd ating
Ġunequivoc al
Ġpredecess or
ĠVenezuel a
Ġdread ful
ĠGonzÃ¡ lez
Ġc ot
Ġatt ending
Ġinstit ute
Ġbal ances
Ġcop y
ĠDav id
Ġresolute ly
Ã ´
ĠDe legation
Ġhon oured
Ġexclud ing
Ġfr ustration
Ġsem in
Bar ro
or able
Ġb ought
Ġst ore
ĠS il
ie l
ĠF orm
Ġnow adays
Ġprotect ive
Ġpo ison
Ġmis use
Ġund es
ĠRe hn
Ġvir us
Ġselect ive
ĠSh aron
ĠBÃ¶ ge
Ġnons ense
ĠMalm strÃ¶m
Ġb acks
Ġm igrant
Ġres ident
Ġback d
Ã¶ der
Ġdiv or
part y
Ġvig orous
Ġcontrovers y
Ġcertific ates
ĠJac ques
ĠAnn an
Ġa usp
Ġs ittings
Ġrep rodu
Ġform ulation
Ġequ itable
sid ed
Ġeng ines
ĠBarro t
ĠIC T
ĠBang ladesh
Ġuncontro lled
N A
i ological
ed e
Ġare na
Ġli br
ors hip
Ġbreak down
Ġcommend able
Ġcatastroph ic
forest ation
Ġcongest ion
E qu
v ency
Ġt empor
ĠT EN
ĠK al
Ġdet ect
Ġren der
Ġorganis ational
Ġinflu enced
Ġarrest s
Ġstabil ise
Ġunequ al
Ġprecond itions
ĠCypri ots
Ġbreed ing
T er
ĠS cientific
Ġsub mission
Ġmed iation
Ġadv ent
Ġste pped
Ġtraged ies
Ġunres erved
ĠDel ors
ĠEthiop ia
Ġpredom in
ĠInstru ment
2 1
w ed
Ġc raft
Ġon wards
ĠB en
ĠâĢ Ķ
ĠIn novation
ĠO pportunities
Ġremind s
ĠMoroc can
Ġunderest imate
M ar
N one
e al
Ġt ied
in en
ul ph
ĠB o
Ġdef ines
ĠJ un
Ġdon ation
Ġhar vest
o es
Ġs essions
Ġl oyal
ĠS aud
ight ened
ĠN ap
ĠN epal
Ġadv ised
Ġexpl ore
Ġfat al
Ġn urs
st ein
Ġe ating
id al
mp ro
Ġcontam inated
Ġpremium s
i qu
s un
ĠE d
ra v
Ġhe ed
Ġfact ory
Ġreal ize
Ġregul ators
Ġdev ise
Ġinvestig ating
Intern ational
Ġstimul us
Ġf ather
em ployment
Ġj u
ag on
Ġcl im
Ġdeal ings
iol ence
Ġtradition ally
Ġminim ise
Ġdoll ars
Ġoutl ook
opoul os
b et
Ġw est
Ġs pheres
ĠM ove
ĠSt alin
ĠJ ord
Ġaid s
Ġchild care
Ġver ify
Ġver ification
ĠBelarus ian
Par agraph
E M
Ġs le
Ġst ret
Ġperson ality
Ġhead ings
Ġeng aging
Ġcontract ing
Ġsupposed ly
Ġsacr ifice
Ġdupl ication
Ġchoos ing
Ġatroc ities
Ġf ant
Ġra in
ĠD rug
Ġatt ent
Ġread s
Ġreflect ing
Ġgr asp
Ġclass ified
br id
ĠOb ama
Cons umers
ĠMaur it
ĠRef uge
or ily
ĠC arl
ol f
ĠM e
ĠS ant
ĠG h
Ġfore seen
Ġweak est
Ġbomb s
Ġrare ly
Ġfeas ibility
Ġcot ton
Ġent ers
Ġlim itation
Ġcongratul ated
Ġstud ent
Ġbroad band
Ġfacil itation
Ġdisch ar
Ġdiss atisf
Ġinstruct ions
Ġclub s
7 1
b est
Ġ upper
Ġf ur
al i
Ġd iet
Ġal ia
os es
ll a
ĠV ol
Ġurg es
En ergy
Res earch
Ġreciproc al
Ġdisplay ed
Ġillness es
Ġenem y
P rog
st ed
Ġg ames
Ġprov ince
Ġass igned
ĠCh urch
Ġinter action
Ġredu ces
ĠV el
Ġcor rupt
Ġaccord ed
Ġnet s
ĠAra fat
En largement
Ġtempt ation
Ġmort ality
Ġexag ger
L ooking
c ut
Ġa fore
ot ti
os ity
ect s
Ġdec ou
Ġmeas uring
Ġvar ied
Ġ5 1
Ġread ily
Ġloc ally
Ġele ven
Ġmis ery
Ġalloc ating
Ġ13 0
ĠCo x
Ġspect ac
Ġneutr ality
ĠTrib unal
Ġc um
Ġh ier
Ġre build
ĠR en
ĠN on
ord s
Ġlegisl ator
ĠPro sec
Ġrenew ables
Ġargu ing
Ġlab elled
Ex per
Ġdynam ism
ĠJos Ã©
ĠSaud i
O p
R C
Ġde ploy
ff icial
Ġcoun ts
ple te
olog ne
Ġinf lict
Ġstat utory
ne z
Ġ201 4
Ġfif ty
ĠNie ls
D emoc
is a
ĠC ategory
Ġsecond s
Ġlif esty
Ġchar ging
cont ract
ĠTechn ology
ĠGar c
Ġmus ic
Ġlands cape
P ol
Å ¡
Ġf ru
ĠR io
rat ors
ĠIn quiry
Ġexperi ments
Ġgener ating
Ġdocument ation
Ġcondemn s
ĠCan ary
Ġfost ering
Ġadh ered
Ġconfront ation
Ġsmooth ly
Ġwarn ings
C itizens
Ġk m
Ġtrans action
Ġoper ator
ĠBelg rade
Ġdecis ively
Ġreven ues
Ġoverl ooked
Ġfragment ation
Ġball ot
Ġvill ages
eas ures
9 2
l ining
t rade
at en
le te
ĠF our
ĠW HO
Ġdra in
Ġreal isation
Ġexplo iting
Ġcalc ulation
Ġpassport s
Ġse af
Ġmanufact ured
RO M
Ġadmitted ly
Ġkidn app
Ġausp ices
Ġafore mentioned
8 0
E ff
G reat
Ġb esides
Ġde eds
ĠA lex
ĠF ar
ĠL ist
Ġobjective ly
Ġinterpre ters
ĠCard iff
C R
Ġp and
st e
ĠF e
Ġrev ol
Ġhead quarters
Ġreferend a
Ġmanufacture r
ĠEP P
Ġunequivoc ally
Ġinconsist ent
Ġinhuman e
Ġsubscri be
Ġpollut ants
Ġtempor arily
Ġ ice
Ġ Questions
Ġt uberculosis
Ġc oc
Ġan ch
ot y
ĠC ologne
Ġse ed
ĠG NP
Ġcomm and
ĠB yr
tain ing
Ġel ite
Ġwar ned
isc rimin
roduct s
Barro so
Ġst one
Ġlegisl ature
Ġ5 6
Ġver dict
ĠBur undi
Ġconform ity
5 5
G ood
Ġa x
Ġsu ited
Ġoff set
Ġinter l
Ġ5 7
Ġcomb ining
ĠSe ville
Ġfulfil ment
Ġtight en
ĠLam a
Ġs id
Ġb read
Ġst agn
ĠS im
Ġreg rets
ob el
eg isl
Ġnegoti ators
Ġrese t
Ġtrad ers
Ġland f
Ġendors es
gen eration
ĠByr ne
B ur
at tle
ĠW ater
Ġgl ass
Ġmin eral
ident ally
Ġinflu x
ĠKy i
Ġdesper ately
Ġentrust ed
k op
ra ining
ĠS y
Ġover s
pa id
Ġforward ed
Ġamount ing
Ġstudy ing
Ġfort un
Ġdictatorship s
Ġwors ening
Ġlicens ing
G u
Ã ª
ĠS ub
Ġim ages
ĠL IFE
Ġspecific ations
Ġ5 3
ĠAr gent
Ġarr iving
tle ment
Ġexplain s
Ġtro ubl
ĠAgricult ural
Ġexec uted
Ġdro pped
ĠMer kel
ĠRoth ley
Ġuncond itional
B G
M on
N ational
c ase
Ġo zone
ot ic
Ġse al
ĠA th
ĠB usiness
Ġinv asion
Ġsocial ists
Ġcor rection
Ġemploy er
Ġevent ual
Ġheart s
rend t
Over all
Ġthreshold s
Ġprivile ges
Ġdele te
Ġacced e
Ġconven ience
2 3
i ations
r un
it utions
ĠC ast
Ġg ath
ĠM ore
Ġexpect ation
Ġfinal ised
Ġyoung er
Ġobs c
cont inu
Ġreloc ations
Ġdisappear ance
Ġfragment ed
Equ ally
D ec
et ting
Ġma ize
Ġemphas ized
Ġpa ve
ĠEC R
Ġrespond s
Ġdoct or
Ġinj uries
Ġvacc ines
Ã¨ re
ĠD u
Ġev idently
Ġleg acy
Ġpar alys
ĠSudan ese
Ġspecul ative
Ġlooph oles
Ġunav oid
Ġbackd rop
b ol
d is
Ġ vers
er c
Ġb irds
ur ches
ĠG AT
Ġco in
Ġno vel
ĠK la
Ġcivil ised
Ġprofit ability
Ġsyner gies
il ings
ĠC as
ĠN obel
lu ous
ec k
ĠMcC reevy
Ġprerog atives
Ġinspir ation
draft sman
ĠC IA
Ġsh ed
um es
ĠR oc
Ġcrit ici
Ġconstruct ively
Ġspeed ing
Ġagg rav
Ġfinger prin
ĠD iam
Ġcontin ents
ound ing
Ġver sions
Ġcorrespond s
Ġslight est
Ġbenefici ary
Ġdisgrace ful
Ġtrig g
compl iance
Beh rendt
Ġsym pt
B C
Ġp ione
Ġl od
and zio
Ġ9 2
ĠWork ers
ĠSu u
f ive
t te
Ġfor wards
ĠP ra
ĠS ir
Ġhe ating
ĠL ulling
Ġremind ing
ĠMed ina
Ġenjoy s
Ġsmo ke
Ġdiscrimin ated
Pl ath
Ġproport ions
Ġsuperf luous
sted t
ĠC amp
el ho
ĠSt and
ĠB us
Ġind iscrimin
Ġro se
ĠCh ech
Ġreason ing
Ġmod ify
Ġ9 6
Ġhold ings
Ġcat aly
rep resent
Ġbelief s
Ġextrem ist
Ġprec ious
Ġresign ation
Ġforesee able
Ġspon s
Current ly
Ġtranspl ant
2 6
in arily
Ġc ra
an ism
Ġf ile
Ġf als
ĠM itch
ĠG erm
Ġimp ly
ĠK ash
Ġfunction al
Ġsafe ly
Ġapprox im
Rec ently
O N
a ur
Ã ¯
im a
est s
end ers
ens en
Ġla ment
less ness
Ġinsist ence
Ġreinforce ment
Ġmisunder stand
quest ion
ĠAlger ian
om orrow
Ġide als
Ġreach es
erv is
ier ra
Ġpoll uting
Ġrul ings
Ġunch anged
Y ROM
h am
l ad
Ġs ulph
Ġc ite
ĠB our
Ġind ign
Ġper t
uc cess
Ġcar cin
Ġconflict ing
ĠAn ti
Ġappear ance
Ġvac u
Ġprincip ally
Ġaccommod ate
Ġjun cture
G erman
Ġs n
Ġst er
ĠUn der
ost lander
Ġquestion ed
Ġcur tail
Ġph ot
Ġcounter productive
Ġbul k
Ġintimid ation
ignific ant
Ġgath ered
A G
W IF
Ġt sun
em p
tr ans
so lete
Ġcont empl
Ġco ach
ĠF ord
Ġev asion
ĠW ales
Ġcoh es
Ġwin ter
ai ro
Ag enda
Ġdemonst rators
Ġcha ired
Som ething
ĠUC LAF
WIF T
I NI
W ork
k ara
n ight
Ġs ing
Ġal ly
ate m
Ġrespect ively
pa rency
Ġmod ifications
Ġ5 4
Ġimpos es
aw a
Ġpet rol
Ġmurd ers
Ġgather ing
Ġliter ally
ĠVal en
Ġdies el
T oo
as ant
Ġmod ulation
Ġimm igrant
Ġcontinu ously
Ġsk illed
Ġign or
Ġwonder ing
Ġinterv iew
pol l
Ġwithdraw ing
Ġautom otive
Ġ197 0
Ġhesit ate
Ġmilest one
ĠJord an
S outh
ic ia
ot al
ra ined
Ġma ster
ark s
are st
Ġbo at
Ġexch anging
Ġconserv ative
ĠVel zen
r ank
ĠS mall
Ġliberal ising
Ġmodern ising
Ġafford ed
Ġcalc ulations
Ġfer til
ĠDal ai
ĠRober t
ĠGarc ÃŃa
Ġvacu um
H igh
d emocratic
m ir
Ġd ile
Ġpos session
pet itive
Ġins ists
Ġbus es
Ġpeace fully
Ġpot ato
alu ation
Ġtoler ated
Ġmach ine
vo ire
a es
n et
z ens
Ġob solete
Ġ5 8
Ġcirc les
fin ite
Ġclean er
ĠAlban ians
ĠDim ension
F reedom
Ġf rame
ed oph
el and
Ġunder going
Ġrel atives
ĠW ith
Ġcol our
Ġce ilings
Ġbit ter
FI N
Ġsecur ities
Ġrestrain t
Ã´ te
ĠProsec utor
V C
Ġg ear
Ġg ang
Ġcon vers
Ġres ervation
Ġover due
ab uc
Ġnorm s
Ġredistrib ution
Her zegovina
Ġremun eration
ĠKaz akh
3 7
Ġc ited
em ics
ish ment
ĠR andzio
are rs
act orily
wh ich
Ġdeg rad
yn n
ĠCan ad
Ġextraord inarily
Ġescal ation
Ġhab its
ĠRw anda
ĠUzbek istan
? '
l anges
se ly
ĠS ing
ĠT o
Ġro ut
Ġrep ublic
Ġspecial ists
Ġdescri bes
ĠCo elho
ĠSecret ariat
Ġpled ge
ĠMan agement
Ġtraffick ers
I voire
Ġt ongue
Ġn amed
st ruct
ĠS ierra
Ġco ff
itu al
viron mental
rit orial
Ġdest ructive
Ġaccur ately
abuc co
on ian
ess im
Ġinv entions
ib r
Ġquestion ing
eed ed
Ġbl ank
Ġdeleg ated
ĠRe v
commer ce
ĠNiels on
j er
ak er
Ġsol ar
ret t
Ġobser ving
Ġperform ing
Ġabandon ing
Ġliqu idity
Ġodd s
Ġham per
Ġobserv ance
Ġdistr ict
lt imately
V oting
un a
Ġle ap
Ġsyn ergy
Ġgri ps
Ġincin eration
Ġreim bursement
ĠForm er
J anuary
U p
ot ted
Ġen voy
ĠG en
Ġinc umb
Ġcl in
ĠO ostlander
Ġvirt ual
Ġdivid ing
Ġacceler ated
ĠSup ervis
Ġcancell ed
Ġaro se
Ġunex pect
Ġundes irable
ig o
ĠN uclear
Ġback ward
lim ited
Ġprud ent
ĠECO FIN
Ġh orse
ut ers
ĠP ie
Ġun im
con s
ivers al
Am eric
Ġder iv
Ġtro ika
ĠGu atem
Ġirre ver
ĠEv ans
dor f
S upport
U ltimately
e em
r im
y mmet
Ġsh ops
ĠU g
ĠA ut
ĠF ra
Ġover t
he alth
fin ancial
tra ck
Ġoutrage ous
Ġtsun ami
T omorrow
ast e
Ġout comes
ĠT om
Ġtrans pose
Ġjust ifies
Ġbefore hand
Ġrest s
Ġrecomm ending
ĠAn kara
Ġliberal ised
app y
Ġwrong ly
Ġcompreh ensible
Ġprofound ly
Ġaccompl ished
ĠAc cession
T ake
g one
Ġf ee
Ġal tered
Ġma g
Ġconc ur
Ġup set
Ġra cial
Ġexpl os
Ġple a
Ġpa edoph
ĠEC SC
Ġsatisf actorily
iet ies
aw are
eff icient
Ġdw ell
B el
P olitical
ly n
el come
Ġpublic ity
Ġyour selves
Ġlow ering
Con t
Ġpenal ised
Ġreaffirm ed
Ġcommod ities
at ism
Ġan cient
Ġe ager
ĠD ell
Ġper pet
Ġconf erred
ential s
arant ee
Ġassist ed
ne ys
Ġdr ink
Ġcohes ive
m o
Ġd ish
ĠM ult
ĠA ung
Ġch urches
ĠD is
Ġfraud ul
01 6
ĠGal icia
Ġcorpor ations
Rec ent
tt es
Ġvary ing
Ġbond s
E E
d ated
Ġc ust
Ġdeg rees
Ġuseful ness
Ġuphold ing
Ġdisse min
Ġhect ares
Ġtheore tical
Ġpup ils
Ġfro zen
2 9
F aced
Ġh edge
ĠN abucco
ap ore
Ġrem inder
Ġoper ated
Ġshort ages
bur gh
ĠBas el
Ġcoinc idence
)] .
Ġreluct ant
ĠBour langes
P S
or is
ĠS o
ap hne
Ġsupplement ed
ĠGu id
ĠEgypt ian
ĠTunis ian
teg a
Ġsqu are
h em
our nal
and in
Ġdirect ors
Ġforeign ers
Ġharmon ious
Ġdeep en
Ġder ive
Ġchair men
Ġretain ing
int eg
Ġfriends hip
ĠNig er
Inc identally
Ġmarria ge
S ME
op l
Ġun question
ĠPresid encies
ĠF ab
Ġpract ised
Ġundert ook
Ġfrequ ency
Ġdepart ment
Ġincom plete
Ġmal aria
ĠBÃ¶ sch
ĠFloren z
ĠC up
ĠH erman
Ġadd iction
Ġpop ulated
ĠSch reyer
omb ating
Ġprem ises
Ġencoun ter
9 3
M o
Ġn an
ot age
ĠC Ã´te
Ġnot ified
ĠS WIFT
end ar
Ġpre st
Ġind e
pet it
Ġconf isc
Ġexp ressions
ab el
Ġstop ping
Ġdev ised
Ġdistort ed
Ġrecip ients
Ġfederal ist
Ġenfor cing
Ġanx iety
ĠSup reme
ĠMu lder
Ġunlaw ful
ĠAth ens
Ġunavoid able
C ol
h of
m issible
ar an
ĠC astro
Ġun e
arliament ary
Ġcomm ence
Ġmem orandum
Ġemer ges
ash ed
Ġparent al
m od
Ġnot ing
Ġ- ,
Ġinf ected
Ġamb iguous
ĠLithu anian
Ġrout ine
Ġp ed
il ib
ri um
Ġtra p
ach ed
Ġcapital s
Ġauthor ise
Ġpubl ishing
Ġtend encies
Ġacknowled ging
grow ing
best os
andin av
B as
N ord
R om
Ġt ends
Ġin adm
ĠA dam
Ġdo zens
ition ally
ap ter
Ġadm inister
ĠOr tega
produ cing
Afric a
ĠGerm ans
petit iveness
4 1
9 0
d ed
v ity
Ġ id
Ġin ject
Ġm ism
Ġun de
Ġ6 3
Ġill icit
ef e
Ġunnecess arily
Ġrecip ient
Ġfil ms
Ġpriorit ise
elect ed
Ġcigare ttes
ĠCath olic
Ġfortun ate
Ġincumb ent
Ġinde finite
A ction
f alus
es is
Ġas ymmet
Ġst up
Ġsign atories
Ġwater ways
Ġadjust ed
Ġprotocol s
Ġendeavour ing
ĠTechn ological
ili pp
Ġdiscrep ancies
9 4
n s
an agement
Ġin her
pe red
ate red
Ġimport ing
Ġtravel lers
Ġship owners
Ġprompt ed
Like wise
abil isation
Ġblat ant
des ign
Ġunst able
hof stadt
falus sy
s ing
ad y
Ġrepresent ations
Ġpract ise
Ġvar ies
Ġcomb ated
Ġexc iting
Ġterm ed
ĠBal i
Ġsuper market
Ġill usion
Ġsk y
Ġinterpret ations
May be
Ġpersu aded
Ġadvis able
Ġexhaust ive
ĠKar as
ĠAv iation
ÂłÂłĠ ÂłÂł
Ġspe ll
ri ans
Ġsuff ers
ĠGovern ments
Ġprosec utor
Ġunderest imated
Ġhousehold s
Ġpattern s
ĠSing apore
Ġp essim
an es
In ter
ĠD on
ĠW ynn
ĠME D
Ġtight ening
Ġpregn ant
7 0
f ined
n ar
th irds
av a
Ġclos est
Ġfl at
Ġterm in
Ġfeeding stuffs
ĠRÃ¼ big
z y
in ner
ct or
ra k
Ġas bestos
port ant
em it
con f
ĠF ern
Ġjust ifiable
Ġprogress ing
Un like
ĠAn ge
Ġbomb ing
Ġillustr ated
Ġhes itation
Ġemot ional
Ġbankrupt cy
Ġbarbar ic
ĠKazakh stan
3 6
o vers
Ġre lying
Ġwh eel
ig er
Ġle vy
ĠF at
ord ination
lud ing
Ġdirect ions
Ġ20 50
Ġpass age
Ġindic ator
Ġmet res
Ġcharacter istic
CO S
Ġuns ustainable
ĠSc andinav
Ġdetain ees
Ġmunicip al
Ġhun ting
Ġsulph ur
R A
b one
f ood
s men
Ġg a
ain t
Ġla ud
Ġro oted
Ġmult ipl
Ġreturn s
Ġsimilar ly
Ġcat al
Ġappeal ing
Ġresum ption
Ġmobil ised
Ġtouch es
ĠArab ia
Ġdial ogues
on ic
Ġw re
es ity
le ts
Ġtr ick
Ġpolic ing
ĠF YROM
Ġoblig e
Ġdossi ers
Ġrecital s
ĠKash mir
7 5
a id
b ene
c s
ĠE rit
Ġr ing
am s
Ġpl ight
Ġout put
Ġtime f
ĠD aphne
Ġcur b
Ġend less
Ġdra stically
Ġreal ism
ĠSe attle
Ġ6 6
Ġexacerb ated
Ã©n dez
2 8
b ies
c up
c ap
Ġm ount
ĠE ll
Ġg rey
ow ed
ĠF a
Ġrec alled
Ġtrans mitted
ĠDirect ives
Ġflag rant
Ġintens ified
establish ed
Ġconvict ed
Ġbargain ing
Ġunreserved ly
ilib rium
B earing
Ġ One
on ourable
Ġre building
Ġun aware
Ġsupport er
plement ation
ĠO l
Ġtarget ing
Ġliberal ise
Ġden ial
Ġwin ners
ĠBro ek
Ġtough er
ĠLam falussy
Ġsurpl uses
Ġnutr ition
kh az
e enth
ot ion
Ġwe b
Ġse venth
Ġconf using
Ġuse less
ail and
Ġbr and
Ġed ge
Ġopt imum
Ġopt ional
Ġrein tegration
ĠRad ical
F und
N eed
Ġh us
tr ust
Ġ9 9
ev ident
Ġjour neys
ris k
Ġdepl orable
ĠIndones ian
ĠLeon ardo
Ġbath ing
ĠMaurit ania
4 4
i ating
le an
im al
aring dorf
mitted ly
ĠCroat ian
Ġstabil ising
ĠAb khaz
Ġaer opl
Ġb on
Ġh oney
Ġal ien
ra ble
ig m
ĠUn iversity
ĠV igo
Ġfree ze
Ġorigin ating
Ġturn over
Ġsk ill
ĠBl ok
Ġwin ner
Ex plan
inc reasing
Ġmanip ulation
onym ous
Ġapproxim ation
SME s
Nord ic
c ard
f ast
l ong
it en
or ious
ĠP ost
ĠS am
Ġr ice
Ġma kers
ac c
Ġout dated
Ġrep ay
av oured
Ġdeterior ating
mun ia
Ġhier archy
s ub
in os
ĠS ection
igh th
Ġch urch
Ġdevelop s
Ġrec ast
ab s
Ġevalu ations
Ġdelay ing
Ġvolunt arily
Ġcelebr ating
Ġtransform ed
dec ision
bol lah
A ct
H ope
R o
m ma
n eeded
t a
ĠC ross
ĠS ky
el f
ĠT emporary
ĠK at
Ġdifferent iated
Ġfree zing
Ġorigin s
Ġdest iny
Ġdesign ation
Ġwid ening
ĠHa ut
Ġscand als
ĠGM O
Ad mittedly
atur day
ĠOs lo
Ġindiff erent
Ġcas ual
Ġdile mma
f elt
l ene
ĠC ity
Ġv ain
Ġdis ruption
de velopment
Ġfam ine
Ġhold ers
Ġqual ify
Ġsepar ated
Ġsound s
comm ittee
Ġrig orously
Ġrect ify
Ġtick et
Ġtick ets
Ġenthusia stic
Ġtact ics
ĠRoc ard
ĠMitch ell
Ġhus band
ĠHaut ala
G overn
G lobal
d r
Ã £
Ġse ized
og ical
Ġbro ke
Ġsupply ing
Ġsole mn
Ġpled ged
Ġendang er
Ġchamp ion
ĠTitle y
Ġcorrid ors
Ġreset tlement
3 3
T ime
Ġpro x
ĠS aturday
Ġall er
Ġlike lihood
Ġper se
Ġgen eric
Ġbal ancing
ck x
Ġblock ade
cl ared
Ġmassac re
Ġambigu ity
ogen ic
Ġpock ets
Ġrepatri ation
ĠJun cker
ĠCanad ian
O thers
U kra
d ac
Ġin ac
Ġde af
am ount
ff icking
ĠB aringdorf
Ġrec ur
Ġhope ful
Ġequ ilibrium
lev ant
Ġ8 6
Ġmult if
Ġhead ed
Ġconsist ing
ĠEnviron mental
ĠFloren ce
Å Ħ
Ġf illed
ed uc
Ġsh ot
ĠR am
ĠT ob
ĠCh apter
Ġest eem
Ġexpect ancy
Ġcompl ies
Ġcal endar
ĠGeorg ian
Ġattend ance
Ġprescri bed
Ġmultilingual ism
Ġdesert ification
Prog ress
Ġs oul
Ġre think
Ġn ative
th al
ter ckx
Ġimp over
ib e
ak ed
Ġform at
Ġinf lex
ĠSoc iety
Ġcrucial ly
Ġscient ifically
Ġcritic ising
ĠBr itt
Ġz u
Ġcy cl
ĠMand elson
Ġbenchmark s
Ġseaf arers
rett ably
ro t
Ġl ively
Ġst ories
Ġr ivers
Ġinc idence
we ight
Ġla ps
Ġover ha
Ġhistor ically
ĠBer Ã¨s
int erest
Ġadvert ise
met ics
Ġslog an
as k
ere oty
ĠB ert
Ġem an
oy e
Ġtw in
ining rad
Ġeduc ated
Ġrefer ral
Ġmut ilation
ĠGreen land
Ġcompens atory
ophob ic
Ġsacrific ed
ic ks
omm end
ĠA dd
ĠSt abilisation
Ġimport ers
vern ight
Ġconf use
Ġthird s
Ġpres upp
Ġexport ers
Ġunf ounded
Ġimag ination
Ġblood y
ĠPet ers
Ġrating s
Ġvigil ance
Ġstead y
L E
re al
est ors
pos ing
Ġmy th
Ġdiff ers
Ġrat ifying
Ġfore ver
Ġph ased
Ġsubsid ised
ann oye
Ġpenal ise
ĠTh ailand
rest ige
Ġuncertain ties
Ġmotiv ation
Ġcos m
um ped
ĠSt aff
00 6
Ġunder go
Ġatt acking
oura bly
Ġris es
Ġaccess ing
Ġcle ans
pol itical
Ġord ered
Ġpreced ed
ĠSen ate
Ġcataly st
F ar
Ġo vernight
ĠC S
ol io
Ġv icious
oc cup
Ġsupp ose
Ġexer ted
pid la
B P
c king
n ew
w ord
Ġr anging
si le
Ġob esity
Ġinter cultural
ĠAm nesty
Ġviol ating
Ġ7 8
ĠLe one
Ġconfirm ing
Ġemb ass
Ġtele com
hand ed
Ġpert inent
bene fit
c u
ĠE E
Ġl uc
Ġma f
Ġj ail
Ġso ya
Ġout lines
Ġaw arding
Ġchange over
Ġdest ined
Ġqual ification
Reg rettably
ĠInst itutions
ĠPar agraph
Ġineff icient
ĠPh ilipp
ĠDim as
Ġf ier
Ġde let
Ġco ol
Ġexp ulsion
Ġcontrib utors
Ġprovid er
ĠAl munia
Ġ11 0
Ġcounter act
Ġemb arked
Ġinterv ening
Ġfulfil s
ĠCol lins
Ġmultilateral ism
Ġconstitu ent
Ġdepr ive
Ġsacrific es
ĠOs set
Ġbab y
Ġsynth etic
ĠKal iningrad
h our
ro ed
Ġag ri
Ġam az
00 8
Ġimp ressed
Ġcar go
Ġins ight
Ġqual ities
Ġassoci ate
Ġenvis ages
disc rimin
spe cific
Ġdisreg arded
mar king
Ġkill ings
Ġreluct ance
Ġportf olio
ĠArgent ina
o sion
Ġt enth
Ġn ut
Ġun used
Ġbus y
Ġchalleng ed
Ġden omin
ann ual
Ġoccup y
Ġabandon ment
ĠMove ment
Ġirrever sible
S mall
v ation
Ġin quiries
ĠS a
form ed
Ġover ly
pr ivate
Ġbre aks
Ġfacilit ated
ĠQ ue
Ġgrass roots
ĠBu iten
ĠFif th
Ġfraudul ent
ĠBlok land
K enna
d en
Ġt ant
ed a
Ġde forestation
ie ch
ag ues
ĠL annoye
Ġover f
eth nic
Ġgener osity
Ġheart felt
Ġign ores
Ġoccasion ally
Ġwealth y
ĠJew ish
Ġthera p
4 3
M O
s ocial
Ġs and
ĠE TA
ĠI mm
Ġdo gm
Ġout right
Ġpresent ly
ĠO fficial
ash man
unt a
Ġcustom er
Ġtro pical
Ġmid st
Ġstay ing
Ġinterf ering
Ġaccommod ation
Ġcancell ation
Ġintermedi ate
ĠFe ira
4 7
9 1
m ond
s m
s essions
Ġnational ist
Ġbroad en
Ġtimes c
Ġpen et
Ġoccur rence
Ġmobil ising
Ag ricult
Ġentrepreneur ial
Ġdecentral isation
Ġmagn ific
Ġdesp air
Ġbatter ies
Ġperpet u
Ã£ o
7 8
Ġnot withstanding
ill on
Ġst ereoty
ĠS av
ant ed
ĠA pp
ee k
ĠL et
Ġcomp uters
oy le
Ġcur ious
eb hardt
sh aring
Ġacquis ition
Ġpredict ed
Ġcontra v
Ġsummar ise
Ġfluctu ations
discrimin atory
I mpro
o j
in em
Ġre op
ĠT ro
ĠCh irac
Ġprogress ively
Ġ8 8
Ġstandard ised
Ġchief ly
ĠPra gue
Ġignor ance
P al
f avoured
m y
Ġw atered
Ġd ry
ĠM igu
ĠGroup s
Ġann um
Ġquick er
Ġemb ra
Ġhar bour
Ġded ication
Ġjeopard ising
Coun cil
ĠGra efe
ĠChech en
Ġmisunderstand ings
Hope fully
S p
c ia
Ġj oy
ac ies
Ġpe cul
Ġover sh
Ġass ault
Ġsp ouses
Ġviol ates
Ġappe aring
ĠAz nar
Ġmarginal ised
Ġdistur b
Ġshop ping
Ġclim atic
Democ racy
Ġtant amount
v able
ĠP ir
Ġr an
iv ings
Ġall otted
Ġch amber
ĠG il
Ġtr ium
ĠL ud
Ġdisc oura
Ġyour s
Ġ9 3
Ġmis g
Ġunivers ally
Ġhost ile
Ġprevail s
Ġforum s
Ġdevast ated
Ġvolat ility
Ġlandf ill
c ifically
p uy
Ġt rees
er ated
Ġs oph
Ġf its
Ġclear ing
Ġdisc ourage
ĠK u
ĠK of
ĠPol es
Ġren egoti
ĠRom puy
Ġcircum vent
acks on
Ġdon ations
ari os
Ġalleg edly
Ġintens ity
Ġash amed
Ġmitig ate
Ġa uction
Ġto ken
reat ing
Ġdis rupt
ĠD am
Ġinv iting
Ġinf ection
Ġ6 8
Ġguid eline
ĠProg ressive
Ġcontinent al
Ġendorse ment
ĠVer hofstadt
Ġattrib uted
Ġmassac res
FO R
Ġdeple ted
Ġinadm issible
D isc
i os
i us
is ible
Ġm ira
ct ory
Ġg un
Ġy ard
ĠG rad
ĠG BP
gy z
me at
Ġimpro per
ĠLe inen
Ġalloc ations
Ġstaff ing
yr gyz
Ġmeaning less
Ġcondition ality
ĠMc Kenna
Ġreinfor ces
Ġscen arios
Ġfron ts
Fif thly
Ġdivor ce
Ġderiv atives
Ġunde clared
ĠOsset ia
Ġdenomin ator
Ġp it
al ing
ĠUn iversal
Ġch ick
ac ism
Ġpre d
Ġtra ps
ĠN a
Ġass ign
ĠZ aire
Ġrich est
duc ive
lo ad
Ġcompr ising
Ġdecou pling
ĠGAT T
Ġdegrad ation
E v
as ive
Ġsh am
iv ic
In t
Ġup coming
Ġrec re
ass auer
ĠK all
Ġbr ill
Ġdet ected
Ġestablish ments
ĠPol itical
Ġhuge ly
He alth
eff ective
Ġtimet ables
Spe aking
V arious
l or
w orking
Ġre all
st yle
pe ut
ut able
ow er
ill a
Ġcom posed
Ġla ugh
Ġprevent ative
Ġmot ives
Ġident ities
Ġcorrect ions
Ġdiscipl inary
Ġemot ion
Ġacced ing
Ġvill age
Ġcos metics
Need less
l ist
m ath
Â Ń
Ġc ater
Ġd oping
ĠM un
ul led
ĠP restige
ch ange
Ġst ored
Ġst uck
oc a
ĠR h
Ġrec ru
Ġlet ting
Ġdist ances
Ġcoast s
Ġrich er
ĠWar rant
isen berg
Ġcleans ing
B ased
Ġt ram
Ġcon ducive
ill er
Ġv ide
Ġdis gu
Ġinc lined
icult ural
Ġplan e
ĠPa ul
ĠNG O
ĠFisch er
Ġpredict able
ĠAbkhaz ia
Ġmisg ivings
ĠGrad in
3 4
Ġb es
um a
Ġcont emporary
Ġcommun icated
Ġident ifies
Ġshe et
Ġvol umes
Ġcoordin ators
Ġexplo sion
Ġemerg encies
cont rol
sh ore
Ġstead ily
Ġovers ight
ĠDu isenberg
Ġindign ation
D ue
it ar
Ġm arch
Ġfor ty
ig ious
Ġcan cel
In formation
ell i
arm ers
Ġafter math
Ġdist ress
ĠSch roed
Al most
Ġer osion
Ġland ing
Ġill ustration
ĠTrans atlantic
Ġchann elled
Ġremed ies
Ġexacerb ate
ĠÅł pidla
Ġlaud able
r m
ĠC old
ĠE qu
am m
ren der
Ġadv ancing
Ġph one
Ġansw ering
Ġ9 8
ĠRe con
Ġdign ified
Ġasse m
Ġcere mon
Ġpret end
Ġscept icism
Ġunh appy
Ġcyn ical
Ġtrigg ered
0 9
v oc
Ä ĥ
Ġf ram
op ath
us a
Ġag es
Ġse eds
Ġprov in
Ġfact ual
Ġimp asse
lud e
Ġmat ure
Ġdef er
ĠJ ackson
Ġobject s
ĠThe ato
Ġmult ip
Ġhead way
Ġspir al
Ġhor ror
Ġprem ise
Ġtort ured
Ġdoct rine
Ġtempt ed
Ġcompr ises
Ġliqu id
Fin ancial
ibr alt
Ukra ine
peut ic
S ix
r ating
ĠI z
ĠS terckx
ight ing
Ġdem ag
Ġ3 50
Ġins ol
Ġdistrib ute
ĠHung arians
ĠTurk men
Ġdou bled
Ġautom obile
Ġsuppl ier
Ġsurve ys
Ġpostpon ing
ĠKen ya
ĠGuatem ala
ĠEll es
M easures
r Ã©
Ã Ł
Ġs in
ĠC orn
Ġag ed
art ite
ight ening
rom eter
Ġbut ter
ĠR ap
ĠH ans
Ġrec k
Ġdet ection
Ġfe ared
Ġglobal ization
com petitive
Ġforce fully
Ġdecl ining
Ġarr anged
Ġsex es
eb ted
urs ed
Ġart istic
Ġpleas ant
Ġinj ury
che z
Ġwise ly
ĠBon n
Ġinterm od
qual ified
Ġdatab ases
Ġreconcil ing
Ġtrium ph
P at
d umping
i pt
u sions
Ġs ixt
or ge
Ġb og
ve z
ĠC lin
im ity
um ption
ĠG ibralt
ĠAm b
Ġmod eration
Ġsuccess or
Ġdoubt ful
par able
Ġauthor ising
fin anced
Ġlog istics
Ġdict ate
Ġprevail ed
Ġintensive ly
ĠLeban ese
exist ent
Ġmach ines
Ġdil ig
Ġmilitar isation
Op ening
Ġlifesty le
Ġcatal ogue
Ġfier ce
G A
I reland
is ter
Ġl ux
oc ratic
Ġun limited
Ġapp ra
ĠJ an
ĠCon duct
Ġprev al
Ġlaw making
Ġconsum ed
Ġintrodu ctory
Ġ6 2
ĠEuro dac
Ġgener ates
fin ance
Ġforg ive
Ġirre levant
ĠFirst ly
Ġbran ch
Ġunden iable
p ine
Ġt iny
Ġp al
ite ment
Ġgra in
Ġenjoy ing
P olit
Ġh iding
id er
Ġover turn
pr int
Ġpass es
Ġsur render
Ġ10 3
Ġpoll s
Ġpoll uter
ĠTh om
Ġemb race
Ġdescri bing
01 5
IT ES
Ġhyd rogen
ĠFif teen
Ġpand emic
Ġunexpect ed
S ah
h uman
er r
Ġc inem
Ġst amp
Ġconc ession
ays ia
Ġinvest or
ror ist
ĠUN H
Ġir r
Ġ13 7
Ġcle ared
Ġuns afe
Ġplatform s
Ġholid ays
Ġupg rading
Bet ter
Ġcategor ically
Ġprox imity
Ġmagnific ent
Ã ²
Ġf led
Ġfor a
ig ue
Ġsupp lements
row ley
Ġmil es
ond o
ĠLe vel
Ġund ers
Ġcomplement arity
keep ers
Ġbrid ges
Bet ween
Ġtank ers
Ġpecul iar
en za
Ġb urning
Ġre petition
Ġre jo
Ġl unch
op ular
ĠS ac
Ġinst ig
Ġwell being
ĠJ ournal
Ġaw ful
Ġcolle ge
Ġcompl ac
rup ulous
Ġregis ters
spe aking
Ġnom ination
S emit
k ov
in ence
ic urity
Ġwh e
Ġst if
ĠF unctioning
Ġno ble
ĠL ange
ĠK yrgyz
own ed
Ġland m
Ġadh erence
Through out
Ġwall s
ĠArmen ian
Ġendang ered
Ġlivelihood s
ĠHel ms
ĠÎ ķ
Ġtimef rame
3 2
g eneral
is ers
Ġw ond
od ed
Ġac id
Ġj unta
ĠG all
Ġconsum e
Ġaff lict
Ġenlarge ments
Ġconsult ative
Ġdoubt less
Ġcustom ary
Ġmer ger
Ġaud its
Ġhom eland
Ind ia
Particular ly
ĠPhilipp ines
ĠLud ford
ar c
Ġbe ll
ĠC ab
Ġsh ores
Ġby pass
od ox
ĠB or
ĠO per
Ġfav ourably
Ġcor rel
Ġsupp ression
Ġconstit utions
Ġextra ction
Ġincorpor ates
Ġcou pled
Ġpurch ases
Ġcapt ure
Ġhomosexual s
lyn n
n istr
Ġwh oles
ĠC ashman
et ime
qu ier
Ġor ph
ĠD Ã¼
ĠL an
ab elling
Ġfl out
Ġdeter rent
Ġ7 7
Ġtabl es
Ġve al
ĠAnd ers
Ġdiox in
Ġindiff erence
Ġclash es
Ġmism anagement
design ate
ommend ation
u ing
w in
in ity
is ive
Ġan g
Ġg ulf
ra ms
Ġst ir
ĠD oyle
ss on
ran ca
Ġemb od
Ġuns c
Ġacknowledge ment
ĠHa ug
ĠASE M
Ġbreat h
Ġsle ep
Ġexplos ive
ĠGibralt ar
H R
m issions
ĠM oz
if iably
Ġta ste
Ġ- .
ĠG as
ĠG ebhardt
ĠF lynn
ĠH ugh
ĠD aul
ĠN assauer
ĠEUR O
ĠMinister ial
Ġmis trust
oh l
Ġtransparent ly
Ġcow s
Ġshif ting
Ãª te
Ġh all
Ġre open
ĠM ark
us s
Ġinstit utes
Ġdifferent iation
Ġmot to
ĠStr ip
ĠPart ies
Ġconver t
Ġexerc ises
ĠIC C
ĠDay ton
ĠÃ ĸ
Ġglob e
Ġenem ies
ĠTaj ani
Exper ience
quier do
B rit
at ics
port s
Ġwith hold
Ġr anks
iv ial
ast y
Ġmin i
Ġback bone
Ġins ert
Ġfundamental ist
Ġachie vable
Ġtravel led
Ġexceed s
Ġabund antly
B R
B l
w est
ot es
ĠC rowley
Ġun fore
Ġsc an
ĠAr rest
ĠReg ion
Ġill iter
Ġadvantage ous
Ġbelie ving
Ġutil isation
Ġcrew s
Ġcertific ate
Ġoverr iding
Ġneglig ence
Ġtemper ature
Great er
Sah aran
a fter
h uber
o qu
Ġp in
or i
ra w
Ġsh oot
ist ory
Ġprov oc
Ġla x
Ġlevel led
leg al
Ġadm in
Ġproceed s
ĠBer g
Ġvulner ability
ĠWall is
Ġwebs ites
amped usa
Ġfant astic
Ġfingerprin ts
ĠUg anda
ĠClin ton
D id
c les
g rass
y ssen
ar re
Ġl orry
oc al
du ly
Ġadd ict
Ġexp ir
Ġdef ects
ĠJ ud
ab ul
Ġfavour ing
Ġloc ations
Ġear ned
Ġhard est
Ġborder ing
Ġfu sion
Ġincon ven
Ġcoinc ide
Ġabsor ption
Ġscra p
ĠKof i
7 6
F rance
a estors
b usiness
p en
r ime
Ġt ire
Ġt iss
Ġf itting
st ant
ra ising
Ġha ke
Ġwho ever
ĠT R
Ġro lling
Ġmod e
Ġrisk y
Ġ9 1
Ġconstruct ed
Ġauthor isations
Ġclass ic
Ġcou ples
hr kop
Ġcatch ing
Ġpled ges
Ġinsp ire
Ġpig s
Ġdimin ish
ĠJew s
Ġflaw ed
fund ed
Ġoverha ul
ĠSav ary
L oud
Ġ Â
Ġs on
Ġas pire
Ġv ested
Ġch ronic
ĠR ail
Ġcl ients
ĠL ord
Ġsitu ated
Ġemploy ing
ĠInd ependent
Ġcompens ated
Ġvalu ed
Ġsad d
Ġhyp oth
ĠEP As
Ġadmin istered
C oh
d ing
en z
Ġb ed
ut ure
ĠC un
ĠS pe
Ġun regulated
ear s
Ġind ebted
ĠL ind
Ġprov ocation
Ġsp ur
Ġinflu enza
Ġpan ic
Ġcere al
Ġplain ly
ĠSen egal
Ġpron ounce
Ġhorr ific
Bas ically
! '
0 20
a el
b us
Ġf ib
Ġst arch
Ġex hib
Ġun duly
ĠB ern
Ġspeed ily
hol der
EU R
Ġextensive ly
ĠPat ent
Ġrational e
Ġhum il
Ġcommission ed
Ġabsor b
Ġhabit ats
Ġthera peutic
Ġlibr aries
Ter rorism
ĠAlex ander
ĠIz quierdo
A id
Ġo x
Ġb ail
ar at
ĠM Ã©ndez
ch el
end as
Ġlegit imately
Ġglad ly
Ġadverse ly
Ġener get
Ġstup id
ĠPir ker
ĠÎķ U
C ong
Ġc ivic
ĠC apital
Ġr ub
ĠF lem
Ġcl uster
ĠL ampedusa
Ġinstru mental
Ġwater way
Ġsent iments
af ranca
Ġattract ed
Pro v
uzz o
Ġspectac ular
Ġcoc oa
ĠRev olution
L i
O ut
T rade
Ġb ag
Ġf iles
ct ors
Ġnot able
Ġab du
Ġtr ivial
Ġdet ract
Ġcrit ics
Ġwa ves
Ġhome work
af i
set Ãªte
Ch ildren
Ġaud iting
Ġ198 8
eter inary
Spe cifically
ĠDep art
Ġru in
Ġna ive
Ġbran ches
Ġsemin ar
Ġexpir y
c ers
h t
in burgh
an z
om ing
pe ople
ur able
ich ol
ee ping
Ġcr ude
ĠV ir
Ġ5 9
At t
Ġgra vity
ĠMa gh
Ġunf av
Ġimpl icit
Ġprefer ably
ĠAss istance
Ġintr ins
Ġsup reme
Ġcry st
F ore
m ans
Å Ł
Ġhe ated
Ġreal ising
Ġ6 7
unt ary
Ġpict ures
Ġbench marking
Ġaston ishing
Ġlia ison
ĠTurkmen istan
ĠDÃ¼ hrkop
I mm
es y
Ġan ger
Th ings
Ġsh ield
Ġdisc ards
pr ises
Ġgeneral ised
Ġtreat ments
Ġret ro
Ġwin ning
Ġpatent ing
Ġexceed ing
Ġdismant le
Ġscra pping
ĠBow is
Ġexagger ated
M S
Ġg reet
Ġag endas
Ġfe at
Ġcare ers
Ġ7 6
istic ated
Ġcontent ious
ĠPakistan i
Ġtight ened
Ġdream s
ĠES DP
Ġboy cott
think able
Ġfix ing
Ġrenational isation
Ġcosm etic
Ġlux ury
ĠMagh reb
3 1
at ical
Ġs am
Ġex pelled
Ġun thinkable
Ġunder gone
Ġmat urity
Ġbudget ing
Ġcol leg
Ġrev ive
Ġrece ipt
Ġstop s
Ġreact or
Ġconcentr ations
Ġste er
ĠWhite head
Ġcy ber
Ġsuspect s
Ġdecre ased
Ġinstall ation
Ġproport ional
Ġrough ly
ĠEd inburgh
Pal est
C F
E ither
Ġt ighter
Ġb and
ic acy
ĠP Ã©
ĠS Ã¡n
us ive
Ġch equ
ĠG or
Ġpl un
Ġsystem ic
Ġent ertain
ĠK arl
av an
sid ents
Ġ6 4
ĠMin sk
Ġdistrib uting
Ġsubsidi ary
Ġdecre asing
Ġprerequis ites
ĠColomb ian
Ġscore board
Bur ton
R apporteur
p rom
Ġd ust
ĠP VC
ĠR acism
Ġpre am
Ġind ul
ric ted
Ġlast ed
Ġfail ings
ocu ments
01 8
Ġdiplom ats
ĠMc M
Ġlever age
Ġclin ical
Ġindefinite ly
4 2
j Ã¶
is an
Ġs at
Ġun ple
ĠA id
Ġdo om
Ġli kes
ĠH abs
Ġmon ies
ĠCh ild
Ġform ulating
Ġiniti ating
Ġsmall est
Ġden ounced
ĠTh yssen
Ġbat t
Ġdiscrimin ate
ĠMal aysia
Ġstem s
ĠHow itt
Ġinterconn ection
ro che
st ones
ĠP eter
ill ar
ies e
Ġst icking
Ġex it
Ġcons p
ĠF ront
ĠD up
ip s
ĠW ars
ĠV eterinary
Ġann oy
Con sid
ĠAs ylum
Ġsort ed
Ġappoint ments
Ġwitness es
fe ld
Ġcelebr ated
Ġexhaust ed
ĠES F
Ġmagn itude
Ġrevers ed
Ġtur bul
ĠMoz amb
G ener
c atch
f ish
Ġo mission
Ġan om
Ġan th
ro es
Ġfor ge
Ġcom pelled
Ġab ilities
reat ed
Ġcont ing
ĠD es
Ġrec overed
ĠCommun ism
Ġtrib unal
Ġcalc ulating
olit ano
Ġment ality
ĠPh il
Ġinterpre ting
Cor rect
ĠHabs burg
. "
on ial
st ill
ĠM ission
Ġst yle
ir ation
iv ities
cy cl
og ene
ĠN ichol
Ġover see
cept ions
ov en
Ġins ignificant
Ġdecl aring
Ġconcept ion
Ġtrip artite
Ġflee ing
ĠRefuge es
ĠFour th
ĠKla us
Ġw ip
an ou
st ay
ch ildren
ie ving
Ġra pp
ĠD ur
Ġk ick
Ġro w
ĠK e
Ġmonth ly
Ġadm iration
Ġoblig es
ĠEuro group
Ġmand ates
Ġmotor ways
lo ading
ĠPos ition
ĠSal afranca
Ġsoph isticated
c end
Ġt reas
Ġin du
id akis
ass oure
Ġstrate gically
Ġword ed
Ġcivil isations
Ġlist ing
par agraph
Ġcomprehensive ly
Ġassum es
ĠTrans nistr
Ġstip ulate
Ġchamp ions
Ġgri p
Ġmaxim ise
Ġsubord inate
Ġdissatisf action
ĠErit rea
roche ment
Ġrapp rochement
A ir
R ight
il er
ĠC al
ĠC ur
th odox
ĠB ah
Ġem pow
Ġper missible
ĠIn t
ĠW olf
pa rent
Ġtransport ing
alu able
Ġdr inks
Ġconver ted
Ġton ne
Ġanticip ation
atell is
Ġmountain s
ĠIM O
Ġbreat he
Pr ime
Ġdiscl osure
Ġarrog ance
atz idakis
Ġfru its
ĠAmb assador
ĠAnders son
7 7
N egoti
P ort
in formed
oun cing
ich et
00 5
Ġfin ishing
ĠL angu
Ġconf ess
Ġdef ensive
ential ly
ĠO tt
Ġhapp ily
inistr ative
Ġexer ting
ĠMart ens
Ġkn ock
Ġembry onic
Ġassert ion
Ġpregn ancy
Ġnutr itional
person nel
Ġindiscrimin ate
Rom ania
Ġunfav ourable
R el
W elcome
w orthy
Ġb ills
Ġg iant
ol ese
Ġdis sidents
ĠD ata
Ġappro ves
Ġgen ital
Ġown er
Ġdeal ers
Ġcrit ically
Ġrev is
bon ds
Ġ9 4
Ġunf old
Ġaud itors
Ġ198 6
Ġdispos ed
Ġprosec uted
adm inistration
Ġartificial ly
ĠDep uty
Coun tries
Ġtrig ger
Ã¤n en
Ġcigare tte
Ġelabor ate
Ġstret ch
R em
U C
ĠI P
Ġst rain
Ġex tr
Ġsh ocks
Ġun le
Ġun con
itu ation
ĠPol ice
Ġ6 1
ĠAl though
Ġremember ing
ĠTr ichet
Ġdict ated
Ã¡n dez
De cember
Ġcul p
Ġparadox ical
Ġcab otage
Ġhorm ones
Ġwal k
Ġproclaim ed
Ġcarcin ogenic
ĠKall as
jÃ¶ stedt
ĠDup uis
t at
y ch
in th
er ting
Ġw ife
Ġg ru
et te
Ġsa v
Ġpower less
Ġmean while
ĠMon net
Ġlos ers
Con trary
Ġcomment ed
Ġpreca utions
Ġdivers ify
Ġblue fin
Ġdismiss ed
Ġpopul ist
Ġtail ored
ĠNap olitano
ĠSÃ¡n chez
Ġpream ble
E xt
F ive
c arbon
f ounded
Ġ lying
id is
ĠC ITES
ĠP o
Ġr ival
ard er
Ġmat ches
Ġcontin ual
Ġcur ric
Ġworking s
Ġdown turn
sid ered
Ġmis used
Ġcod ification
Ġir rit
ĠPl atform
Ġgrat ifying
Ġseason al
Ġflour ish
ĠHugh es
Ġunple asant
E GF
r Ã¶der
Ġf ats
ĠC airo
Ġta b
ĠSt ream
ĠB ud
ear ning
ĠN ag
Ġgen e
av our
Ġcrimin ality
Ġdom ination
Ġprohib iting
ĠAd visory
Ġsla ught
Cl imate
Ġassass ination
Ġcum bers
F ood
g ues
v entions
in qu
in ently
Ġf reed
op ulation
pos al
ĠF IF
Ġinv aluable
Ġoff enders
ell af
Ġsuff ice
Ġcomprom ised
Europe ans
ĠSch ool
Ġwast ing
ĠWe ber
ij s
Ġwarm est
02 6
Ġhost ages
Ġincom ing
Ġearthqu akes
Ġsuperf icial
Ġdiscrep ancy
Ġdelet ion
ĠSchroed ter
E D
M at
g reg
m ilitary
Ġt ired
in ci
ed ed
Ġre bate
ant ic
Ġcl oud
Ġbas in
ph as
fort h
Ġhom eless
Ġcontradict s
bre lla
Ġincon ce
Ġteach er
Ġgold en
Ġprest ige
Ġcumbers ome
ellaf ield
D ocuments
V er
ĠS and
ĠD ialogue
Ġspec ifies
Ġcommun ism
Ġshort fall
Ġsubst itution
Ġcorrect ive
Ã© r
Ġcoll apsed
ĠMar ÃŃn
Ġgeograph ic
Ġcommission ers
Ġcens orship
Ġannex ed
ĠSup port
Ġoffic er
Ġshar ply
Ġlabor atories
lins on
Ġvolunte ers
T s
T ra
a ard
Ġth ir
at i
Ġan gle
Ġbe es
ot ism
ĠCoun try
Ġmarket ed
ĠEuro scept
ĠFr ank
Ġrestruct ure
Ġisol ate
ĠLam assoure
Ġunw anted
Ġindis put
Ġaccus ation
Ġceremon y
Ġslaught ered
a ug
Ã ¸
Ġth in
is al
Ġw aged
ĠI S
ĠI m
ĠF al
Ġrel ies
cept ive
ĠW EU
Ġstand still
Ġinf er
Ġph ases
ĠAfric ans
Ġ8 9
Ġ198 5
Ġexempt ed
Ġalcohol ic
Ġconce ived
ĠQu aestors
Ġthrow ing
Ġpron ounced
ĠTom linson
Ġcorrel ation
Gener ally
G ree
w age
Ġtake over
ĠGro s
Ġrest aur
Se ptember
ĠAl pine
Ġill usions
Ġconstruct ing
Ġappoint ing
Ġpath s
Ġabstain ing
Ġreass ess
Ġtotalitarian ism
Ġperce ive
Ġpredomin antly
Ġinac cur
Ġlandm ines
ĠDepart ment
al ien
Ġm ixt
Ġstr and
Ġcommon ly
Ġgovern mental
ĠO cean
Ġrev ival
ĠRe view
Ġmer cy
Ġclean ing
Ġaccompl ish
ĠAir bus
Ġdischar ges
Ġstagn ation
ĠUNH CR
L a
S wed
Ġn ic
im m
Ġle is
ĠA fter
Ġthere of
ens ity
Ġclos ures
Ġ8 2
ĠAl ber
Ġpost ed
ĠWor ks
Ġfacilit ates
Be ing
ĠGu arantee
ze k
Where as
Ġabst ract
Ġunrest ricted
Ġpresum ably
ĠLan cker
E s
P OL
on est
Ġre ign
ce ans
ĠM ier
ĠS ellafield
Ġv ic
ĠT or
âĢ Ŀ
Ġprov oked
Ġinv al
Ġro aming
Ġhel pl
Ġinter rupted
Ġav en
Ġforce ful
Ġ12 9
Ġsuper vis
app ed
Ġinflu ential
Ġreass uring
Ġbott lene
Ġapolog ies
Ġevol ve
Ġobsc ure
Ġcust ody
S pecial
it isation
Ġb om
Ġf o
as i
et ing
res pect
ĠG ah
og y
ĠL ag
ink ed
ass oni
Ġspec ifying
ĠTur ks
Ġ4 50
rug u
ĠFr assoni
Ġded uct
ĠMalt ese
Ġcommission er
Ġnom inal
Ġrevolution ary
Ġcorner stones
Ġum brella
Ġreprodu ction
ĠSy rian
Ġmira cle
oca ust
ĠCun ha
ĠGros setÃªte
R B
a ired
b els
u it
Ġf ran
Ġm ood
ent er
st s
if oris
ĠG old
Ġcont est
ĠD ÃŃ
ind ustrial
ĠIn stitutional
Ġlaw ful
arm on
Ġmult icultural
Ġear s
app ato
Ġcampaign ing
Ġec ologically
ĠHa arder
Ġchain s
Ġbroadcast ers
Ġerad icating
Ġsett ling
ĠMcC art
Ġmort gage
uccess ful
ĠValen cia
ĠKyrgyz stan
D G
o om
Ġt or
Ġt ie
ir s
op ol
ial s
ĠA bu
ag asc
Ġ9 7
unction al
Ġdeep est
sec ure
ĠEx per
ris is
Ġearn est
ba rometer
ĠNaz i
Ġrum ours
ĠComp any
Ġpresupp oses
ĠMozamb ique
D irect
J une
c ost
v ig
Ġt anks
Ġre imb
st ick
em y
qu in
and om
Ġcoun ted
Ġtr ian
ĠT s
ĠF AO
ĠL iese
Ġtrans posing
Ġsign atory
Ġaccount ed
ratul ations
Al ba
Ġrecord ing
Ġreact ing
bal gs
Ġvacc ine
ĠFer ber
ĠCam er
Ġevol ving
ĠMun ich
Ġinconce ivable
Y oung
g gen
p se
p roducts
or um
Ġh ards
Ġbe et
ur ate
ĠM ech
og as
wn ing
Ġexp ired
Ġgroup ings
Ġcar rier
Ġturn out
Ġwa ited
Ġdocument ed
Ġ14 0
ĠZ ap
eb bels
Ġnation ally
En vironmental
RE G
Ġabst ention
Ġgang s
Americ an
Ġlaps es
ĠBuiten weg
ĠTR IP
M aking
T echn
b el
p ublic
w orks
z og
Ġg ift
ĠS jÃ¶stedt
am il
We ggen
Ġpre occup
ach es
Ġprogress ed
ĠV I
ĠV e
Ġhand ing
Ġadm ire
Ġ10 8
Ġdiver gent
Ġaccur acy
Ġcele b
Ġannex es
ĠRec overy
Ġshel ter
Ġinflict ed
T ax
p ret
ou ble
Ġh ate
Ġres iding
tern ally
Ġper mitting
Ġappropri ation
Ġbl unt
Ġconsequ ent
Ġopt ing
ĠLib yan
Ġdefinitive ly
Ġcow ard
Inc reasing
Ġreb els
opoul ou
poll uter
Col le
Ġoversh adow
ĠRecon struction
alien able
A I
as y
ul ously
Ġco erc
Ġrequ is
Ġoff shore
ract ed
Ġchild hood
Ġrese m
av ier
Ġpat ch
gu ided
Ġclar ifications
oul ou
ĠAt omic
ĠInst ead
Ġsurround ed
II I
avan os
Correct ions
C TA
G e
O S
Ġb one
il der
ĠM at
cess ing
ĠT ony
Ġty ran
Ġemploy ability
Ġdisp arity
Ġdistrib utors
Ġformer ly
ĠMa ij
ĠCo al
Ġdiplom as
ĠTibet ans
Ġdeterior ated
stan bul
Among st
add afi
suff iciency
continu ation
ĠNiger ian
T en
V IT
f l
s aving
Ġf les
Ġma il
ĠR os
ĠT ind
Ġmy ster
Ġind ex
Ġunder ground
Ġar gues
land ers
ell es
Ġins ur
Ġvar iations
Ġel oqu
Ġ8 7
ins on
Ġacqu iring
Ġlog istical
ik istan
Ġreaction ary
Ġdomin ate
ĠFran co
Ġinterd ependence
ĠDrug s
Ġleis ure
E ducation
F ree
F armers
P ri
c ot
p ost
v in
ich ester
ĠS OL
igh ters
Ġr andom
Ġper taining
ĠK ir
At lantic
DE R
Ġ7 1
Ġexch anged
Ġannoun cing
Ġround s
Ġsl ip
Ġprohib its
ĠOb serv
Ġcollabor ate
Ġdisagree ments
Ġxen ophobic
adm ium
ĠTra k
Ġpredecess ors
Ġmunicip alities
Ġforb idden
Ġped est
ĠBert ens
. âĢĻ
T ER
Ġo vere
or ld
ĠI A
ad el
pp Ã¤nen
Ġse greg
Ġint ending
Ġdis in
ĠR u
ĠT oday
Ġstrength s
Ġhead lines
Ġtest im
Ġpoll uted
ĠInter ior
Ġinterv ened
Ġlob bies
Ġadvis ers
see kers
Ġmal administration
Ġol ig
Ġeg gs
Ġep is
ĠFern and
Ġmaf ia
Ġstereoty pes
agasc ar
ĠTrak atellis
B r
C roat
I ran
O ctober
b ner
l ast
Ġm ild
Ġh ang
ĠC appato
ĠI stanbul
ĠM Ps
ain st
Ġres ide
od es
pl o
Ġcont end
und ling
per ipheral
ĠL akes
ĠK or
Ġauth ent
Ġund ue
ann el
ann ock
Ġclar ifies
Ġver b
ĠGe orge
Ġinfring ed
Ġliber ation
Ġphys ically
Ġconvey ed
urt z
Ġrede f
Ġfals ified
ĠObserv atory
7 3
en a
ĠE NP
ra f
ĠB agh
Ġinv oked
Ġext in
Ġexp ose
ĠW ise
Ġown ed
ĠMed ic
Ġsusp ending
Ġsuperv ise
int ention
Ġjeopard ised
Ġoutbre aks
ĠCom petitiveness
Ġaston ished
legisl ator
Along side
Ġattent ive
Ġbrill iant
Colle agues
P e
a ments
d ad
t ier
Ġin alienable
il in
il ia
Ġwe ar
se ctor
ĠM anu
port ed
reat ment
ĠT imes
Ġper verse
Ġcontext s
Ġbroad est
Ġ8 1
ĠSch rÃ¶der
Ġver ified
Ġexcess es
Ġcomplain ing
02 5
ĠMor illon
Ġdou bling
Ġdisappe aring
Ġtransform ing
Ġsem i
ĠHol land
Ġintermedi aries
Ġrend ered
Prot ection
ĠFat uzzo
ĠEE AS
Ġcryst al
L at
P oint
a zed
b as
g reen
Ġo ceans
Ġin aug
ĠM od
ĠP overty
Ġall iances
Ġun balanced
Ġam ple
ĠSt aes
use um
Ġdis integ
Ġapp arat
Ġinter rupt
iz arre
Ġmis guided
ĠAl ps
Ġflex icurity
isc ard
Ġconstit uted
Ġexclud es
Ġhor rend
Ġrestric ts
Ġnom inated
Trans parency
Ġspecul ators
Ġresid ues
Ġreorgan isation
Ġenact ed
re f
it utes
Ġb ind
ow ing
ch air
ay a
cy cle
Ġsub contract
ric k
Ġacc ent
Ġpresid ents
Ġprison er
Ġbound s
Ġinfect ious
Ġd irty
oun der
ant opoulou
pp i
ap est
ass ad
Ġcar ing
led ged
inistr ies
Ġ7 2
ĠAl avanos
app ing
oh r
Ġship ments
ES CO
Ġvig our
Ġreass ured
Tw enty
Ġconfron ting
Com petition
Ġflags hip
Ġdistr ust
ĠPre vention
arth y
ĠER DF
ĠBritt an
chel on
ĠNichol son
Ġapparat us
D iff
L isbon
n isch
Ġ +
un k
Ġde ment
ĠP C
th at
th ird
Ġsh r
Ġam azed
ĠG ood
ĠB reyer
Ġact or
ĠW ill
ĠK el
ĠGovern ing
Ġsen sibly
Ġ6 9
ik h
Ġformal ities
jud icial
ĠFor ce
Ġaspir ation
Dec isions
Ġlod ged
V E
m inated
t es
it ate
pe lling
Ġint act
Ġdo zen
Ġdec ree
Ġdem ol
ink ohr
Ġcomb ust
ĠEuro barometer
Ġquot ing
Ġmet als
oll ar
oll nisch
Ġconce ivable
Ġpestic ide
De velop
Ġinconsist encies
Ġobserv atory
Ġembarrass ing
Ġnurs es
Negoti ations
ĠBagh dad
R est
a e
a ing
b ro
e lection
an amo
Ġm ir
Ġe up
im ed
ra h
ad o
Ġacc use
Ġrep roach
Ġbo ards
Ġmor ally
Ġcut backs
la ude
Ġdeleg ates
Ġdisp uted
Ġbi ogas
Ġlay er
Ġendors ing
Ġdia bet
Ġpersist ence
ĠLatv ian
Ġutil ised
Ġattain ed
Ġdictator ial
Ġhast e
Ac cess
Ġtransplant ation
ĠKat iforis
Ġinflex ible
ĠWars aw
rugu ay
Ġa pt
ĠU ruguay
Ġind ict
ĠH atzidakis
Ġclear ance
Ġstr ang
ĠCon ventions
Ġharmon ize
Ġold est
Ġtim id
Ġdisapp ro
Ġsl ave
Ġhar ness
Ġreveal ing
ĠIC AO
Ġmatch ed
Ġboy s
ĠGen oa
mans hip
b inding
d og
at ial
en i
Ġin secure
ou m
ĠG l
ĠCh arl
ty pe
Ġopp ressed
Ġ7 9
Ġdev ising
ins ula
Ġcooper ated
Ġsw eeping
au ppi
Ġcorrespond ence
Ġconstitu encies
Ġincom pet
Ġsympath etic
Ġdepr iving
ĠRec ital
ĠPer u
Ġenrich ment
ĠPie balgs
Ġhorrend ous
E lect
V iolence
e z
n ment
r as
r ative
Ġ :
Ġs li
Ġg reed
ĠM Ã¼
ad en
ĠR ight
ĠR iver
Ġexp ires
Ġdef ends
Ġes p
ĠState ment
cise ly
Ġoppos es
Ġlo ad
Ġlog ically
Ġadjust ing
Ġgeograph ically
Ġdism ay
Ġhence forth
Ġunb el
ĠDiam antopoulou
represent ed
Ġtimesc ale
ĠMech anism
assad ors
H A
S lov
a pe
m are
v ol
Ġa eg
Ġp iv
Ġh urd
ĠE arth
ra ction
ĠM ess
art ing
el p
ĠG iscard
Ġneed ing
ĠB av
Ġhe ight
ĠT og
ĠH ond
me al
ual ity
ĠJ avier
ĠW urtz
Ġprin ted
Ġcar pet
Ġachie ves
ale ote
Ġbo ast
Ġlot s
Ġver tical
Ġworks h
bal ance
Ġenlar ging
Ġpipe lines
EA DER
Ġretail ers
Ã¤n sch
agh er
TER REG
L ook
j ev
o is
w ear
Ġb izarre
ĠC aud
Ġch er
Ġman ages
ĠL ar
Ġrel ieve
ew able
Ġnational ities
Ġopport une
arch ing
ĠV il
Ġhand ful
ĠAr ms
Ġproper ties
ven es
Ġ12 5
Ġer up
Ġsk in
Ġwid est
Ġ198 7
Ġendeav oured
Res umption
ĠGuant anamo
Ġhorm one
Ġhaul age
Ġmedi ator
Ġcra ck
Ġster ling
Ġphot ograph
ĠMED IA
Ġembass ies
Ġvide o
Ġaeg is
7 2
D I
b ook
u er
Ġs ore
Ġp ir
Ġwe aring
un ished
Ġnot ify
ĠS i
Ġex ile
ans w
Ġma gic
Ġright ful
Ġconc ise
Ġeff icacy
ĠL amber
read ing
Ġrecogn izes
Ġ9 00
Ġty res
ĠItal ians
Ġsuper power
Ġspir itual
ĠBur g
Ġcourt esy
Ġrecall ing
Ġstrug g
Ġcomparison s
ĠTra ining
Ġrect ified
Ġprolong ed
Ġspokes man
NA TO
ĠFra ga
cap acity
ibe iro
) (
H ung
M s
om er
um ber
um bling
ĠT w
ern al
ĠH all
Ġjust ifiably
Ġconf er
Ġmon itors
Ġelect ron
Ġcor ps
Ġeduc ate
Ġtrad es
ung le
Ġmeasure ment
Ġunp unished
road s
Ġprejud ices
Ġapplaud ed
Ġreb el
Ġdefe ated
Ġju ven
Ġunquestion ably
ĠTob in
ĠTransnistr ia
Gree ce
Ġceleb ration
Ġunbel iev
ĠCaud ron
C E
M inister
R ep
S olidarity
k in
Ġ When
Ġa rable
Ġc entr
Ġre ap
ĠP ope
ĠComm ittees
Ġres ur
Ġab duct
ĠD i
ĠD uff
act ivity
Ġar sen
Ġcred entials
alu ed
Comm un
Ġce ased
ĠZ eal
Ġtend ers
Ġdram a
Ġwarrant s
ĠMcC arthy
att ered
Ġreward ed
ĠGall agher
Ġprovoc ative
Ġtab oo
ĠBud apest
ĠZeal and
8 9
F rank
Ã ¦
ent ious
ol en
resid ents
end ijk
ĠG addafi
âĢ ĺ
ĠF landers
Ġdes ires
Ġhealth ier
ĠEuro control
Ġinterp arliamentary
Ġsal ute
Ġwid en
ĠMad agascar
ĠPer ry
Ġinterconn ect
ĠRen ault
Ġappra isal
Ġcinem a
Cong ratulations
P rom
Ġbe er
are la
Ġra ft
ĠL ucas
Ġinv ention
ob s
Ġbr ink
Ġcost ing
Ġcommun icating
Ġreview s
Ġsuper state
Ġdeg rading
ĠMor gan
Ġattract ing
Ġprotest ing
Ġcy an
Ġfaith ful
Cl osure
Ġoutl ining
Ġmarria ges
serv ice
Ġcomfort able
Ġrequis ite
7 4
C ar
N ovember
f ledged
Ġb a
Ġm ic
Ġh anging
ĠE IT
Ġg h
ra c
Ġsh ell
up s
Ġreg en
Ġcomm ens
ren ner
Ġpl ut
ĠH Ã¤nsch
Ġtra il
Ġprov oke
Ġover b
Ġexp ed
Ġmon u
Ġvar iable
Ġadm issible
Ġcompl iments
Ġfinal ise
Con f
Ġappreci ates
ĠMexic an
Ġsqu ee
Ġunderpin ning
Ġaccum ulated
ubb orn
Ġalign ment
Es pecially
ĠTind em
ĠManu el
ĠHond ur
U N
b eek
Å Ĥ
ic ably
ĠC asp
Ġst olen
Ġex pon
ĠG aleote
Ġcomp iled
Ġmarket place
Ġdef ault
ĠCh annel
Ġequ als
Ġmind ful
Ġsatisf ying
Ġport ion
Ġenhance ment
Ġpercent ages
Ġutil ise
Ad opt
Ġmun itions
Ġsimultane ous
Ġlabor atory
Ġhol der
Ġlev ies
ĠGuid elines
ĠScandinav ian
Ġunsc rupulous
Croat ia
Ġcombust ion
S ol
Ġf illing
ĠG ill
ac a
Ġinv o
Ġsp ar
Ġdes erved
Ġlif etime
Ġkind ly
ĠUN ESCO
Ġliberal ism
ij sen
Ġtransl ations
ĠBrazil ian
Or gan
Res pect
ĠGo ebbels
ĠÃ ħ
Ġearn ings
ĠIN TERREG
Ġunamb igu
Ġreconcil ed
ĠTaj ikistan
ĠNa ples
ijsen beek
P overty
b i
Ġwe t
ĠE ssen
Ġnot orious
od ka
Ġj ungle
ĠB renner
Ġapp rent
und us
Ġcl ock
ĠL ou
ĠL yn
Ġdisc red
de fined
Ġrespect ful
Ġmaj orities
Ġpract icable
Ġvar ieties
Ġbl amed
ĠSch uman
Ġdeterm ines
Comm on
ĠGu ard
cipl inary
Ġprescri ption
Ġham pered
Ġorph an
Ġunfore seen
ĠSOL VIT
Ġcommens urate
E P
at ts
Ġc ord
Ġm os
ĠC D
Ġal as
Ġst ubborn
ĠS ustainable
Ġshould ers
Ġli p
Ġcons ular
ĠR ibeiro
ĠT annock
ĠL inkohr
Ġinv oke
Ġfact ions
ov Ã¡
Ġremain der
Ġfl avour
Ġele ph
Ġcru x
Ġfour teen
ĠAn t
Ġer r
Ġdia mond
ĠÃ ģ
Ġmarginal isation
ĠCom petition
Ġdog ma
Ġunambigu ously
C AP
L V
c ity
en cer
Ġp arity
Ġn urt
em e
Ġne uro
Ġex ternally
Ġsh aped
ain ted
Ġun paid
end ix
ĠF ava
ĠL EADER
Ġrep ro
ĠCh ichester
Ġdown ward
Ġtreat s
You th
Ġret raining
Un employment
ĠAn na
ĠInd ependence
Ġrein state
ps on
Ġlo ose
Ġtoler ant
Ġimag in
hand ling
ĠPe ijs
Ġwholeheart ed
Ġfer ry
Ġcruel ty
Ġenthusia stically
Ġbab ies
Est aing
ĠMult iannual
Ġrecre ational
Palest inian
a way
y pical
Ġo cean
Ġm ock
Ġd i
ĠE lect
ĠM ot
Ġme ag
Ġma ps
Ġimport ation
ĠF P
Ġbet ray
ci ence
me as
ĠW ijsenbeek
Ġgu ilt
ĠO pel
Ġexperi mental
Al ready
ustom ed
Ġdemocrat ization
ĠBe lder
ĠCong olese
Ġscrutin ise
Ġembry o
Ġattrib utable
ĠDep rez
Ġhect are
Ġflaw s
suff icient
exam ine
ĠTEN s
Ġcater ing
Ġfles h
ĠTindem ans
A ub
D eb
W as
s urance
it ler
Ġf urn
ar ab
ĠC ress
ort s
ĠG Ã¶
Ġdis orders
ag g
Ġev ac
Ġev ade
ĠL egisl
Ġenviron ments
ft en
Ġappl iances
te ch
Ġharmon ized
Ġmis con
ĠIraq is
govern ment
Ġprim acy
ush ima
ĠZ ana
Ġliber als
teg rated
oss a
ĠNor weg
Ġdynam ics
commer cial
Ġtoll s
Ġintermod al
S Y
b ound
c ill
Ġb ov
Ġd ating
Ġbe aten
il let
ĠM ir
Ġen quiry
Ġem power
Ġrel ent
ount able
ĠK ok
Ġsuff erers
ĠSe ppÃ¤nen
ension ers
Ġcent red
Ġve in
rad ed
ĠProg ress
ĠInter im
Ġlo ading
iss au
Ã¼ s
ÃŃ nez
Ġcalc ulate
uk ushima
Ġstream lining
Ġ196 0
ĠTe le
ĠMont real
Ġpione ering
Mo ving
feld t
RB AN
ĠCress on
' ;
L egisl
P roliferation
l iness
ter rorist
ĠParliament s
Ġcons ign
ens itive
Ġquestion na
Ġpers ists
ĠV all
Ġregul ates
Ġpress ed
Ġsever ity
Ġsuper ior
ator ial
Ġver itable
Ġadequ acy
Ġarm aments
ior i
Ġenforce able
Ġpra ised
year s
Ġdistort ing
Reg ional
Ġoverl ap
Ġhaz ards
Ġacceler ating
Ġunderpin ned
DC s
tar iff
Ġune ven
ĠFa cil
Ġesteem ed
Ġdiabet es
Ġpiv otal
Ġmeag re
n ik
p re
is i
Ġh ole
Ġd Ã©
ĠA y
Ġsc rat
ret ched
Ġed itor
Ġcle ver
Ġuns uccessful
Ġunfair ly
Ġbreach ed
Ġ197 9
Pre cisely
Ġpassion ate
Ġfrustr ated
Ġhol istic
ĠUnder taking
ĠRam os
ĠSac coni
Semit ism
Swed en
ĠMÃ¼ ller
C ombating
p ires
Ä ĩ
Ġb le
Ġse am
ĠA ri
all i
ĠG om
Ġind iv
ĠD o
Ġadd itions
Ġinf in
Ġaddition ality
ĠAr my
Ġaccord s
Ġdep uty
Ġamb assador
Ġauthor itative
Ġspeed ed
ĠMa es
Ġbi ased
ĠMar co
ĠHead ing
Ġprosec ute
ĠSol bes
pro t
Ġdismant led
Ġunb undling
Ġinterl oc
health y
ĠFab re
ĠPost ing
Ġwhe at
Ġgru b
ĠExper ts
Aub resp
C all
T e
l ings
an ing
ul ators
Ġst al
Ġsh oes
Ġr uth
are z
ĠD ise
Ġend ure
gan i
Ġins erted
ĠAg ainst
Ġcompl icity
Ġport ray
ĠStrate gic
Ġmer ch
Ġbureauc rats
Ġweight ing
pro fit
Ġscen es
Ġbrut ally
Ġresort ing
Ġintr ans
Ġrevers al
Ġimpartial ity
Ġstorm s
Ġfool ish
Ġcommem or
dr iven
Agricult ure
ĠTRIP S
Ã¼s sel
Aubresp y
S ituation
v ign
Ġth orn
re ll
Ġto ward
Ġb ury
ĠC ed
ĠM el
if ts
Ġv ine
Ġun ten
Ġun brid
de an
Ġdef erred
Ġbl ess
Ġbroad ening
Ġ7 3
Ġve he
Ġgr id
Ġlos es
Ġproceed ed
Ġself ish
Ġcomplain ed
Ġfoot wear
ĠMar in
Ġuniform ity
Ġtend ering
Re form
ara jev
Ġdiss ent
Ġprud ence
ĠIT ER
agu a
Ġencompass es
Ġtroubl ed
Ġsympt oms
ĠStand ing
Ġaeropl anes
Ġprovin ces
Ġwholes ale
BR D
Port ug
Ġtrian gle
Ġvehe ment
arajev o
H ad
an ies
pe z
ĠM undus
iv ation
ure rs
ĠG y
Ġdis cont
Ġop ium
Ġtwo fold
cur ities
Ġlegisl ating
Ġobject ivity
Ġreal istically
Ġpract ition
ĠV en
Ġsuff rage
Ġcare rs
Ġcomprom ising
Ġ7 4
ĠSp encer
Un ion
Ġorigin ate
Ġweek ly
Ġmis er
Ġdesign ations
Ġsk il
rep ared
Ġentit lements
Ġslow down
Ġpurch ased
Ġcalm ly
ĠSim pson
Ġsympt om
German y
Ġconvers ations
ĠAnge l
Ġirr ational
Ġhelpl ess
Ġunten able
n els
in ians
Ġto y
Ġd ock
st op
se a
ur vis
ĠM ur
ĠS ur
Ġr i
Ġag ent
ĠB jer
pt on
Ġpe er
ĠJ ensen
ĠK oz
Ġhel l
Ġcol ours
Ġtechn ique
Ġdown g
Ġdecl ined
Ġamb assadors
Ġfour thly
gu ard
Ġsimpl istic
Ġhalf way
Ġ17 0
ĠChristian ity
AR S
Ġsuspic ions
Ġstar vation
ĠSA VE
Ġtermin ology
Ġrejo ice
Ġbottlene cks
h ouses
i eth
is sibility
Ġc admium
Ġn inet
Ġbe ver
ĠE PL
ĠM oh
ul ter
Ġdisc overy
Ġexp edi
ĠK abul
ĠV arela
Ġdel ight
Ġbro ther
Ġpat ri
Ġsent iment
ann akis
ĠTh ors
Ġhom ophobia
Ġfederal ism
Ġhesit ant
produ ction
Ġaccum ulation
Ġdrag ging
Ġswe et
ĠOtt awa
Ġvic inity
Frank ly
ĠBjer reg
F ail
Ġt ree
Ġc row
Ġf ederation
ay annakis
ĠS m
ĠA hern
ĠA CTA
Ġpol ar
all ow
Ġout going
ci ation
ib a
Ġsp ared
Ġ19 50
ĠO ur
Ġel apsed
Ġsubsid ise
Ġpost ing
ĠMa j
Ġconcentr ates
Ġpra y
Ġgeograph y
Ã³ pez
Ġinsuff iciently
ĠMart ÃŃnez
ĠRoman o
gen er
Ġreloc ate
Or al
ĠBol iv
Ġinconsist ency
ĠDav ies
Ġiron ic
Ġbox es
Ġshif ted
Ġchequ e
f raud
Ġthe at
Ġp ause
ro oted
oc racy
Ġat ypical
Ġres idential
ĠU RBAN
ĠB y
her ic
ĠH u
ĠL ife
ass eng
Ġdifferent iate
Ġph ones
Ġexc uses
ĠUN IC
Ġentit lement
Ġinadequ acy
Ġterri bly
ino chet
Ġhum ili
Ġvit am
east ern
Ġprerog ative
Ġunden iably
Ġax is
Explan ations
Ġdoom ed
Pe ace
Ġcyan ide
Ġevac u
ĠBjerreg aard
5 00
C s
K K
M arch
d istance
s ed
Ġo mitted
er ts
Ġw ing
ou ros
Ġm inistries
ĠM AI
Ġun itary
Ġun answ
and ouros
ud ed
Ġtr an
ĠL Ã³pez
Ġcomp ounds
Ġmeas urable
ten stein
Ġavoid ance
Ġ11 5
Ġregret ted
Ġexport er
Ġ14 08
ĠWe iler
Ġste ering
Ġimag ined
Ġmotor way
Ġoptim al
Ġintens ification
De velopment
asmus sen
ĠSub committee
ĠCamp ania
ĠRh ine
Ġinsol vency
ĠLag endijk
ilin na
k ay
u a
z bollah
Ġa pport
it ated
Ġre tal
as ilinna
Ġwith stand
ch er
em is
od ina
Ġqu e
ĠB ill
Ġtrans mit
Ġob ey
Ġorgan ize
Ġtal ent
Ġmot ive
Ġamount ed
Ġprofessional ism
Ġstream lined
Ġrecover ing
Afric an
ĠEF D
Ġluc rative
ogene ous
ĠHondur as
vign ette
6 6
E ight
F raud
P ut
c or
c lusion
en ergy
it ations
Ġp y
ul ative
Ġun ites
Ġfa una
ĠSt eel
In novation
ĠF ij
ĠF ukushima
Ġrec ipe
Ġcr ash
Ġinv ites
Ġacc red
Ġacc ustomed
Ġprot agon
Ġrep rehensible
Ġsp aces
Ġbeh aving
Ġopport un
Ġgl aring
ĠEC J
Ġdeleg ate
Ġsl ots
St ates
ĠAnd alus
Ġdiver gence
Ġpunish able
Ġembar king
Ġwatch ed
Ġprec ision
Ġemot ions
Ġ196 7
Ġhast y
Ġsupermarket s
iech tenstein
Ġilliter acy
Ġinval id
Ġhards hip
ĠLamber t
ĠFacil ity
Ġintrans ig
e uro
l ag
n ings
r ange
ĠE chelon
Ġsu its
ĠS E
ĠS ar
ter rey
Ġle ak
ĠH itler
Ġinv ented
Ġar tic
ĠK auppi
Ġsc ant
Ġplan es
ĠTur mes
Ġsupp ress
ĠAl i
Ġneighbour ly
Ġinflu encing
icy cle
Ġrein st
rog ram
Ġpreced ing
Ġfast est
Ġnight mare
Ġremed ied
Ġcultiv ated
ĠBu zek
ĠCat alan
Ġhind ered
Ġhaul iers
ĠSchmid t
Pol and
Ġparalys is
ĠBus quin
ĠSupervis ory
Ġwre ck
Ġperse ver
Coh esion
ĠMier t
Ġunansw ered
A CP
B u
S afety
U TS
V O
v arez
Ġs ine
Ġst ark
um ing
Ġle af
el a
Ġout we
Ġequ ation
ĠV oj
Ġgrow s
ĠEuro med
ĠEuro bonds
Ġmar vel
Ġprof ess
Ġcam er
Ġsepar at
Ġliter ature
Ġdimin ishing
thal ates
Ġreall oc
Ġpreval ent
ĠThom as
Brit ish
ĠPÃ© rez
Ġunbrid led
Ġoutwe igh
7 9
f ield
l od
Ġh eter
ig l
Ġst oning
Ġse qu
It aly
Ġpolit ic
Ġter r
red ict
Ġmain land
Ġemploy s
Ġgr as
Ġdead ly
Ġaver t
Ġfeed back
Ġreiter ating
Ġtun nels
Ġintens ifying
Ġfort ress
ĠPap ayannakis
reb ren
Ã§ a
Ġunwilling ness
Ġrot ation
Ġcoff ee
Ġnan otechn
Ġthir teen
ĠLyn ne
8 5
Ġt ide
Ġth w
ĠM et
ul atory
ay ing
Ġsh ir
od der
gh old
ĠB orders
ĠD uma
Ġeconom ical
Ġtra ctors
Ġem igration
ĠK ou
ĠK ohl
ov o
Ġgentle man
arm ing
Ġsuc cession
Ġsc reen
Se curity
ĠSp ace
Ġnetw orking
Ġavoid s
Ġcross ed
Ã© tat
rup ting
Ã¶ ld
Ġsumm ed
ĠBl ak
Ġpun ishing
Ġcoast line
Ġroom s
ĠAnd or
Ġmid night
Ġanaly tical
inter pret
ĠCat al
ĠNic ar
Ġinher ited
Ġcasual ties
Ġabdu ction
Ġextin ction
Ġabduct ed
Ġscrat ch
D is
Ġto oth
un n
ĠP inochet
ig in
ow ards
us z
ect iveness
Ġle cture
ĠH end
ric ane
ack ed
abl ing
olog ists
olog na
Ġreal m
Ġcontrib utor
Ġsuc c
Ġsc ape
Ġdiscuss es
Ġcult urally
Ġadm irable
Ġdep ressing
Ġconv ened
Ġcred itors
Ġden ies
Ġbi oc
Ġappeal ed
Ġelement ary
03 5
Ġimper fect
osp heric
Ġplural ist
Ġrecyc led
Ġmisunder stood
Ġpick ed
Ġhinder ing
Ġinvent ory
ĠCas aca
Ġamaz ing
rebren ica
D S
a un
c itizens
it is
Ġh eral
ĠP ay
ill i
ĠS arajevo
Ġv odka
Ġun healthy
so ft
Ġcons ens
Ġunder lining
ap es
ĠK L
Ġav ian
Ġproduct ions
ĠV alle
Ġfoc al
Ġdist ressing
Now adays
ĠOr den
raz y
Ġselect ing
off icial
Ġstream line
Ġyield s
Ġda ughter
Ġmad ness
Ġnit rogen
legisl ative
Ġswe pt
Ġmag az
Ġscan ners
Ġreimb ursed
Ġscape go
g on
t ane
u itable
Ġs izes
Ġc ess
ĠE AG
Ġg ay
ĠM oura
ĠP in
ĠP ensioners
ĠS k
ĠS Ã¶der
Ġun tr
and em
ĠSt ev
ĠB h
ĠB ologna
Ġtheir s
ise ach
ag a
Ġsp atial
ĠCh ildren
Ġgu ise
fit s
Ġregul ator
Ġher o
Ġcompl ications
Ġstat utes
Ġlight ly
ush ed
Ġce ment
ĠBl ue
Ġresist ed
Ġ197 5
Ġfem in
Ġdevast ation
Ġcatastroph es
Ġprescri be
ĠMac ao
Ġnit rates
Ġvolunte ering
Ġpopul ism
Ġdeport ation
Ġborrow ing
Ġcontempl ate
Ġyard stick
Ġwip ed
ĠFrank fur
ĠTog o
B issau
Q a
u ant
re ased
or os
Ġb ull
Ġin ert
Ġf odder
Ġre tic
ĠE BRD
Ġsu scept
ĠS em
ers chi
Ġle ew
ĠG au
ĠG ollnisch
ĠR apporteur
ĠL iechtenstein
ak i
Ġsp ends
Ġgu ess
Ġpat ernity
ĠGree ks
Ġcross roads
ool ig
Ġred ouble
cc ount
Ġ18 0
urs uant
Ġchair ing
ĠNA FO
201 2
ĠInst ance
St ill
Ġineff iciency
Ġbiotechn ological
Ġdimin ished
ao iseach
Ġinfect ions
card ini
Ġtestim ony
Ġdement ia
ĠEAG GF
ĠStev ens
erschi Ã¶ld
Ġleew ay
O ften
Ġt andem
at able
Ġc razy
ed ing
ĠM ol
ĠP itt
ĠP urvis
os er
vel ope
Ġqu orum
Ġinc itement
In vest
Ġpl astic
ĠT ill
ĠH y
ĠN UTS
Ġfundamental ists
Ġcomb ines
ron k
Ġtrad em
Ġoil s
Be yond
Ġhost ilities
Can ada
Ġ197 6
Ġannounce ments
Ġdistingu ishing
Ġoverwhelming ly
Ġhot el
Ġtank er
ĠTro ika
Ġsegreg ation
Ġbov ine
& #
B ulg
J oint
c ar
l legal
v odina
Ġe rect
ĠI ron
if elong
ĠU r
ĠG NI
Ġpl ug
ĠR ead
ĠR ossa
ĠR asmussen
Ġimp ede
Ġdef ender
chn er
ĠMon terrey
Ġten se
Ġdisp ens
the id
ĠMa aten
ĠLa os
Ġdiss u
ĠAb bas
Ġsensit ivities
Ġcontra vention
Ġcompr ise
Ġconven ient
Ġspon tane
Ġbur ied
Ġloyal ty
Ġcritici zed
ĠÂ £
Ġapprent ices
Ġcess ation
N uclear
f unctioning
i arity
r ie
or us
Ġb ird
ic op
ĠP O
el low
Ġj oke
ĠR ich
ĠT el
ĠF TA
Ġcomp atri
Ġper ipher
Ġent rench
Ġgu err
Ġide ally
rength ening
Ġparliament arian
Ġph thalates
Ġren ounce
ousand s
Ġut op
Ġfr ightening
Ġstock p
199 8
Ġoverl o
Ġanticip ating
Ad jour
Ġconceal ed
Ġshipy ard
Ġupg rade
ĠGr and
Ġmineral s
Ġdissemin ate
Adjour nment
6 8
M od
v ist
re ja
Ġo missions
Ġbe at
ĠI RA
Ġr ank
Ġat omic
Ġch art
ĠF urther
ĠL ah
Ġrel inqu
plement ing
Ġcompet itions
Ġreason ed
Ġinter ception
Ġtax ed
Ġdown right
Ġbusiness men
Ġcontain ers
Ġpres ume
Ġtest ify
Ã¶ ner
ĠHe zbollah
Ġsucceed ing
Ġassum ptions
Ġsympath ise
Ġdestabil ising
mo il
ĠImm unities
ĠVoj vodina
B usiness
P os
Ġ king
Ġf ever
ĠM ag
ĠP ronk
ich er
Ġen velope
Ġres igned
Ġse gment
Ġunder developed
Ġem pire
ace a
Ġinv iol
Ġover th
Ġprot e
Ġexpl ored
Ġjud ging
Ġflex ibly
Ã© lez
Ġrecon struct
Ġsan itation
Ġbar rel
Ġcomment ing
Ġprob ability
Ġesc aped
Ġscar city
ĠConf ederation
Ġendang ering
Ġepid emics
Ġhyd ro
Ġcab in
Ġlooph ole
comp ulsory
ĠPan el
Ġvers us
Ġrepublic s
Ġdish onest
Ġtelecom s
Ġbatt les
E ss
G o
t ically
Ġf erv
ĠA ccord
ast er
ĠL u
ew s
ov an
Ġinter regional
Ġemphas izes
Ġconv ene
Ġobs ession
Ġsubsid ising
ĠAn ton
Ġcorrect ness
Ġweak ens
Ġ13 8
Ġ17 5
ĠLiber ia
Ġblack list
Ġjeopard y
bre v
Ġmountain ous
ria ge
ĠDim it
Ġinterconn ected
Ġcart els
Ġtur moil
rig a
Ġpotato es
ĠCab rol
ĠMir anda
Ġprote ins
M ain
U sing
i Ã¨re
r ising
w orth
Ġd ated
Ġwh is
se ud
ak ia
ĠO reja
Ġimm une
Ġcirc ulating
Ġmis sile
ĠAn gl
gu y
reh ensive
Ġcombat ting
Ġmodern ised
Ġlo ved
cel eration
sh ed
Ġsac red
Ġsatell ites
Ġarbitr arily
Ġarrog ant
wa iger
Ġattent ively
igm at
Ġchick en
ĠIA EA
ĠAri as
Ġpractition ers
' ?
B ow
L arge
n age
y ard
it ating
Ġbe ating
ol an
ĠS ou
Ġad oles
ĠF ried
Ġra v
ĠH orn
Ġte eth
ĠK iev
ĠO ther
Ġmem ories
Ġguarant or
Ġple asing
ĠSch waiger
ĠAn dean
Ġ11 6
Ġhead line
Ġauthor ization
ah n
Ġfeed s
Ġadvance ment
Ġeight een
Ġcy cles
Ġbomb ings
Ġsyn onymous
Res pon
Ġconsci ences
ĠBon de
Ġsqu and
Ġpragm atism
Ġchoos es
Li beral
ych elles
Ġsav age
H onourable
S erb
in ants
Ġthe ft
er ations
ar theid
Th ousands
em ate
ĠR od
ord inated
Ġass im
Ġrep ud
Ġsp ill
Ġcomple ments
rant ed
Ġtrad ed
Ġren ovation
rad es
Ġdev ice
Ġ16 0
ired o
Ġpun itive
Ġ198 4
ĠBro wn
ĠMus cardini
Com position
Ġepid em
ĠHol ocaust
Ġmit igation
Ġviewpoint s
Ġhandic aps
Ġbol ster
Ġreop ening
igue iredo
ĠNorweg ian
H ar
T B
h ran
m ember
Ġp seud
Ġm ill
ĠC ap
ay ot
ard less
Ġqu a
In vestment
ĠT aoiseach
Ġcomp aring
chn ell
Ġimm oral
ĠEuro vignette
Ġunac c
ann i
ĠUkra inians
Ch air
Ġdict ates
Ġaud ience
Ġdivid es
Ġfort une
Ġnotice able
Ġarbit ration
Ġatm ospheric
Ġphilosoph ical
Ġprud ential
Ġbeaut y
ĠSchm itt
Ġfan atic
Ġrot ating
Ġcool ing
Ġbog ged
Ġsupervis ors
D em
Ġw ipe
Ġs inking
Ġm useum
ĠI b
ant ini
Ġv isions
Ġdis pel
ces sions
Ġra mp
Ġsub sist
Ġjust ifying
ors es
Ġsp r
ĠK roes
Ġrespect able
oo ij
Ġple ad
Ġloc ked
Ġpa ved
Ġshe er
yl a
Ġrenew ing
Ġsuperv ising
sk y
Ġuniform ly
Ġrecall s
Ġpain t
Ġblood shed
ĠEP A
Ġmotiv ate
Ġunjust ifiable
Ġbiofu el
Ġpharmaceutical s
oli os
Ġdesp icable
Ġpossess es
Ġblat antly
Ġeager ly
Ġpessim istic
chnell hardt
L ong
T P
Ġp our
ing e
st art
Ġe asing
ill o
ĠS rebrenica
ere r
Ġres ounding
Ġun qualified
ish a
ĠR oure
orm al
ĠD NA
Ġeconom ists
Ġgen es
Ġhel icop
Ġperiod ic
Ġsustain ing
Ġsatisf ies
Ġer oded
org antini
Ġcompar ability
ĠCol om
Ġhost ility
Ġcomplement ed
Ġdeterior ate
Ġcheap ly
Ġcolon ies
Ġabsor bed
Ġdepos it
Ġvers a
Ġconvers ation
Ġadvertise ments
Ġintrins ic
ĠCur tain
ĠDise ase
Ġhumili ating
ĠTill ich
C ulture
S ustainable
ent ieth
pe ace
ĠC e
ver b
Ġr ide
ud ies
con a
ĠG er
Ġrem inis
Ġfar ce
ĠJ ose
ĠW atts
Ġfl ora
Ġ15 2
Ġprepared ness
Ġinflu ences
Ġcentral isation
Ġrein vig
Ġcommercial isation
Ġdestro ys
Ġunp redict
osp ace
Ġexacerb ating
Ġdisproportion ately
Ġspot light
Ġcyn icism
ĠBan otti
Ġportf olios
Ġvolat ile
Ġdissemin ating
Govern ments
Ġindisput able
D el
d a
u ce
w es
y ou
Ġo mbudsman
Ġfor ged
ĠM AG
ĠS L
Ġcomm ended
Ġus age
ĠT y
not es
Ġar ts
ĠV inci
Ġcommit s
ier re
Ġdep opulation
ys er
Ġspecial ly
Ġdefence less
Ġver bal
Ġspir its
Ġprob able
Ġimpl ied
Ġbank ers
Ġplant ing
Ġsad ness
rem lin
Ġparam ilitary
ĠPar ish
Ġdisreg arding
Ġflu or
att ached
Ġdistinct ive
Ġdistrict s
Ġcontrav ene
ĠPhil ip
Ġtyran ny
ĠÃģ l
Ġstal emate
ĠEPL P
" ,
a ved
s im
on ly
Ġp ulling
Ġf ighters
al g
Ġh ij
Ġre aring
Ġe ighth
Ġl ady
oc us
Ġor ch
her ing
Ġcomp assion
ĠCon c
ĠV isa
Ġ8 3
Ġmis interpret
Ġenh ances
Ġsucceed s
Every body
Ġresist ant
Ġjuris dict
Ġpref ers
heart ed
Ġstem ming
ĠVietnam ese
ĠFerre ira
ĠTe hran
Ġaro used
Ġstar ving
Ġum pt
Ġtherap y
Ġrevis it
ĠCed erschiÃ¶ld
ĠFij i
Ġmarvel l
igl ione
a ic
b ach
m ot
Ġw ounded
Ġf itted
ver sion
ĠP lus
Ġim ple
Ġcom pel
arl ier
ish op
pl aces
Ġout s
Ġup rising
Ġsa b
ine es
Ġinst alled
Ġrespon s
ĠJ ames
ĠK on
Ġap artheid
Ġbus h
Ġenl ightened
ĠSp ani
Ġdev oting
Ġpenal ising
ĠPa asilinna
Ġunivers ality
Ġfrequ encies
Ġhor rors
Ġpet ty
Ġreaff irms
Ġimperial ism
Ġluck y
Members hip
ey e
EF A
ĠSil guy
Ġinconven ience
Ġculp rit
Ġaven ues
enter prises
ĠCamer oon
N E
g ood
p ers
v i
v oet
w ood
al ian
Ġm el
Ġl in
ĠM o
ĠP y
Ġst igmat
ess ment
Ġv ib
od us
ĠG a
Ġconc ede
Ġman power
Ġcl oth
Ġcl oned
ĠL y
Ġimp ot
Ġro of
Ġmat hem
ĠK a
ĠCh ief
Ġsaf est
An cona
ĠSe ychelles
Ġpar cel
ĠSch w
Ġcooper atives
Ġreiter ates
Ġunp ro
Ġrational isation
ĠDirector ates
Ġequival ence
Ġengine ers
Ġhung ry
Ġimmense ly
Ġmanip ulated
Ġrelax ed
Ġna Ã¯
Ġcorrid or
cut ting
Ġbread th
ĠDiam andouros
Sp ain
Ġang ry
Ġhumil iation
Ġerr one
ĠSÃ¶der man
Ġimple ments
ĠnaÃ¯ ve
b org
in ness
Ġb ri
Ġm amm
Ġd ensity
Ġfor ci
ĠP KK
ĠB udd
Ġtra w
Ġtra um
Ġdisc ern
ib i
ĠSe curities
urd y
Ġ12 8
Ġland ed
Ġir rad
Ã¶ ns
Ġvo id
Ġunion ists
apon s
Ġsuperv ised
Ġsmo kers
Ġalarm ed
Ġpredict ability
ĠNe ves
Ġbrut ality
Ġbra ke
ĠRo ad
Ġpriorit ising
Ġloud ly
Ġsemin ars
Ġrecur ring
ĠMark ov
ĠLangu ages
Bulg aria
U r
a ak
f eed
i at
y ards
Ġpro verb
ĠS chnellhardt
Ġsh ake
Ġdo gs
Ġpropos ition
ĠT ax
Ġwork load
Ġunder l
Ġla pse
ĠK remlin
Ġprom inence
te chn
rant s
Ġharm less
erman ent
Ġ10 9
Ġtom ato
Ġprof iles
Ġten acity
Ġdesign s
Ġauthor ized
ĠFore st
sk a
Ġproc lam
utr ition
Ġdiscipl ines
Ġcheap est
Ġsuspic ious
ĠGar gani
ĠCam pos
Ġenrich ed
Ġtroubl es
Ġunbeliev able
C y
M I
S w
g ra
h ist
n ets
Ä Ĺ
Ġa th
an c
es b
Ġm isl
Ġh oolig
Ġpro ph
ĠSt ra
ĠCoun tries
orm ick
Ġsa il
Ġra m
Ġev olved
ĠN aval
ink hor
Ġinter act
Ġelect rom
Ġeduc ating
ĠPol o
Ġremark ed
Ġremark ably
ĠUK IP
Ġsk ies
ĠVer ification
Ġeast ward
Ġstay ed
ubb ish
ĠRefuge e
Ġkidnapp ed
Ġaller gies
ĠRail way
Ġthw art
ĠNicar agua
1 00
6 5
I r
M A
p o
Ġre wards
se x
ur a
ĠM ost
Ġex odus
Ġsh aken
el voet
Ġthere in
bl ock
ĠR i
ĠF igueiredo
ĠD raft
Ġover arching
Ġdel ivers
Ġread ings
Ġdist ill
Ġmor ality
Ġcorrect ing
Ġreflect ions
201 1
Ġsyn d
Ġorient ations
ĠOlymp ics
Ġfer ries
Ġsummar ised
Ġfasc inating
ih ad
Ġambigu ities
etting er
ĠEqu atorial
ĠBah rain
Ġregen eration
ĠLegisl ative
Portug al
Ġbever ages
Ġpersever ance
Ġreminis cent
E arlier
W ere
i ants
i Äĩ
Ġt orn
Ġp uzz
Ġfor ging
ĠE ff
ĠE conom
ĠS he
Ġun wise
Ġac celeration
Ġch arity
ĠG PS
ĠB a
ĠB und
ĠB uch
Ġpre ach
Ġup wards
ag in
Ġexp ire
Ġnegoti ator
Ġcirc ulated
Ġdest inations
Ġjoin s
Ġcontact ed
ĠPl ooij
Any thing
Reg ardless
Ġpan acea
oe ing
Ġsearch ing
pro f
Ġpharm ac
Inc reased
tra fficking
Ġabst entions
ĠAdm inistrative
Ġweigh ing
Ġdrag ged
TE X
ĠAut onom
ĠMigu Ã©lez
Ġconsens ual
Ġsuscept ible
inkhor st
S cott
d rew
w ell
it ure
Ġto w
ar king
Ġh urt
ow s
iv als
ight en
ĠA elvoet
and an
ĠH ed
Ġtw entieth
ĠW a
ract ice
ĠO ettinger
Ġelect ors
Ġ8 4
Ġmult itude
Ġ11 2
Ġtack les
Ġden ouncing
ĠOr der
02 8
Ġuns uitable
Ġvirt ues
Ex am
inc luding
Ġagg ress
Ġcert ified
Ġneglect ing
Ġmanifest ly
Com ing
agn etic
Ġinjust ices
Ġfasc ism
Comp anies
Ġwithhold ing
Ġmixt ure
ĠGold stone
Ġdisinteg ration
Ġmarvell ous
6 7
J uly
W orking
f inding
m ut
n on
t ax
Ġth read
ar hus
ot iable
Ġg ar
ĠP od
ĠP ark
Ġwith drew
Ġst umbling
Ġun iting
ie ved
ĠG ut
Ġind ulg
Ġtra pped
Ġtra gically
uc ks
man agement
iol ent
Ġfl o
Ġcompl icate
Ġbuild s
Ġadapt ability
Ġder iving
Ġretain s
Ġdistort s
Ġprotest ed
Ġstra w
Ġsize able
Re ference
ĠMold ovan
Ġbroadcast s
ĠTam il
Ġbrid ging
Ġinnoc ence
ett a
ĠGar riga
Ġscra pped
ĠCambod ian
Ġwors ened
Ġintermedi ary
Ġhur ry
Ġhandic apped
Ġdepos its
Ġsid el
Ġpaedoph ilia
Äĥ u
La ughter
Ġmock ery
ĠFrankfur t
Ġadoles c
ĠSL IM
C ormick
L ess
c alan
Ġt re
Ġt ip
ro le
Ġre leg
ĠC ombating
ill an
ĠS aint
ĠA arhus
Ġad j
ĠN av
Ġinv itations
Ġbel ated
Ġlong est
Ġrest art
Ġ10 5
Ġcoll ateral
Ġchair manship
ĠCO P
Ġpain s
Ġoptim ise
Ġdoor step
Ġentail ed
)) ;
ĠAb d
Ġmal n
ĠTechn ical
Ġinstruct ed
ĠTAC s
Ġhomosexual ity
Ġhal ted
Ġcab inet
Em ployment
ĠBo el
Ġfru ition
ĠSupervis or
ĠBor rell
Consid ering
Ġinaccur ate
SY N
Ġri ots
ĠSou chet
D raft
N ally
d em
h en
h alf
m atic
Ġw ool
Ġn ail
am ous
Ġthere after
Ġapp alled
eren d
ob by
eg gle
Ġpublic ations
Ġend emic
ĠW ie
ĠO f
Ġ20 30
ss ues
Ġback l
Ġsupp ressed
Ġpo et
Ġwa ive
ĠBr inkhorst
Some one
Ġsepar ating
Ġge ost
Ġcop ies
ĠEst onian
ĠSh aria
Ġreloc ating
ĠSal v
Ġdestabil ise
Ġdestabil isation
Ġeg g
hm ad
Ġdissatisf ied
Eff orts
Ġaddict s
ĠTor res
Ġinfin ite
ĠKL A
ĠStevens on
Ġfanatic ism
b ox
e ering
f oot
re c
is k
er ators
ĠC MO
ĠE EA
Ġcon qu
ĠP ere
ĠS ince
Ġse iz
Ġneed less
ĠL and
ĠL DCs
oy s
ĠK re
ell o
Ġpract ising
Ġoper ative
Ġdraft s
Ġwar fare
ĠOr thodox
ger y
Ġut ility
Ġconver ting
Ġrele asing
ĠCo ast
cer ity
roc arbon
Ġ28 0
ĠMaced onian
AR C
Ġgir l
Ġdur able
Im plementation
Ġdismiss al
ĠPack age
Ġincorrect ly
Ġuncond itionally
Ġlibr ary
Ġmultif unctional
Ġoverf ishing
ĠKe yser
Ġempow ered
ĠRich ard
ĠLah ti
O il
u ctions
y et
on ium
at im
Ġo wes
Ġn erv
Ġon erous
ul um
op her
Ġen quiries
ber t
ĠA ccording
Ġad hering
Ġinc oh
pt ive
Ġpe ak
ĠR ab
Ġpolit e
Ġdirect ing
Ġass erted
ĠJ eggle
ĠCon d
Ġbeh aved
Ġap ology
Ġfl ax
Ġret reat
ĠEn ter
Ġsta unch
Ġilleg it
Ġrepl aces
ĠMay or
Ġregular ity
Ġgradu ates
Ġinfring ing
Ġunp opular
ĠEM AS
Ġoverl apping
Ġdivers ified
Ġdistur bed
Ġphr ases
ĠRo jo
Ġcul min
yan mar
Ġhal ting
Mat th
Ġquestionna ire
Ġpseud o
ĠÃģl varez
B ack
D Ã¶r
P ursuant
b ag
l abelling
o let
s ur
u ed
an ct
ve ment
Ġha mm
Ġst agg
os h
os ing
ant e
qu iet
Ġr ubbish
Ġcont ention
ren ces
ative ly
rough ts
wn ed
ĠJ im
Ġlegisl ations
Ġgu ards
Ġrest ate
stand ard
Ġword ings
Ġrev enge
Ġsur ge
Ġver ge
Ġones elf
iss l
Reg ulation
ĠRepresent atives
Ġprosec utors
Ġorient ed
Ġdisg ust
ĠKar am
Ġsacrific ing
Fin land
Ġfrustr ating
Ġrush ed
Ġbatter y
Ġrevital ise
Ġanch ored
Ge org
ĠCatal onia
Ess entially
A round
S oc
f ler
i Ã©r
Ġb act
Ġan onymous
Ġf est
ar ms
Ġre ar
Ġn ull
ur b
ĠM af
ul lah
os ki
ect ing
Ġr ally
ĠG ab
Ġco exist
Ġco generation
Ġout ra
og gen
Ġimp ending
Ġorder ly
ild ing
Ġdes erving
Ġmod ifying
Ġinf l
Ġmed d
Ġpur se
Ġseem ingly
mb eni
Con sider
ĠRe in
az ard
Ġacqu ainted
IT S
Ġaud itor
mbud smen
ĠHer itage
Ġpret ending
Ġattain ing
ĠMich ael
Ġmisle ad
Ġrelax ation
Ġinterd ependent
Impro ving
Ġconsp ic
Ġspar sely
Ġindiv isible
Ġvehement ly
Ġsubsist ence
Ġmisl ed
DÃ¶r fler
oggen huber
H istory
M T
P rodu
k ward
Ġm art
Ġre w
ĠC ultural
ĠE xt
ort ure
ĠM yanmar
ĠP asty
ĠA ids
Ġam ate
ac ious
ĠB Ã©
ĠR ug
Ġprot racted
Ġgood ness
ĠIn deed
Ġinstit uted
Ġgl ance
Ġide ologies
vention al
ivid ual
ĠSch eme
Ġden om
Ġfirm ness
Ġpoll ute
Ġill ogical
ert ile
Ã¶ t
ats os
Ġrele ases
asm uch
Ġpersu asion
Sim pl
Ġpil ots
Ġcorpor ation
Ġmurd erers
ĠTim ore
Ġparad igm
ros anct
Ġtail or
ĠMen rad
Gu inness
rank oski
Ġcomplac ency
ĠMcCart in
ĠAngel illi
Ġumpt eenth
6 2
g all
h i
i ority
l iba
Ġt ent
Ġa ug
in come
Ġd ared
Ġg rew
ĠM id
ers undi
Ġall ay
Ġun com
Ġta ch
bl er
Ġout law
Ġind ef
Ġk ills
Ġem it
ĠN O
Ġcomp ound
Ġbas ing
ĠGro sch
Ġinf ant
Ġexpl oring
Ġrecogn izing
Ġunderstand ably
Ġfree ing
ater o
Ġfinal ising
Ġlack ed
Ġinvestig ative
Ġcontro ll
Ġsurv ived
Ġpatent ability
Ġsac rosanct
ĠRoman ians
Ġerad icated
Ġacced ed
Ġliter acy
Im portant
ĠMac Cormick
Ġru ined
Ġfasc ist
Ġflour ishing
Ġasymmet ric
rak opoulos
Ġdilig ence
Ġexhib ition
ĠGor sel
Ã¸ r
Ġunpredict able
Ġnerv ous
iÃ©r rez
C ivil
R elations
S port
j e
n itz
t un
en ch
Ġin action
al um
ou ch
Ġh orses
Ġd umped
Ġre vert
ĠM arsh
Ġex term
Ġsh out
Ġag ro
am bers
Ġcom pelling
Ġwor sen
Ġpart isan
ĠSt urdy
bl ies
Ġdis order
Ġimport er
Ġout lets
ĠF Ã¼
Ġsa iling
Ġunder p
Ġref in
Ġfut ile
Ġend uring
Ġcompet encies
iol a
ath y
20 20
ĠLe yla
Ġawa ited
Ġwilling ly
Ġnegative ly
Ġimpl ication
emical s
Ġbackground s
Ġreass urance
Ġorganiz ing
author ised
ĠIslam ist
Ġhyd rocarbon
Ġescal ating
Ġinsult ing
Ġtrip s
Ġrepeal ing
Ġaggrav ated
Ġhall mark
Ġpedest rians
ĠSchw ab
K now
h as
i atory
Ġt ill
Ġp ac
Ġb uck
Ġd roughts
ĠC red
ĠE TS
Ġde reg
Ġun rel
ie ge
Ġdis quiet
Ġqu ar
In itial
Ġcons erve
ress es
Ġyear ly
Ġtra cks
ĠL ew
Ġmark edly
ĠJ o
Ġgroup ing
Ġaw kward
Ġdifferent ial
led o
Ġshort coming
Ġadm itting
Ġcreat ors
ĠPol l
Ġpo ly
Ġpat ron
ians ily
he ld
rist ina
Ġunaccept ably
Ġsimpl icity
Ġdesign ate
Ġmet al
Ġhome opath
Ġarm ies
Ġinterv als
Sub sid
ĠMc Nally
allel ersundi
Ġcha otic
Ġabort ions
ĠPap ua
Ġallev iating
Ġaer ospace
Ġpresum ption
Ġweigh ed
Ã¶r ling
cons uming
Bel arus
itar isation
Ġdemag og
Ġsin cerity
ĠVir rankoski
Ġanth em
Ġcentr ally
Ġperipher y
Matth ews
I raq
I llegal
M er
M us
t re
Ġthe rm
Ġo st
Ġin asmuch
Ġan te
Ġl ud
ĠP ermanent
Ġst ro
Ġsh ore
art ney
Ġle ghold
ĠA hmad
ĠG iansily
Ġconc lusive
ĠD j
ĠL alum
Ġacc using
Ġdef ective
Ġreal ises
ĠV allelersundi
Ġsc are
Ġsc rup
Ġsc reens
Ġbro ker
Ġregional isation
Ġpros pective
Ġfirm er
Ġregis tering
Rec ommendation
Ġirrespon sibility
Ġfrag ility
Ġdw ind
Ġshif ts
ĠGr Ã¶ner
Add itionally
Ġcommem orate
Ġimpover ished
Ġdogm atic
ĠApp endix
ĠMigu el
ĠCorn el
ĠDur ban
Ġaccent u
Ġstrugg les
ĠKoz lod
Ġtheat re
Ġgeost rate
Ã¶t tering
ĠTimore se
ĠCred entials
W est
Ġw ra
ot ter
ur ation
ĠP Ã¶ttering
em phas
us ers
rom e
Ġab hor
Ġab usive
Ġcl ient
Ġem ig
ĠL earning
Ġuse fully
Ġexam ines
ĠJ on
Ġgu ests
Ġtechn ocratic
ater ritorial
Ġopp ressive
Ġret rog
Ġlow ered
Ġundert akes
Ġpurs ues
Ġtot alling
Ġsurpr ises
03 8
Ġdiver ted
icro us
Ġvit ality
Ġbra kes
ĠSah raw
Ġvent ures
Ġconscious ness
Ġrevers ing
Ġjun ior
kh ope
Ġlev ied
isa ari
Ġconfisc ated
Ġtrick y
Ro bles
Rem ember
Ġredef ine
Ġthorn y
Ġprotagon ists
Ġelectrom agnetic
ĠBuch arest
olet ano
gall o
Ġtach ograph
ĠFÃ¼ le
Ġlud icrous
T ourism
f air
i pp
s uch
s ystem
Ġw ounds
Ġs orrow
il ly
ĠE c
Ġal igned
Ġha ven
ĠM DG
our cing
Ġun sp
ist ing
Ġab brev
Ġac cessions
og ens
cur s
Ġexam inations
ĠJ ou
Ġfull est
Ġfl ame
Ġorigin ated
Ġconsult ants
When ever
Ġdev oid
Ġred irect
ĠBer isha
ĠMarket s
ĠAss urance
nel ly
Ġded icate
Ġdepr ivation
ĠPe res
iers ma
ĠCat ania
Ġrecru ited
Ã² liba
ht isaari
Ġnic kel
Ġovershadow ed
Ġepis ode
ĠBav aria
Ġrepro cessing
ĠKre issl
P residents
T EN
g ensen
h le
p at
is se
Ġs ights
an ol
Ġb other
Ġm udd
Ġh unt
Ġn aming
ort ion
un ion
ter fe
Ġfa res
Ġch airs
si ze
ll i
iti as
Ġinform ative
Ġgovern s
ract ical
ab a
pr ud
Ġdraft smen
Ġret ired
cri bed
rats a
Ġfra ction
Ã© vez
Ġcritic ises
Ġoccas ional
Ġoccur rences
Ġspeed s
ĠInter reg
undred s
ĠBl ott
Ġheav en
Ġslow ing
Ġquant ified
arent ly
Ġmiss iles
Ġcop ing
Ġadmit s
Ġpersu ading
Ġdiss oc
asc ular
Ġplural ity
abil a
Ġcontra venes
Ġpriorit ised
Ġreward ing
educ ing
Ġdisturb ances
Ġtiss ues
Ġenerget ic
Ġinfer ior
ĠZap atero
last ing
T al
W TO
d emoc
t u
Ġb ow
ar ial
il ard
Ġwh ist
Ġl ent
Ġal tering
ĠM aria
em et
and owski
Ġam id
Ġab using
ple x
ĠR ack
bil isation
Ġdem arc
Ġla ure
Ġinv isible
Ġadopt ions
Ġnational istic
Ġdef icient
ĠW atch
Ġmay or
Ġthank ed
Ġpromot ional
Ġbu ff
Ġemph atic
ĠEUR ES
Ġmar ried
val ue
Ġobst ruction
Ġremo ves
Ġpreced ents
Ġsociet al
Ġfat alities
Ġmanifest ation
Ġcul mination
Ġswitch ing
Ġrock et
Ġburn t
col onial
ĠGh ent
Ġparalys ed
ĠValen ci
ĠDon nelly
Ġturbul ence
Ġmild ly
Ġplut onium
ĠGom es
ĠAndalus ia
Ġepidem iological
ĠAutonom ous
Ġadolesc ents
Ġgeostrate gic
ĠBlott nitz
F ebruary
M ath
R educing
