{"<s>":0,"<pad>":1,"</s>":2,"<unk>":3,"<mask>":4,"!":5,"\"":6,"#":7,"$":8,"%":9,"&":10,"'":11,"(":12,")":13,"*":14,"+":15,",":16,"-":17,".":18,"/":19,"0":20,"1":21,"2":22,"3":23,"4":24,"5":25,"6":26,"7":27,"8":28,"9":29,":":30,";":31,"<":32,"=":33,">":34,"?":35,"@":36,"A":37,"B":38,"C":39,"D":40,"E":41,"F":42,"G":43,"H":44,"I":45,"J":46,"K":47,"L":48,"M":49,"N":50,"O":51,"P":52,"Q":53,"R":54,"S":55,"T":56,"U":57,"V":58,"W":59,"X":60,"Y":61,"Z":62,"[":63,"\\":64,"]":65,"^":66,"_":67,"`":68,"a":69,"b":70,"c":71,"d":72,"e":73,"f":74,"g":75,"h":76,"i":77,"j":78,"k":79,"l":80,"m":81,"n":82,"o":83,"p":84,"q":85,"r":86,"s":87,"t":88,"u":89,"v":90,"w":91,"x":92,"y":93,"z":94,"{":95,"|":96,"}":97,"~":98,"¡":99,"¢":100,"£":101,"¤":102,"¥":103,"¦":104,"§":105,"¨":106,"©":107,"ª":108,"«":109,"¬":110,"®":111,"¯":112,"°":113,"±":114,"²":115,"³":116,"´":117,"µ":118,"¶":119,"·":120,"¸":121,"¹":122,"º":123,"»":124,"¼":125,"½":126,"¾":127,"¿":128,"À":129,"Á":130,"Â":131,"Ã":132,"Ä":133,"Å":134,"Æ":135,"Ç":136,"È":137,"É":138,"Ê":139,"Ë":140,"Ì":141,"Í":142,"Î":143,"Ï":144,"Ð":145,"Ñ":146,"Ò":147,"Ó":148,"Ô":149,"Õ":150,"Ö":151,"×":152,"Ø":153,"Ù":154,"Ú":155,"Û":156,"Ü":157,"Ý":158,"Þ":159,"ß":160,"à":161,"á":162,"â":163,"ã":164,"ä":165,"å":166,"æ":167,"ç":168,"è":169,"é":170,"ê":171,"ë":172,"ì":173,"í":174,"î":175,"ï":176,"ð":177,"ñ":178,"ò":179,"ó":180,"ô":181,"õ":182,"ö":183,"÷":184,"ø":185,"ù":186,"ú":187,"û":188,"ü":189,"ý":190,"þ":191,"ÿ":192,"Ā":193,"ā":194,"Ă":195,"ă":196,"Ą":197,"ą":198,"Ć":199,"ć":200,"Ĉ":201,"ĉ":202,"Ċ":203,"ċ":204,"Č":205,"č":206,"Ď":207,"ď":208,"Đ":209,"đ":210,"Ē":211,"ē":212,"Ĕ":213,"ĕ":214,"Ė":215,"ė":216,"Ę":217,"ę":218,"Ě":219,"ě":220,"Ĝ":221,"ĝ":222,"Ğ":223,"ğ":224,"Ġ":225,"ġ":226,"Ģ":227,"ģ":228,"Ĥ":229,"ĥ":230,"Ħ":231,"ħ":232,"Ĩ":233,"ĩ":234,"Ī":235,"ī":236,"Ĭ":237,"ĭ":238,"Į":239,"į":240,"İ":241,"ı":242,"Ĳ":243,"ĳ":244,"Ĵ":245,"ĵ":246,"Ķ":247,"ķ":248,"ĸ":249,"Ĺ":250,"ĺ":251,"Ļ":252,"ļ":253,"Ľ":254,"ľ":255,"Ŀ":256,"ŀ":257,"Ł":258,"ł":259,"Ń":260,"Ġt":261,"Ġth":262,"Ġa":263,"in":264,"Ġthe":265,"on":266,"re":267,"at":268,"en":269,"is":270,"Ġo":271,"er":272,"Ġw":273,"Ġs":274,"it":275,"Ġc":276,"ion":277,"Ġp":278,"or":279,"an":280,"Ġof":281,"Ġto":282,"es":283,"Ġb":284,"Ġin":285,"Ġan":286,"Ġf":287,"al":288,"ro":289,"ed":290,"Ġand":291,"ou":292,"Ġm":293,"ar":294,"ent":295,"ing":296,"ic":297,"Ġh":298,"Ġd":299,"Ġre":300,"le":301,"om":302,"Ġn":303,"ve":304,"Ġbe":305,"st":306,"Ġis":307,"Ġthat":308,"ct":309,"il":310,"Ġe":311,"ly":312,"as":313,"ation":314,"ment":315,"pe":316,"Ġon":317,"Ġwh":318,"ot":319,"Ġfor":320,"ut":321,"id":322,"Ġwe":323,"ĠC":324,"ĠE":325,"im":326,"Ġpro":327,"Ġl":328,"se":329,"ur":330,"Ġg":331,"Th":332,"ort":333,"ce":334,"Ġcon":335,"ol":336,"Ġit":337,"un":338,"Ġal":339,"et":340,"res":341,"ra":342,"Ġthis":343,"ld":344,"omm":345,"Ġha":346,"ver":347,"ĠI":348,"Ġas":349,"Ġare":350,"uro":351,"ĠM":352,"ul":353,"Ġde":354,"ith":355,"port":356,"ĠP":357,"ig":358,"urope":359,"ĠEurope":360,"ow":361,"Ġwith":362,"ch":363,"ould":364,"Ġnot":365,"ill":366,"Ġhave":367,"ies":368,"Ġst":369,"sion":370,"ate":371,"ir":372,"The":373,"Ġsu":374,"oun":375,"ay":376,"ich":377,"em":378,"ity":379,"Ġwhich":380,"ĠComm":381,"th":382,"Ġne":383,"op":384,"ble":385,"ive":386,"ĠEuropean":387,"ad":388,"os":389,"ke":390,"ĠS":391,"us":392,"ter":393,"Ġex":394,"if":395,"ust":396,"ore":397,"Ġwill":398,"Ġsh":399,"Ġy":400,"Ġby":401,"ers":402,"ission":403,"ant":404,"ain":405,"ia":406,"ess":407,"ect":408,"Ġv":409,"ial":410,"Ġim":411,"qu":412,"igh":413,"Ġhas":414,"Ġen":415,"ere":416,"Ġr":417,"ĠCommission":418,"oc":419,"est":420,"Ġat":421,"Ġag":422,"iv":423,"am":424,"ge":425,"art":426,"Ġcom":427,"ber":428,"our":429,"ure":430,"Ġres":431,"tr":432,"um":433,"Ġor":434,"Ġall":435,"Ġun":436,"Ġle":437,"ions":438,"ĠU":439,"resid":440,"end":441,"ight":442,"pp":443,"Ġse":444,"ie":445,"so":446,"ĠA":447,"ff":448,"rom":449,"Ġwould":450,"Ġcan":451,"Ġwor":452,"Ġalso":453,"ĠMr":454,"ĠPresid":455,"el":456,"Ġpol":457,"Ġme":458,"Ġint":459,"od":460,"ard":461,"Ġthere":462,"up":463,"Ġshould":464,"and":465,"Ġdo":466,"ist":467,"Ġta":468,"Ġour":469,"ud":470,"ĠUn":471,"Ġpart":472,"ates":473,"Ġfrom":474,"Ġ-":475,"Ġreg":476,"We":477,"arl":478,"ĠPresident":479,"Ġmust":480,"very":481,"Ġad":482,"ations":483,"Ġam":484,"pport":485,"Ġfa":486,"arlia":487,"arliament":488,"ical":489,"Ġbut":490,"der":491,"ĠSt":492,"Ġcoun":493,"ree":494,"Ġbeen":495,"use":496,"ult":497,"ish":498,"ĠMem":499,"ments":500,"con":501,"Ġab":502,"vel":503,"ans":504,"Ġac":505,"ĠUnion":506,"Ġgo":507,"Ġma":508,"Ġcountr":509,"ue":510,"pl":511,"'s":512,"out":513,"ome":514,"ous":515,"Ġch":516,"all":517,"reat":518,"Ġreport":519,"ire":520,"ther":521,"Ġyou":522,"Ġli":523,"ĠParliament":524,"cil":525,"du":526,"ary":527,"Ġj":528,"pos":529,"king":530,"It":531,"ple":532,"bl":533,"ĠG":534,"Ġdis":535,"Ġmore":536,"ac":537,"Ġwas":538,"ast":539,"Ġcomm":540,"Ġqu":541,"Ġneed":542,"gh":543,"Ġus":544,"cess":545,"Ġcont":546,"ose":547,"ance":548,"Ġco":549,"si":550,"Ġinc":551,"Ġtr":552,"ĠMember":553,"Ġits":554,"ĠStates":555,"ren":556,"Ġ1":557,"Ġ2":558,"ĠB":559,"able":560,"00":561,"Ġapp":562,"Ġlike":563,"ĠEU":564,"ĠCoun":565,"ĠCouncil":566,"Ġtheir":567,"Ġso":568,"Ġimport":569,"In":570,"pt":571,"ime":572,"Ġright":573,"itt":574,"ction":575,"ally":576,"Ġvery":577,"ear":578,"Ġcons":579,"Ġpos":580,"ition":581,"und":582,"Ġwho":583,"Ġpe":584,"Ġpl":585,"Âł":586,"ĠR":587,"ong":588,"her":589,"Ġbec":590,"Ġconc":591,"Ġpolic":592,"Ġpropos":593,"This":594,"Ġpr":595,"oin":596,"fore":597,"Ġthese":598,"ational":599,"Ġfin":600,"ution":601,"Ġthey":602,"ens":603,"ress":604,"cy":605,"Ġpre":606,"Ġone":607,"orm":608,"ause":609,"Ġout":610,"ject":611,"ces":612,"tern":613,"Ġcountries":614,"Ġhe":615,"ru":616,"ĠT":617,"ence":618,"âĢ":619,"oint":620,"cial":621,"ated":622,"Ġother":623,"Ġthan":624,"Ġman":625,"bil":626,"pect":627,"Ġwork":628,"per":629,"ĠF":630,"ise":631,"velop":632,"Ġwhat":633,"Ġabout":634,"Ġbet":635,"conom":636,"Ġmy":637,"Ġind":638,"ities":639,"Ġsupport":640,"ople":641,"ced":642,"ll":643,"Ġup":644,"get":645,"ide":646,"ice":647,"Ġspe":648,"Ġeff":649,"iti":650,"Ġimportant":651,"Ġnew":652,"ark":653,"one":654,"are":655,"og":656,"Ġsa":657,"ign":658,"ag":659,"Ġdec":660,"Ġyear":661,"Ġra":662,"Ġpeople":663,"ern":664,"Ġonly":665,"ms":666,"ost":667,"Ġtime":668,"Ġdevelop":669,"Ġpartic":670,"form":671,"ĠH":672,"age":673,"Ġno":674,"Ġunder":675,"ee":676,"ĠD":677,"ram":678,"Ġagree":679,"Ġpolicy":680,"ious":681,"Ġeconom":682,"Ġiss":683,"ase":684,"Ġev":685,"Ġagain":686,"Ġbecause":687,"ever":688,"Ġk":689,"ular":690,"Ġproposal":691,"Ġif":692,"Ġrec":693,"Ġact":694,"Ġcl":695,"Ġleg":696,"ri":697,"ieve":698,"Ġvot":699,"Ġtra":700,"ach":701,"Ġcr":702,"Mr":703,"bility":704,"ention":705,"Ġem":706,"Ġsoc":707,"lear":708,"tain":709,"Ġthem":710,"Ġdem":711,"eren":712,"ĠL":713,"ĠN":714,"ures":715,"pon":716,"Ġgro":717,"we":718,"Ġser":719,"Ġany":720,"Ġnow":721,"ip":722,"resent":723,"Ġprov":724,"irst":725,"ific":726,"ine":727,"Ġinst":728,"ame":729,"Ġpoint":730,"Ġsuch":731,"Ġrel":732,"Ġpolit":733,"ep":734,"iff":735,"Ġhow":736,"Ġtrans":737,"Ġprog":738,"ative":739,"irect":740,"unity":741,"ace":742,"Ġsome":743,"Ġla":744,"Ġtake":745,"Ġcomp":746,"Ġsay":747,"Ġparticular":748,"sible":749,"Ġinv":750,"Ġbel":751,"Ġob":752,"Ġmake":753,"Ġmark":754,"ew":755,"Ġsub":756,"Ġinto":757,"ween":758,"ade":759,"Ġbetween":760,"Ġconcern":761,"ks":762,"Ġthose":763,"Ġdiff":764,"gy":765,"Ġter":766,"ap":767,"Ġdeb":768,"Ġproble":769,"Ġfact":770,"Ġimp":771,"sel":772,"ittee":773,"Ġjust":774,"ubl":775,"Ġprodu":776,"xt":777,"now":778,"ric":779,"Ġper":780,"Ġbeing":781,"ugh":782,"Ġmarket":783,"Ġrights":784,"uman":785,"Ġwhen":786,"Ġway":787,"vern":788,"Ġ(":789,"ives":790,"ues":791,"ord":792,"Ġpolitical":793,"Ġtherefore":794,"lud":795,"Ġquest":796,"ating":797,"ink":798,"Ġappro":799,"Ġclear":800,"ved":801,"Ġacc":802,"Ġsy":803,"Ġover":804,"Ġmade":805,"Ġrespon":806,"day":807,"ob":808,"Ġte":809,"ural":810,"Ġwere":811,"ards":812,"cept":813,"Ġro":814,"act":815,"Ġbas":816,"ci":817,"ublic":818,"ency":819,"Ġfirst":820,"iew":821,"Ġprot":822,"Ġeconomic":823,"ough":824,"oy":825,"Ġwant":826,"Ġfund":827,"Ġknow":828,"Ġintern":829,"Ġref":830,"Ġgreat":831,"Ġbelieve":832,"rat":833,"eration":834,"ack":835,"Ġ200":836,"Ġrem":837,"Ġhuman":838,"ind":839,"Ġstr":840,"Ġdisc":841,"stem":842,"ving":843,"ian":844,"itu":845,"ision":846,"ite":847,"Ġdirect":848,"Ġsocial":849,"Ġsee":850,"eg":851,"Ġass":852,"Ġmany":853,"ors":854,"itiz":855,"Ġagainst":856,"Wh":857,"Ġop":858,"Ġmeas":859,"rough":860,"ĠCommissioner":861,"ib":862,"Ġsystem":863,"Ġmat":864,"Ġadd":865,"Ġatt":866,"mental":867,"ak":868,"ful":869,"ang":870,"me":871,"Ġrequ":872,"Ġfinan":873,"Ġdebate":874,"Ġamend":875,"Ġsitu":876,"Ġcitiz":877,"Ġprotect":878,"Ġtw":879,"Ġext":880,"ual":881,"wn":882,"udget":883,"uch":884,"That":885,"not":886,"There":887,"Ġthink":888,"de":889,"ied":890,"Ġincre":891,"ised":892,"olution":893,"low":894,"Ġgood":895,"ertain":896,"read":897,"ĠâĢ":898,"Ġeffect":899,"Ġwell":900,"bers":901,"rent":902,"Ġens":903,"Ġtoo":904,"opt":905,"ĠCommittee":906,"ry":907,"Ġar":908,"oth":909,"lect":910,"Ġeven":911,"Ġdevelopment":912,"ism":913,"Ġissue":914,"Ġadopt":915,"Ġyears":916,"Ġquestion":917,"ploy":918,"ope":919,"Ġwhere":920,"Ġconsid":921,"Ġcitizens":922,"iven":923,"âĢĻ":924,"Ġgen":925,"pet":926,"ices":927,"iron":928,"Ġfut":929,"Ġconf":930,"Ġcountry":931,"Ġfuture":932,"Ġsituation":933,"Ġorder":934,"Ġfar":935,"Ġtwo":936,"Ġinclud":937,"Ġview":938,"viron":939,"Ġnational":940,"cur":941,"ited":942,"Ġcontin":943,"Ġcannot":944,"Ġpublic":945,"Ġhere":946,"ings":947,"Ġexp":948,"Ġuse":949,"Ġlevel":950,"Ġinform":951,"Ġent":952,"Ġdoes":953,"Ġmeasures":954,"Ġoff":955,"Ġexam":956,"plement":957,"ict":958,"ulation":959,"Ġsame":960,"Ġhad":961,"Ġregard":962,"Ġtak":963,"Ġprogram":964,"Ġ'":965,"Ġrep":966,"Ġpossible":967,"Ġhigh":968,"Ġcur":969,"Ġevery":970,"How":971,"ory":972,"As":973,"ove":974,"Ġcertain":975,"Ġcour":976,"Ġmost":977,"Ġcoop":978,"Ġcould":979,"ange":980,"erest":981,"Ġlong":982,"ety":983,"Ġbudget":984,"ph":985,"Ġsaid":986,"Ġtoday":987,"Ġdef":988,"red":989,"Ġend":990,"arge":991,"ĠJ":992,"eur":993,"ount":994,"Ġagreement":995,"Ġcompet":996,"utions":997,"uth":998,"Ġmatter":999,"ready":1000,"Ġmuch":1001,"Ġthrough":1002,"ĠIn":1003,"Ġalready":1004,"ves":1005,"Ġimplement":1006,"Ġfinancial":1007,"Ġinterest":1008,"Ġresult":1009,"Ġdemoc":1010,"Ġset":1011,"isation":1012,"isl":1013,"Ġmon":1014,"eral":1015,"men":1016,"Ġput":1017,"ĠW":1018,"ass":1019,"Ġach":1020,"ĠCon":1021,"Ġprocess":1022,"Ġwithin":1023,"Ġsect":1024,"ality":1025,"Ġcall":1026,"ority":1027,"Ġsp":1028,"pporteur":1029,"ild":1030,"Ġvote":1031,"uc":1032,"Ġpresent":1033,"abl":1034,"Ġnum":1035,"ĠK":1036,"Ġlegisl":1037,"Ġstill":1038,"Ġrespect":1039,"Ġenviron":1040,"ĠCh":1041,"cond":1042,"Ġdiscus":1043,"Ġbeh":1044,"ail":1045,"Ġcommon":1046,"Ġworld":1047,"ergy":1048,"eth":1049,"Ġyour":1050,"Ġown":1051,"Ġgovern":1052,"Ġhope":1053,"Ġboth":1054,"Ġprev":1055,"Ġneg":1056,"alth":1057,"ute":1058,"ince":1059,"Ġful":1060,"ract":1061,"ason":1062,"ĠâĢĵ":1063,"Ġdra":1064,"However":1065,"gan":1066,"Ġgroup":1067,"Ġcooperation":1068,"ork":1069,"ruct":1070,"Ġgu":1071,"Ġensure":1072,"On":1073,"ouse":1074,"ĠCommunity":1075,"Ġrapporteur":1076,"inis":1077,"Ġcourse":1078,"ood":1079,"ays":1080,"urther":1081,"ÂłÂł":1082,"Ġ19":1083,"Ġinstit":1084,"Ġprin":1085,"reed":1086,"Ġlaw":1087,"Ġtaken":1088,"ov":1089,"Ġimpro":1090,"Ġsign":1091,"ile":1092,"Ġreason":1093,"uring":1094,"air":1095,"curity":1096,"Ġserv":1097,"Ġinternational":1098,"Ġdes":1099,"ici":1100,"ĠMrs":1101,"Ġlast":1102,"Ġdifferen":1103,"rit":1104,"Ġcase":1105,"Ġstate":1106,"Ġprom":1107,"Ġable":1108,"Ġarea":1109,"Ġhis":1110,"trib":1111,"Ġcurrent":1112,"omen":1113,"Ġspec":1114,"itions":1115,"Ġnecess":1116,"alf":1117,"ential":1118,"Ġplace":1119,"Ġsim":1120,"Ġhel":1121,"ab":1122,"orities":1123,"Ġwhy":1124,"Ġmain":1125,"Ġmay":1126,"Ġprinci":1127,"Ġobject":1128,"Ġenergy":1129,"Ġproblem":1130,"Ġauth":1131,"Ġinter":1132,"Ġthen":1133,"ĠO":1134,"ft":1135,"Ġbr":1136,"hip":1137,"oo":1138,"Ġmaj":1139,"reaty":1140,"Ġhelp":1141,"Ġcond":1142,"cing":1143,"Ġcol":1144,"Ġmeans":1145,"Ġinformation":1146,"Ġnumber":1147,"Ġask":1148,"Ġest":1149,"entle":1150,"Ġaction":1151,"Ġgentle":1152,"lu":1153,"chn":1154,"ployment":1155,"Ġexample":1156,"Ġgentlemen":1157,"adies":1158,"Ġdeal":1159,"Ġpers":1160,"Ġinvol":1161,"ether":1162,"Ġwithout":1163,"Ġstand":1164,"Ġsaf":1165,"Ġconst":1166,"ollow":1167,"Ġprotection":1168,"ĠAm":1169,"ĠHouse":1170,"come":1171,"ĠGro":1172,"Ġproblems":1173,"Ġappl":1174,"itive":1175,"ules":1176,"man":1177,"Ġwel":1178,"te":1179,"Ġhowever":1180,"Ġdirective":1181,"oti":1182,"Ġcar":1183,"ning":1184,"Ġallow":1185,"If":1186,"Ġform":1187,"oura":1188,"own":1189,"ene":1190,"ty":1191,"adam":1192,"Ġparticularly":1193,"Ġaw":1194,"ately":1195,"Ġaccept":1196,"Ġnecessary":1197,"olog":1198,"Ġconsider":1199,"Ġbefore":1200,"Ġnegoti":1201,"Ġredu":1202,"Ġopport":1203,"Ġfav":1204,"ines":1205,"ablish":1206,"Ġregion":1207,"arch":1208,"Ġgive":1209,"self":1210,"Ġke":1211,"Ġindust":1212,"fter":1213,"Ġrepresent":1214,"Ġsol":1215,"iz":1216,"Ġissues":1217,"Ġsince":1218,"Ġorgan":1219,"Ġhealth":1220,"Ġfollow":1221,"Ġresolution":1222,"Ġwish":1223,"ently":1224,"Ġsecurity":1225,"ination":1226,"Ġdet":1227,"Ġareas":1228,"Ġgiven":1229,"illion":1230,"Ġposition":1231,"Ġstrate":1232,"Ġlegal":1233,"ents":1234,"Ġreal":1235,"ĠTreaty":1236,"Ġestablish":1237,"Ġconsum":1238,"ĠGroup":1239,"ration":1240,"Ġav":1241,"icult":1242,"bour":1243,"ramew":1244,"Ġsector":1245,"ically":1246,"Ġfurther":1247,"ound":1248,"Ġ3":1249,"Ġmeet":1250,"land":1251,"Ġproced":1252,"Ġlead":1253,"Ġdifficult":1254,"ell":1255,"Ġproduct":1256,"ability":1257,"sibility":1258,"Ġwhether":1259,"ramework":1260,"Ġrequire":1261,"ird":1262,"Ġamendments":1263,"Ġwomen":1264,"Ġladies":1265,"Ġsom":1266,"Ġthank":1267,"Ġcris":1268,"ec":1269,"Ġgl":1270,"Ġopin":1271,"ricult":1272,"Ġdecision":1273,"Ġcre":1274,"vers":1275,"Ġequ":1276,"Ġtechn":1277,"Ġdifferent":1278,"ased":1279,"Ġfavour":1280,"Ġinvest":1281,"ered":1282,"Ġbehalf":1283,"arm":1284,"Ġrat":1285,"Ġcontrib":1286,"Ġpow":1287,"ĠUnited":1288,"isions":1289,"Ġaccount":1290,"Ġprovid":1291,"ources":1292,"Ġrole":1293,"Ġsm":1294,"Ġfish":1295,"Ġprogramme":1296,"Ġproposals":1297,"pr":1298,"ting":1299,"Ġsuc":1300,"ĠMembers":1301,"Ġ20":1302,"ward":1303,"Ġbasis":1304,"Ġserious":1305,"Ġterms":1306,"Ġaff":1307,"Ġnext":1308,"rodu":1309,"Ġpromot":1310,"Ġelect":1311,"Ġeffort":1312,"Ġiniti":1313,"Ġfe":1314,"Ġpract":1315,"Ġprogress":1316,"Ġval":1317,"Ġcrit":1318,"Ġdone":1319,"Ġreform":1320,"Ġrules":1321,"Ġservices":1322,"wards":1323,"Ġaid":1324,"Ġmin":1325,"Ġaim":1326,"ĠV":1327,"Ġtrade":1328,"Ġcome":1329,"sions":1330,"Ġrest":1331,"erence":1332,"Ġeffective":1333,"Ġsc":1334,"Ġhand":1335,"Ġcrisis":1336,"pa":1337,"Ġadopted":1338,"rol":1339,"ank":1340,"Ġloo":1341,"Ġ199":1342,"Ġbetter":1343,"Ġlegislation":1344,"stand":1345,"Ġhapp":1346,"Ġapproach":1347,"Ġword":1348,"ication":1349,"Ġneeds":1350,"Ġcomple":1351,"Ġfind":1352,"Ġsubject":1353,"fit":1354,"Ġsecond":1355,"ising":1356,"Ġframework":1357,"Ġmod":1358,"What":1359,"Ġpri":1360,"Ġimm":1361,"Ġafter":1362,"tic":1363,"ss":1364,"old":1365,"led":1366,"Ġopen":1367,"Ġfew":1368,"Ġinf":1369,"Ġchange":1370,"Ġmem":1371,"overn":1372,"Ġexist":1373,"Ġopinion":1374,"Ġcontinue":1375,"Ġmed":1376,"Ġwhole":1377,"Ġmention":1378,"Ġgrow":1379,"Ġinstitutions":1380,"reedom":1381,"Ġrev":1382,"ital":1383,"Ġproject":1384,"selves":1385,"But":1386,"Ġfore":1387,"Ġtal":1388,"Ġur":1389,"eng":1390,"ared":1391,"racy":1392,"Ġjob":1393,"Ġoper":1394,"over":1395,"For":1396,"ts":1397,"ten":1398,"Ġconcerned":1399,"Ġes":1400,"Ġforward":1401,"Ġagricult":1402,"ified":1403,"obal":1404,"Ġget":1405,"Ġgoing":1406,"Ġimprove":1407,"iving":1408,"ething":1409,"ratic":1410,"Ġadv":1411,"arant":1412,"Ġworking":1413,"leg":1414,"Ġcap":1415,"amental":1416,"Ġcost":1417,"ĠState":1418,"ually":1419,"Ġthree":1420,"Ġback":1421,"Ġtowards":1422,"Ġsoci":1423,"Ġstart":1424,"Ġwelcome":1425,"Ġtax":1426,"Ġexpress":1427,"Ġbene":1428,"mit":1429,"Ġstep":1430,"gether":1431,"ret":1432,"ese":1433,"ases":1434,"Ġins":1435,"Ġsomething":1436,"Ġguarant":1437,"pecial":1438,"Ġess":1439,"Ġvoted":1440,"inister":1441,"Ġpur":1442,"Ġremain":1443,"als":1444,"ĠPro":1445,"Ġchild":1446,"Ġperson":1447,"Ġachieve":1448,"Ġfreedom":1449,"pri":1450,"Ġexpl":1451,"atives":1452,"imes":1453,"Ġtransport":1454,"Ġrese":1455,"Ġsmall":1456,"arity":1457,"Ġspecific":1458,"Ġresources":1459,"Ġprinciple":1460,"ways":1461,"Ġide":1462,"Ġconditions":1463,"Ġcor":1464,"Ġdel":1465,"other":1466,"iness":1467,"ily":1468,"Ġexper":1469,"Ġris":1470,"Ġincluding":1471,"Ġintrodu":1472,"Ġrelations":1473,"Ġdiscuss":1474,"Ġinteg":1475,"vention":1476,"Ġvar":1477,"airs":1478,"Ġcompan":1479,"av":1480,"Ġpay":1481,"ify":1482,"Ġimportance":1483,"urn":1484,"Ġdown":1485,"ĠPresidency":1486,"itution":1487,"Ġproposed":1488,"Ġopportunity":1489,"entr":1490,"Ġaccess":1491,"Ġplan":1492,"Ġreally":1493,"Ġ5":1494,"Ġprep":1495,"ror":1496,"Ġcommun":1497,"Ġemployment":1498,"Ġauthorities":1499,"iol":1500,"Ġsuccess":1501,"Ġthird":1502,"Ġdid":1503,"ident":1504,"Ġresearch":1505,"Ġessential":1506,"Ġshall":1507,"Ġnat":1508,"imate":1509,"Ġglobal":1510,"pecially":1511,"Ġtogether":1512,"ead":1513,"Ġpolicies":1514,"Ġmove":1515,"Ġused":1516,"ath":1517,"Ġprovide":1518,"Ġincrease":1519,"Ġap":1520,"Ġbus":1521,"Ġgeneral":1522,"Ġespecially":1523,"Ġstrong":1524,"Ġcommit":1525,"ĠTur":1526,"Ġcontrol":1527,"An":1528,"Ġduring":1529,"Ġpeace":1530,"ogn":1531,"Ġless":1532,"Ġplay":1533,"Ġread":1534,"ners":1535,"Ġlarge":1536,"ĠAg":1537,"Ġindustry":1538,"tal":1539,"ĠDe":1540,"ined":1541,"Ġregulation":1542,"Ġrecogn":1543,"rant":1544,"Ġunderstand":1545,"Ġclearly":1546,"Ġstrategy":1547,"sequ":1548,"Ġnegotiations":1549,"Ġ4":1550,"Ġactiv":1551,"Ġenvironmental":1552,"Ġgreater":1553,"Ġfundamental":1554,"ivid":1555,"Ġitself":1556,"Ġbecome":1557,"gth":1558,"Ġfree":1559,"rength":1560,"Ġenvironment":1561,"Ġmillion":1562,"aking":1563,"Ġresponsibility":1564,"Ġanother":1565,"Ġtext":1566,"Ġquite":1567,"Ġsafety":1568,"imin":1569,"Ġleast":1570,"Ġproducts":1571,"Ġsuff":1572,"Ġcult":1573,"stain":1574,"Ġstrength":1575,"Ġbring":1576,"Ġviol":1577,"ening":1578,"ises":1579,"Ġreach":1580,"bon":1581,"Ġregul":1582,"Ġrather":1583,"Ġshow":1584,"Ġcolle":1585,"ater":1586,"ists":1587,"They":1588,"Ġher":1589,"ness":1590,"les":1591,"Ġ.":1592,"Ġsupp":1593,"Ġextre":1594,"iod":1595,"asing":1596,"Ġaddition":1597,"Ġspeak":1598,"eed":1599,"ield":1600,"Ġlif":1601,"Ġthough":1602,"Ġdemocracy":1603,"Ġbusiness":1604,"ances":1605,"ĠAr":1606,"Ġachie":1607,"Ġinstru":1608,"Ġalways":1609,"Ġdemand":1610,"Ġattention":1611,"Ġenc":1612,"Ġbu":1613,"Ġappropri":1614,"oney":1615,"Ġonce":1616,"ences":1617,"Ġpositive":1618,"Ġcomb":1619,"ug":1620,"ining":1621,"Ġmaking":1622,"Ġregions":1623,"Ġprevent":1624,"These":1625,"ivil":1626,"Ġpower":1627,"gin":1628,"Ġopp":1629,"ingle":1630,"Ġlook":1631,"ner":1632,"Ġinterests":1633,"ross":1634,"ĠSe":1635,"Ġthings":1636,"ĠRus":1637,"Ġsociety":1638,"Ġbenefit":1639,"Ġmajor":1640,"Ġlim":1641,"though":1642,"Ġfood":1643,"ible":1644,"Ġtaking":1645,"Ġimplementation":1646,"Ġclos":1647,"Ġeconomy":1648,"Ġinternal":1649,"Ġbased":1650,"gest":1651,"Ġfight":1652,"ium":1653,"Ġdemocratic":1654,"Ġefforts":1655,"ification":1656,"Ġlet":1657,"Ġstruct":1658,"At":1659,"Ġmoney":1660,"Ġvarious":1661,"Ġed":1662,"Ġsignific":1663,"Ġbl":1664,"Ġabs":1665,"Ġterror":1666,"Ġgovernment":1667,"Ġprogramm":1668,"Ġaspect":1669,"Ġrece":1670,"rency":1671,"Ġpoints":1672,"Ġmembers":1673,"Ġeach":1674,"ick":1675,"Ġchang":1676,"ples":1677,"Ġshort":1678,"ĠGovern":1679,"Ġple":1680,"Ġaddress":1681,"aps":1682,"ted":1683,"sia":1684,"Ġmonth":1685,"Ġextreme":1686,"Ġadm":1687,"Ġenl":1688,"Ġwords":1689,"Ġfail":1690,"Ġoc":1691,"erv":1692,"Ġyet":1693,"ogue":1694,"Ġcolleag":1695,"Ġdraft":1696,"ier":1697,"Ġproper":1698,"ivers":1699,"Ġwhile":1700,"Ġexpect":1701,"Ġprocedure":1702,"Ġfunds":1703,"ran":1704,"Ġindivid":1705,"Ġair":1706,"Ġperiod":1707,"Ġinvolved":1708,"Ġcreat":1709,"irm":1710,"Ġaccord":1711,"Ġmanage":1712,"Ġfull":1713,"ages":1714,"Ġpartners":1715,"Ġpress":1716,"Ġban":1717,"Ġcommittee":1718,"Ġemph":1719,"itted":1720,"thing":1721,"Ġchall":1722,"ics":1723,"Ġfield":1724,"Ġsingle":1725,"Ġgrowth":1726,"ged":1727,"Ġsustain":1728,"ĠAf":1729,"com":1730,"Ġcong":1731,"Ġseem":1732,"Ġtranspa":1733,"Ġeduc":1734,"Ġworkers":1735,"Ġca":1736,"ticle":1737,"row":1738,"Ġwee":1739,"Ġnon":1740,"Ġconcerns":1741,"Ġparliament":1742,"Ġel":1743,"ffairs":1744,"Ġchildren":1745,"ened":1746,"ialogue":1747,"ratul":1748,"Ġhaving":1749,"ĠAffairs":1750,"Ġcompetition":1751,"Ġfeel":1752,"iation":1753,"ĠEUR":1754,"utes":1755,"Ġcivil":1756,"entral":1757,"ĠGovernment":1758,"Ġbal":1759,"Ġindividual":1760,"ext":1761,"isbon":1762,"Ġcompanies":1763,"Ġamong":1764,"cise":1765,"Ġcare":1766,"Ġrequest":1767,"Ġaffect":1768,"Ġclose":1769,"Ġprogrammes":1770,"Ġcongratul":1771,"Madam":1772,"icial":1773,"ply":1774,"ĠFund":1775,"Ġobjectives":1776,"Ġph":1777,"ember":1778,"Ġwar":1779,"Ġsubst":1780,"Ġfl":1781,"Ġloc":1782,"Ġbest":1783,"fort":1784,"Ġquality":1785,"Ġencoura":1786,"ably":1787,"ĠLisbon":1788,"ended":1789,"Ġagreements":1790,"lusion":1791,"ule":1792,"Ġpass":1793,"raph":1794,"Ġtreat":1795,"Ġamendment":1796,"Ġfully":1797,"Ġemphas":1798,"Ġdep":1799,"Ġavail":1800,"Ġtry":1801,"So":1802,"Ġappe":1803,"sw":1804,"Ġrefer":1805,"Ġforce":1806,"key":1807,"Ġpop":1808,"ron":1809,"Ġsolution":1810,"Ġincreasing":1811,"Ġmajority":1812,"Ġsur":1813,"ĠMinister":1814,"ension":1815,"Ġann":1816,"Ġstandards":1817,"Ġresol":1818,"Ġfollowing":1819,"icient":1820,"Ġoften":1821,"Ġeuro":1822,"Ġmean":1823,"Ġrecent":1824,"ĠMadam":1825,"Ġcertainly":1826,"Ġsimply":1827,"Ġdecisions":1828,"Ġexperi":1829,"ither":1830,"Ġele":1831,"Ġcoh":1832,"Ġansw":1833,"Ġname":1834,"empt":1835,"ights":1836,"uge":1837,"ceed":1838,"inally":1839,"Ġdialogue":1840,"oub":1841,"Ġbegin":1842,"200":1843,"ending":1844,"With":1845,"Ġagricultural":1846,"You":1847,"Ġgroups":1848,"Ġproduction":1849,"inistr":1850,"Ġaware":1851,"itor":1852,"Ġmot":1853,"Ġfarm":1854,"ĠPol":1855,"Ġextremely":1856,"Ġfam":1857,"Ġbro":1858,"Ġcontext":1859,"idence":1860,"haps":1861,"Ġsignificant":1862,"Ġmil":1863,"Ġkind":1864,"Ġtechnolog":1865,"ĠThe":1866,"Ġcoord":1867,"thers":1868,"Ġharm":1869,"Ġlist":1870,"ck":1871,"Ġobjective":1872,"enda":1873,"ina":1874,"Ġvis":1875,"round":1876,"Ġsum":1877,"Ġenlarge":1878,"Ġcreate":1879,"ocu":1880,"Ġcomprom":1881,"Ġparticip":1882,"fortun":1883,"Ġdat":1884,"ĠIs":1885,"Ġago":1886,"Ġactually":1887,"Ġquestions":1888,"Ġrisk":1889,"Ġinitiative":1890,"hing":1891,"Ġcompl":1892,"Ġrecomm":1893,"Ġlife":1894,"Ġmight":1895,"Ġassess":1896,"Ġcomplete":1897,"ourt":1898,"ech":1899,"sid":1900,"ternal":1901,"Ġstates":1902,"Ġassist":1903,"ĠTurkey":1904,"Ġimpact":1905,"Ġsug":1906,"most":1907,"ees":1908,"Europe":1909,"Ġjoint":1910,"Ġsure":1911,"ys":1912,"Ġmentioned":1913,"ĠNo":1914,"Ġsen":1915,"Ġavailable":1916,"ensive":1917,"pose":1918,"ock":1919,"ĠAmend":1920,"Ġpar":1921,"Ġregional":1922,"Ġjobs":1923,"kes":1924,"lict":1925,"Ġstat":1926,"Ġothers":1927,"Ġdocu":1928,"Ġdeveloping":1929,"Ġspecial":1930,"erman":1931,"Ġindeed":1932,"ĠCourt":1933,"Ġmo":1934,"cell":1935,"Ġret":1936,"Ġenlargement":1937,"Ġconv":1938,"Ġconsequ":1939,"ering":1940,"Ġmeeting":1941,"Ġresults":1942,"Ġfound":1943,"Ġapply":1944,"Ġguarantee":1945,"stitution":1946,"Ġwrit":1947,"used":1948,"resident":1949,"To":1950,"Ġclimate":1951,"epend":1952,"Ġconcerning":1953,"Ġcurrently":1954,"ix":1955,"Ġappropriate":1956,"Ġoppos":1957,"Finally":1958,"Ġtar":1959,"Let":1960,"arian":1961,"less":1962,"wh":1963,"Ġsch":1964,"Ġpriv":1965,"Ġurg":1966,"ĠDirect":1967,"Ġ6":1968,"Ġpa":1969,"Ġfoc":1970,"Ġhon":1971,"First":1972,"Ġdraw":1973,"Ġeducation":1974,"Ġresponsible":1975,"ĠSoc":1976,"Ġconsumers":1977,"Ġdata":1978,"orth":1979,"Ġwriting":1980,"Ġfle":1981,"ived":1982,"Ġcases":1983,"ession":1984,"ĠStr":1985,"mber":1986,"beral":1987,"ffice":1988,"its":1989,"Ġthemselves":1990,"Ġsolid":1991,"cession":1992,"eria":1993,"Ġmonths":1994,"Ġnever":1995,"Ġmanagement":1996,"Ġdoing":1997,"Ġkey":1998,"Ġobl":1999,"Ġsystems":2000,"Ġneeded":2001,"rict":2002,"Ġhim":2003,"Ġmatters":2004,"Ġoblig":2005,"ave":2006,"Ġthing":2007,"eric":2008,"ĠArticle":2009,"for":2010,"cies":2011,"Ġreasons":2012,"Ġconflict":2013,"Ġprinciples":2014,"eless":2015,"lev":2016,"ibility":2017,"ĠRussia":2018,"Ġmom":2019,"iter":2020,"DE":2021,"ĠEn":2022,"Ġadministr":2023,"Ġfisher":2024,"Ġenough":2025,"iveness":2026,"And":2027,"Ġcontain":2028,"Ġfinal":2029,"igration":2030,"Ġday":2031,"Ġexcell":2032,"ĠGerman":2033,"Ġdecl":2034,"oung":2035,"Ġrecommend":2036,"Ġparties":2037,"Ġmonitor":2038,"Se":2039,"Ġkeep":2040,"Ġcosts":2041,"ling":2042,"Ġexc":2043,"Ġcompromise":2044,"Ġnet":2045,"fortunately":2046,"str":2047,"Ġprojects":2048,"Ġbuild":2049,"Ġorig":2050,"Ġreports":2051,"Ġregards":2052,"ators":2053,"Ġdemon":2054,"co":2055,"Ġlonger":2056,"Ġstud":2057,"ne":2058,"Ġachieved":2059,"ĠSocial":2060,"atory":2061,"vious":2062,"order":2063,"Ġfunding":2064,"uclear":2065,"ĠUS":2066,"Ġentire":2067,"Ġbroad":2068,"Ġtas":2069,"Ġthreat":2070,"Ġactivities":2071,"Ġmaintain":2072,"emoc":2073,"Ġinn":2074,"Ġmoment":2075,"Ġlack":2076,"Ġlocal":2077,"Ġhist":2078,"Ġpriority":2079,"Ġdist":2080,"Ġyoung":2081,"Ġreject":2082,"President":2083,"ub":2084,"Ġcommitment":2085,"Ġ201":2086,"Ġindepend":2087,"ittle":2088,"Ġpast":2089,"por":2090,"Ġdeter":2091,"Ġidea":2092,"Ġpo":2093,"ody":2094,"20":2095,"Ġpromote":2096,"Ġsta":2097,"Ġalthough":2098,"Ġ7":2099,"ĠPart":2100,"Ġinstitution":2101,"ĠAmeric":2102,"ĠAfric":2103,"urd":2104,"Ġjud":2105,"ried":2106,"ĠConvention":2107,"Ġgovernments":2108,"orrow":2109,"ection":2110,"Ġsuggest":2111,"Ġlittle":2112,"Ġcontinu":2113,"Ġtrue":2114,"til":2115,"Ġlabour":2116,"Ġtrad":2117,"Ġstress":2118,"ĠIntern":2119,"Ġenter":2120,"Ġamount":2121,"ided":2122,"esion":2123,"Ġcongratulate":2124,"Ġlegislative":2125,"000":2126,"Ġprovided":2127,"Ġdue":2128,"Ġline":2129,"Ġanim":2130,"Ġcru":2131,"Ġmind":2132,"Ġsustainable":2133,"ĠSp":2134,"Ġnothing":2135,"Ġopt":2136,"Ġexcellent":2137,"Ġconclud":2138,"Ġperhaps":2139,"Ġ8":2140,"Ġforeign":2141,"Un":2142,"Ġdoub":2143,"ims":2144,"Ġocc":2145,"side":2146,"My":2147,"Ġident":2148,"Ġtarget":2149,"Ġlow":2150,"Ġsolidarity":2151,"Ġren":2152,"Ġmarkets":2153,"Ġcred":2154,"ends":2155,"Ġinclude":2156,"ĠEast":2157,"mb":2158,"Ġnuclear":2159,"Ġsever":2160,"ief":2161,"Ġcent":2162,"Ġprevious":2163,"Ġaspects":2164,"io":2165,"Ġagreed":2166,"Office":2167,"Ġabove":2168,"Ġmult":2169,"Ġregarding":2170,"ĠReg":2171,"Ġ10":2172,"Second":2173,"Ġshare":2174,"Ġwr":2175,"Ġfel":2176,"Ġvict":2177,"Ġamb":2178,"Ġorigin":2179,"Ġmakes":2180,"Ġpres":2181,"atic":2182,"aged":2183,"Ġitem":2184,"ĠRom":2185,"Ġdetail":2186,"equ":2187,"ĠRights":2188,"Ġorganis":2189,"Ġ9":2190,"Ġobs":2191,"olute":2192,"Ġseen":2193,"Ġtransparency":2194,"Ġfair":2195,"Ġintegration":2196,"ond":2197,"fully":2198,"ĠDirective":2199,"unities":2200,"Ġimpos":2201,"edi":2202,"Ġterm":2203,"ression":2204,"imum":2205,"irc":2206,"Ġtabl":2207,"Ġfocus":2208,"Ġseveral":2209,"Ġmeth":2210,"Ġsubsid":2211,"itary":2212,"Ġroad":2213,"light":2214,"atis":2215,"Ġdang":2216,"Ġabsolute":2217,"Ġagenda":2218,"ĠEuro":2219,"Ġsoon":2220,"Ġconsumer":2221,"Ġcomes":2222,"ale":2223,"Ġpresid":2224,"Ġtom":2225,"ides":2226,"Ġactions":2227,"Ġcirc":2228,"Ġresponse":2229,"Ġeas":2230,"Ġcontribution":2231,"Ġfour":2232,"Ġty":2233,"Ġrelation":2234,"ĠSw":2235,"Ġmethod":2236,"erous":2237,"Ġpopulation":2238,"Ġpot":2239,"Ġturn":2240,"Our":2241,"ĠRep":2242,"reen":2243,"ledge":2244,"Ġtomorrow":2245,"rug":2246,"Ġtechnical":2247,"atisf":2248,"Ġupon":2249,"Ġpat":2250,"Therefore":2251,"TO":2252,"ĠEC":2253,"ants":2254,"ring":2255,"Ġdiscussion":2256,"ned":2257,"ference":2258,"ĠUN":2259,"Ġvalues":2260,"by":2261,"bilities":2262,"Ġanswer":2263,"Ġterrorism":2264,"overty":2265,"Ġinnov":2266,"Ġmar":2267,"rect":2268,"ean":2269,"Ġcommunication":2270,"ging":2271,"ĠItal":2272,"rael":2273,"Ġprovisions":2274,"Ġelections":2275,"ĠBel":2276,"Ġseems":2277,"Ġpractice":2278,"Ġcriteria":2279,"Ġcolleagues":2280,"Ġdemonstr":2281,"ania":2282,"pite":2283,"Ġinvestment":2284,"One":2285,"Ġexisting":2286,"anced":2287,"Ġpack":2288,"Secondly":2289,"Ġsci":2290,"term":2291,"Ġnetw":2292,"Ġharmon":2293,"Ġchanges":2294,"All":2295,"Ġve":2296,"conomic":2297,"Ġpleased":2298,"Ġweek":2299,"Ġear":2300,"Ġreview":2301,"Ġcrucial":2302,"Ġprocedures":2303,"etary":2304,"ti":2305,"Ġvoting":2306,"Ġindustr":2307,"ĠMon":2308,"Ġdefin":2309,"ĠSch":2310,"Ġmis":2311,"Ġstability":2312,"ĠDemoc":2313,"ison":2314,"aring":2315,"Ġavo":2316,"Ġobvious":2317,"Ġintegr":2318,"ven":2319,"Ġgrant":2320,"ĠAl":2321,"Ġconsult":2322,"chan":2323,"ĠFr":2324,"Ġmechan":2325,"ications":2326,"ĠAmendment":2327,"Ġtell":2328,"angu":2329,"itting":2330,"Ġaccession":2331,"Ġtimes":2332,"Ġviolence":2333,"Ġprecise":2334,"Ġcho":2335,"Ġourselves":2336,"Ġassistance":2337,"Ġpen":2338,"Ġhard":2339,"Ġcohesion":2340,"Ġhold":2341,"Ġuntil":2342,"els":2343,"Ġcreation":2344,"Ġquick":2345,"Ġeveryone":2346,"Ġemploy":2347,"Ġpoverty":2348,"illeg":2349,"Ġpotential":2350,"ourable":2351,"Ġwast":2352,"ĠâĢĺ":2353,"gic":2354,"imination":2355,"Ġcarried":2356,"Ġtalk":2357,"Ġarr":2358,"Ġprof":2359,"Ġasked":2360,"Ġregulations":2361,"Ġchar":2362,"Ġbasic":2363,"Ġilleg":2364,"ĠIsrael":2365,"ĠBrit":2366,"Ġrepe":2367,"ĠAn":2368,"Ġsaying":2369,"Ġunem":2370,"Ġpost":2371,"fer":2372,"ĠChina":2373,"Ġbo":2374,"ĠGree":2375,"Ġconsequences":2376,"Ġdut":2377,"Ġconn":2378,"issions":2379,"Ġdest":2380,"Ġservice":2381,"Ġtabled":2382,"Ġincreased":2383,"Ġground":2384,"Ġfacil":2385,"Ġorganisations":2386,"Ġmilitary":2387,"Ġfarmers":2388,"Ġheld":2389,"uine":2390,"Ġtraining":2391,"Ġchalleng":2392,"Ġmor":2393,"Ġfishing":2394,"Ġrelating":2395,"Ġstatement":2396,"ĠBar":2397,"Al":2398,"Ġcultural":2399,"istic":2400,"Ġapplication":2401,"Ġsense":2402,"Ġreduce":2403,"outh":2404,"Ġfall":2405,"Ġnamely":2406,"Ġrequirements":2407,"ars":2408,"Ġwater":2409,"Ġtraff":2410,"Ġsec":2411,"Ġ12":2412,"iting":2413,"ively":2414,"ĠPal":2415,"Ġflex":2416,"Ġbalance":2417,"Ġguid":2418,"Ġ15":2419,"When":2420,"Ġcarry":2421,"ians":2422,"Ġinstruments":2423,"Ġrequired":2424,"sels":2425,"Ġdisast":2426,"Ġlangu":2427,"Ġrule":2428,"Ġalong":2429,"Ġeverything":2430,"Ġanal":2431,"Ġattempt":2432,"Ġpresented":2433,"Ġthus":2434,"Ġcut":2435,"Ġdeterm":2436,"itarian":2437,"Ġliberal":2438,"Ġequal":2439,"Ġspeech":2440,"Ġundert":2441,"Ġvalue":2442,"Ġthroughout":2443,"uly":2444,"Ġclosed":2445,"Ġface":2446,"aration":2447,"Ġopportunities":2448,"aced":2449,"Ġimmedi":2450,"ĠInd":2451,"more":2452,"ires":2453,"ruction":2454,"Ġgener":2455,"Ġjoin":2456,"Thank":2457,"Ġshe":2458,"Ġstage":2459,"he":2460,"Ġpriorities":2461,"unction":2462,"Ġcalled":2463,"Ġnature":2464,"Ġdiscr":2465,"Ġbudgetary":2466,"Ġeither":2467,"Ġsatisf":2468,"Ġinitiatives":2469,"line":2470,"ize":2471,"Ġdoubt":2472,"encies":2473,"gu":2474,"rast":2475,"Ġaround":2476,"Ġterrit":2477,"ctions":2478,"yl":2479,"Ġcorrect":2480,"Ġ2000":2481,"ighbour":2482,"Ġcommunity":2483,"Ġtraffic":2484,"rad":2485,"Ġdecided":2486,"ateral":2487,"Ġpurs":2488,"ĠConstitution":2489,"Ġindic":2490,"Ġexternal":2491,"Ġprepared":2492,"Ġhear":2493,"Ġold":2494,"Ġstop":2495,"ĠParty":2496,"Ġcrimin":2497,"Ġavoid":2498,"uses":2499,"Ġpros":2500,"'.":2501,"orders":2502,"Ġemer":2503,"Ġencourage":2504,"Ġacross":2505,"Ġmovement":2506,"Ġreached":2507,"Ġeffici":2508,"Ġpressure":2509,"Ġfive":2510,"Ġ11":2511,"Ġwa":2512,"Ġpowers":2513,"une":2514,"Ġinstrument":2515,"Ġtask":2516,"Ġexpressed":2517,"Ġdire":2518,"Ġ000":2519,"rought":2520,"Ġraised":2521,"ilateral":2522,"Ġassoc":2523,"ĠBal":2524,"Ġusing":2525,"Ġlevels":2526,"Ġmonitoring":2527,"Ġremind":2528,"Ġregret":2529,"Ġfisheries":2530,"Ġcapital":2531,"ĠLe":2532,"Ġexport":2533,"Ġtalking":2534,"Ġcross":2535,"Ġexch":2536,"Ġchallenges":2537,"Ġwaste":2538,"agraph":2539,"Ġofficial":2540,"Ġconclusion":2541,"theless":2542,"Ġlive":2543,"velopment":2544,"Ġimplemented":2545,"rench":2546,"Ġmedium":2547,"Ġpackage":2548,"reland":2549,"Ġdocument":2550,"Ġdeath":2551,"Ġinvolve":2552,"ished":2553,"iance":2554,"alu":2555,"Ġlear":2556,"ung":2557,"Ġsuper":2558,"app":2559,"Ġdam":2560,"Ġhead":2561,"Ġquot":2562,"Ġreading":2563,"Ġreflect":2564,"Ġexperience":2565,"Ġcompetit":2566,"Ġdirection":2567,"cri":2568,"Ġvital":2569,"Ġwhose":2570,"Ġincluded":2571,"Ġgenuine":2572,"Ġillegal":2573,"Ġfellow":2574,"Ġrespond":2575,"Ġrelev":2576,"Ġcrime":2577,"Ġjustice":2578,"rats":2579,"reg":2580,"Ġaccording":2581,"Ġever":2582,"Ġfra":2583,"Ġquickly":2584,"Ġrecently":2585,"Ġestablished":2586,"Ġabsolutely":2587,"Ġmess":2588,"ĠPalest":2589,"European":2590,"Ġprivate":2591,"Ġgr":2592,"Ġborders":2593,"Ġpresidency":2594,"Ġcam":2595,"Ġscient":2596,"Ġcoming":2597,"Ġsectors":2598,"Ġbre":2599,"Ġenable":2600,"Ġvictims":2601,"Ġsupported":2602,"Ġpartnership":2603,"Ġexer":2604,"Ġlight":2605,"duct":2606,"Ġthanks":2607,"Ġrun":2608,"Ġcapac":2609,"Ġeffects":2610,"Ġimmigration":2611,"Ġoutside":2612,"Ġreduction":2613,"ilar":2614,"Ġtop":2615,"ĠIreland":2616,"Ġreturn":2617,"ĠFin":2618,"reh":2619,"Ġreality":2620,"Ġagriculture":2621,"sibilities":2622,"Ġdr":2623,"ĠFrench":2624,"Further":2625,"Ġlink":2626,"ges":2627,"itional":2628,"ĠMed":2629,"Ġenterpr":2630,"Ã©":2631,"Ġrenew":2632,"Ġevent":2633,"Ġcompletely":2634,"Ġnote":2635,"Ġreforms":2636,"ĠConference":2637,"Ġcritic":2638,"ĠPort":2639,"Ġbrought":2640,"Ġmotion":2641,"sp":2642,"Ġbecom":2643,"Ġunac":2644,"Ġleft":2645,"ĠY":2646,"Ġcla":2647,"elines":2648,"Ġstructural":2649,"More":2650,"cember":2651,"Ġextent":2652,"Ġyes":2653,"Ġgiving":2654,"Ġprice":2655,"Ġexcept":2656,"ĠWor":2657,"Ġcod":2658,"Ġfinally":2659,"ex":2660,"iterran":2661,"rup":2662,"iterranean":2663,"Qu":2664,"Ġneighbour":2665,"Ġprices":2666,"la":2667,"to":2668,"Ġconsist":2669,"Ġunemployment":2670,"Ġbig":2671,"reement":2672,"Ġrepresentatives":2673,"tle":2674,"Ġcand":2675,"inking":2676,"ĠRepublic":2677,"ĠDevelopment":2678,"just":2679,"mitted":2680,"Ġbusinesses":2681,"Ġreceived":2682,"ĠSwed":2683,"Ġhighlight":2684,"Ġsummit":2685,"Ġtook":2686,"Ġemissions":2687,"Ġbillion":2688,"Ġdeleg":2689,"erve":2690,"rist":2691,"ustr":2692,"Ġapproved":2693,"anish":2694,"Ġapplied":2695,"Ġadditional":2696,"Ġcircum":2697,"Ġcandid":2698,"ler":2699,"Ġdev":2700,"istan":2701,"Ġdise":2702,"Ġpossibility":2703,"Ġheard":2704,"Ġcoordination":2705,"par":2706,"Ġalmost":2707,"Ġelse":2708,"pid":2709,"Ġdiscussed":2710,"arily":2711,"Ġtack":2712,"Ġmodel":2713,"Ġcause":2714,"ĠFrance":2715,"iver":2716,"Ġensuring":2717,"ĠNations":2718,"ĠBr":2719,"pective":2720,"vere":2721,"ator":2722,"Ġunaccept":2723,"Ġtreatment":2724,"Ġtotal":2725,"Ġeng":2726,"iversity":2727,"be":2728,"ĠDecember":2729,"Ġsix":2730,"Ġanalys":2731,"Ġrelevant":2732,"Ġtest":2733,"ĠPortug":2734,"Ġpractical":2735,"Ġnatural":2736,"Ġbehind":2737,"Ġcompetitiveness":2738,"Ġdiscussions":2739,"Ġtakes":2740,"Ġliving":2741,"Ġleaders":2742,"Ġcreating":2743,"Ġaway":2744,"Ġevents":2745,"idd":2746,"Ġlot":2747,"raq":2748,"Ġinflu":2749,"ĠAfrica":2750,"Ġassessment":2751,"Ġstrengthen":2752,"Ġrestrict":2753,"Ġ%":2754,"Ġund":2755,"Ġconfidence":2756,"Ġoffer":2757,"Ġrail":2758,"acy":2759,"Ġunacceptable":2760,"Ġguidelines":2761,"force":2762,"Ġmen":2763,"Ġsent":2764,"Ġconduct":2765,"Ġfig":2766,"Ġadoption":2767,"Ġcentral":2768,"ylum":2769,"Ġparliamentary":2770,"Ġremains":2771,"Ġsimpl":2772,"ĠME":2773,"Ġmeasure":2774,"itud":2775,"Furthermore":2776,"ĠIraq":2777,"Ġknowledge":2778,"Ġparagraph":2779,"Firstly":2780,"ster":2781,"Ġnor":2782,"Ġdays":2783,"hold":2784,"Ġcapacity":2785,"EC":2786,"ĠBritish":2787,"unch":2788,"Ġgoods":2789,"Ġlos":2790,"rastruct":2791,"ifically":2792,"Ġprovision":2793,"Ġsolutions":2794,"Ġhuge":2795,"Ġweak":2796,"ĠBank":2797,"uted":2798,"ool":2799,"Ġproceed":2800,"Ġconsidered":2801,"Ġscope":2802,"Ġten":2803,"Ġvol":2804,"Parliament":2805,"ption":2806,"know":2807,"arter":2808,"Ġaffected":2809,"Ġdepend":2810,"lusions":2811,"ĠBudget":2812,"Ġaimed":2813,"Ġrecon":2814,"Ġinfrastruct":2815,"ization":2816,"Ġer":2817,"isc":2818,"Ġeffectively":2819,"Ġcombat":2820,"Ġdiscrimination":2821,"egu":2822,"Ġhumanitarian":2823,"Ġdom":2824,"Ġdefence":2825,"Ġdespite":2826,"Ġrate":2827,"Ġsubstant":2828,"Ġevalu":2829,"Ġcondem":2830,"Ġden":2831,"Ġcircumst":2832,"Of":2833,"Ġdesign":2834,"lf":2835,"ann":2836,"Ġdifficulties":2837,"Ġcontribute":2838,"enge":2839,"Ġindustrial":2840,"Ġfirm":2841,"entions":2842,"icy":2843,"Ġtrying":2844,"Ġsitting":2845,"Ġobtain":2846,"olid":2847,"bourg":2848,"Ġmet":2849,"Ġcriminal":2850,"way":2851,"Ġprecisely":2852,"Ġaltern":2853,"Ġexplain":2854,"Ġsafegu":2855,"ional":2856,").":2857,"Ġargu":2858,"Ġconfirm":2859,"Ġland":2860,"Ġ25":2861,"iable":2862,"Ġshown":2863,"Ġaut":2864,"Ġefficiency":2865,"Ġfamily":2866,"endit":2867,"ĠDemocrats":2868,"Ġside":2869,"ĠCentral":2870,"wise":2871,"Ġrein":2872,"Ġdeveloped":2873,"ological":2874,"Con":2875,"Ġoccas":2876,"Ġself":2877,"Ġasylum":2878,"urea":2879,"ĠRe":2880,"osov":2881,"terday":2882,"itation":2883,"Ġsupply":2884,"Ġreference":2885,"Ġfunction":2886,"Ġinstead":2887,"Ġ14":2888,"Ġpersonal":2889,"Ġhonourable":2890,"Ġconnection":2891,"Ġrepl":2892,"ĠJust":2893,"Ġconcept":2894,"Ġcircumstances":2895,"Ġspo":2896,"ĠAgreement":2897,"zed":2898,"Ġhalf":2899,"Ġpoll":2900,"Ġcoordin":2901,"omp":2902,"Ġaccordance":2903,"Ġregime":2904,"Ġclar":2905,"Now":2906,"go":2907,"ĠAs":2908,"Ġconclusions":2909,"Ġir":2910,"Ġcontent":2911,"Ġproduc":2912,"Ġimproving":2913,"Ġoil":2914,"ously":2915,"ake":2916,"Ġforces":2917,"Ġmessage":2918,"Ġrefuge":2919,"Ġactive":2920,"Ġpenal":2921,"alled":2922,"Ġqual":2923,"Ġill":2924,"ĠWorld":2925,"Ġdrug":2926,"Ġmand":2927,"ograph":2928,"Ġcommitted":2929,"Ġwrong":2930,"ĠJustice":2931,"Ġtechnology":2932,"Ġinstitutional":2933,"Ġadvant":2934,"erial":2935,"Ġadministrative":2936,"Ġchallenge":2937,"Ġconstitution":2938,"eople":2939,"ught":2940,"Ġproviding":2941,"ĠJune":2942,"erb":2943,"ĠKosov":2944,"Ġinvestig":2945,"Ġstatus":2946,"Ġenterprises":2947,"Ġalloc":2948,"He":2949,"Ġculture":2950,"Ġgra":2951,"govern":2952,"anu":2953,"Ġcomments":2954,"Ġcreated":2955,"Ġprovides":2956,"Ġallowed":2957,"ĠPalestin":2958,"Comm":2959,"Ġduty":2960,"Ġbeginning":2961,"eneral":2962,"oh":2963,"Ġgoes":2964,"ĠRegulation":2965,"ert":2966,"Ġaccepted":2967,"Ġinnovation":2968,"Ġindependent":2969,"Ġconsiderable":2970,"Ġpurpose":2971,"Ġbenefits":2972,"Ġconsideration":2973,"Ġrightly":2974,"Ġmodern":2975,"ĠWe":2976,"igrant":2977,"Ġcover":2978,"Ġdate":2979,"Ġver":2980,"Ġpropose":2981,"Ġcalls":2982,"Ġminimum":2983,"Ġmass":2984,"yond":2985,"any":2986,"ussels":2987,"Ġlab":2988,"Ġimplementing":2989,"Ġparticipation":2990,"ash":2991,"Ġstated":2992,"Ġreferred":2993,"Ġunfortunately":2994,"Ġconvin":2995,"Ġviews":2996,"Ġpoor":2997,"Ġsuccessful":2998,"Ġhome":2999,"Ġlives":3000,"Ġconstruct":3001,"ustom":3002,"Ġpromoting":3003,"Ġmaterial":3004,"Ġforms":3005,"Ġrural":3006,"ĠMin":3007,"dam":3008,"Ġ30":3009,"ĠGermany":3010,"Ġsteps":3011,"ps":3012,"ĠPolicy":3013,"Ġspecifically":3014,"Ġclosely":3015,"ban":3016,"Ġcolleague":3017,"Ġworth":3018,"Ġseriously":3019,"Ġcompreh":3020,"ĠBrussels":3021,"ĠInternational":3022,"Ġoverall":3023,"Ġreceive":3024,"Ġplans":3025,"Ġrelig":3026,"Ġdealing":3027,"ĠWTO":3028,"apt":3029,"ĠLi":3030,"Ġ2007":3031,"Ġprim":3032,"Ġintroduction":3033,"acks":3034,"Ġfamil":3035,"Ġsimilar":3036,"Ġmut":3037,"dom":3038,"ousand":3039,"Ġlimit":3040,"Ġspir":3041,"Ġurgent":3042,"Ġauthor":3043,"Ġbeyond":3044,"Ġexplo":3045,"Ġmere":3046,"rade":3047,"governmental":3048,"Ġfear":3049,"Ġmedia":3050,"Ġsan":3051,"ĠEconomic":3052,"ĠKosovo":3053,"Ġscientific":3054,"Ġdisp":3055,"itude":3056,"Ġdecide":3057,"Ġstudy":3058,"Ġhistory":3059,"Ġlat":3060,"Ġfri":3061,"Ġseek":3062,"Ġeth":3063,"Ġtravel":3064,"Ġways":3065,"Ġrelationship":3066,"isms":3067,"Ġstrategic":3068,"rupt":3069,"Ġexpendit":3070,"az":3071,"ĠOr":3072,"Ġ\"":3073,"ĠTh":3074,"Ġsens":3075,"Ġwanted":3076,"Ġfinancing":3077,"Ġlegit":3078,"oday":3079,"Ġhappen":3080,"af":3081,"Ġdirectly":3082,"itious":3083,"paign":3084,"Ġrequires":3085,"ured":3086,"orks":3087,"Ġcounter":3088,"Ġexchange":3089,"kra":3090,"ĠMediterranean":3091,"SE":3092,"Ġcat":3093,"Ġbod":3094,"Ġproduce":3095,"anuary":3096,"Ġexpenditure":3097,"Ġcommitments":3098,"Ġred":3099,"Ġadequ":3100,"Ġleave":3101,"Ġbrief":3102,"Ġcampaign":3103,"action":3104,"Ġthousand":3105,"iddle":3106,"sized":3107,"lands":3108,"Ġage":3109,"sian":3110,"etimes":3111,"Ġtour":3112,"Ġintended":3113,"rish":3114,"Ġborder":3115,"ush":3116,"Ġcontract":3117,"Ġrapid":3118,"ĠMEP":3119,"Ġexact":3120,"ken":3121,"Ġdemands":3122,"Ġcommer":3123,"Ġdeg":3124,"li":3125,"Ġsetting":3126,"Ġbar":3127,"ender":3128,"ĠSum":3129,"Ġemb":3130,"Ġfulf":3131,"Ġadapt":3132,"Ġ13":3133,"Ġmyself":3134,"Ġcomment":3135,"Ġequality":3136,"Ġpaid":3137,"Ġincor":3138,"Ġearl":3139,"Ġactivity":3140,"Ġsufficient":3141,"imately":3142,"Ġuseful":3143,"Ġremark":3144,"Ġsupporting":3145,"Ġparty":3146,"Ġsort":3147,"Ġproperly":3148,"Ġdistrib":3149,"ĠPa":3150,"Ġburd":3151,"Ġport":3152,"),":3153,"Ġce":3154,"ĠIrish":3155,"ĠSummit":3156,"ocol":3157,"Ġalone":3158,"Ġbodies":3159,"Ġefficient":3160,"where":3161,"Ġinterp":3162,"Is":3163,"Today":3164,"Ġcollect":3165,"Ġspeaking":3166,"Ġsubstantial":3167,"Ġcompetitive":3168,"Ġhighly":3169,"App":3170,"Ġanything":3171,"Ġyesterday":3172,"Ġanti":3173,"icit":3174,"Ġshows":3175,"Ġweeks":3176,"Ġhigher":3177,"Ġdiscussing":3178,"Ġpolice":3179,"head":3180,"Ġdeep":3181,"anim":3182,"Ġled":3183,"ĠEuropeans":3184,"Ġlimited":3185,"vis":3186,"hic":3187,"Ġknown":3188,"Ġschem":3189,"Ġdevelopments":3190,"Ġgain":3191,"Ġconclude":3192,"Ġincreasingly":3193,"Ġcaused":3194,"Ġreferen":3195,"Ġship":3196,"ins":3197,"Ġtype":3198,"Ġanimal":3199,"Ġestablishing":3200,"Ġambitious":3201,"Ġwhom":3202,"Ġdim":3203,"Ġformer":3204,"Ġcalling":3205,"ĠMay":3206,"ized":3207,"inary":3208,"Ġforget":3209,"Ġminister":3210,"Ġearly":3211,"ĠMinutes":3212,"Ġcle":3213,"Ġgives":3214,"Ã¶":3215,"ĠUkra":3216,"Ġrepresents":3217,"Ġremember":3218,"ĠGreece":3219,"Ġrad":3220,"Ġauthority":3221,"Ġprofession":3222,"urally":3223,"dra":3224,"Ġimproved":3225,"Ġrisks":3226,"ME":3227,"Ġwon":3228,"Ġgas":3229,"making":3230,"Last":3231,"Ġhistor":3232,"ĠIran":3233,"lov":3234,"Ġcomplex":3235,"Ġobviously":3236,"Ġproduced":3237,"Ġawa":3238,"Ġwelcom":3239,"Ġunanim":3240,"ĠJanuary":3241,"Ġvo":3242,"Ġvehic":3243,"uct":3244,"Ġdesire":3245,"ĠRules":3246,"Ġachieving":3247,"Ġannual":3248,"Ġcomprehensive":3249,"Ġassoci":3250,"Ġstrengthening":3251,"Ġopposition":3252,"Ġdescri":3253,"..":3254,"Ġprob":3255,"ront":3256,"Ġaims":3257,"Ġhappened":3258,"ifying":3259,"trary":3260,"Ġchec":3261,"Unfortunately":3262,"Ġproducers":3263,"Ġurge":3264,"ours":3265,"ĠFore":3266,"bly":3267,"Ġanimals":3268,"FR":3269,"Ġsafeguard":3270,"uff":3271,"Ġpursu":3272,"border":3273,"rete":3274,"Ġcurrency":3275,"ger":3276,"Ġacknow":3277,"99":3278,"ĠHe":3279,"Ġstatements":3280,"Ġemphasise":3281,"Ġmanner":3282,"Ġreducing":3283,"ensus":3284,"Ġenorm":3285,"Ġtransfer":3286,"Ġz":3287,"Ġthought":3288,"Ġlater":3289,"ĠEnviron":3290,"ient":3291,"Ġprofit":3292,"Ġlanguage":3293,"ira":3294,"Ġfraud":3295,"unt":3296,"Ġcombating":3297,"Ġlaunch":3298,"igrants":3299,"ĠSouth":3300,"Ġlooking":3301,"ĠCy":3302,"ote":3303,"Although":3304,"Ġresponsibilities":3305,"Ġconvinced":3306,"Ġinfrastructure":3307,"Ġtrust":3308,"ĠGreen":3309,"Ġfacilit":3310,"rest":3311,"ciliation":3312,"itors":3313,"Ġmonetary":3314,"Ġpasseng":3315,"Since":3316,"Ġrise":3317,"Ġprison":3318,"ĠProt":3319,"ĠProg":3320,"Ġoutcome":3321,"Ġunion":3322,"Ġwants":3323,"Do":3324,"Ġappre":3325,"Ġsays":3326,"called":3327,"Ġearlier":3328,"Ġ50":3329,"body":3330,"Ġanalysis":3331,"Ġconstit":3332,"Ġconcrete":3333,"Ġbalanced":3334,"Ġenh":3335,"Ġbad":3336,"itial":3337,"Ġfirstly":3338,"Ġelements":3339,"ober":3340,"Ġsometimes":3341,"Ġstaff":3342,"Never":3343,"Ġcompens":3344,"Ġprevention":3345,"Ġdamage":3346,"ĠHuman":3347,"Ġconference":3348,"ĠTr":3349,"ology":3350,"Ġoccur":3351,"Ġcandidate":3352,"ĠForeign":3353,"Ġintroduced":3354,"Moreover":3355,"Ġdocuments":3356,"Ġthinking":3357,"Ġrecognition":3358,"Ġfacing":3359,"ĠMarch":3360,"Ġsucceed":3361,"oph":3362,"Ġrecognise":3363,"Ġinfluence":3364,"Ġextra":3365,"val":3366,"Ġpointed":3367,"Ġacceptable":3368,"Ġheart":3369,"Ġdelay":3370,"ĠSpanish":3371,"Ġrapporteurs":3372,"Ġcustom":3373,"Ġconstant":3374,"Ġparts":3375,"ource":3376,"of":3377,"Ġentirely":3378,"Ġspirit":3379,"Ġmember":3380,"Ġwilling":3381,"Ġbuilding":3382,"Ġcooper":3383,"Ġintroduce":3384,"Ġdead":3385,"ĠPr":3386,"Ġnegative":3387,"Ġbecoming":3388,"Ġcontrary":3389,"Ġdangerous":3390,"istics":3391,"Ġstandard":3392,"Ġ2009":3393,"ĠSecurity":3394,"Ġappreci":3395,"aria":3396,"amber":3397,"lines":3398,"hern":3399,"Ġsources":3400,"Ġrecommendations":3401,"Ġcommercial":3402,"ĠItaly":3403,"',":3404,"Ġsusp":3405,"Ġobst":3406,"ties":3407,"Ġlaws":3408,"oot":3409,"Ġconsensus":3410,"Ġdifferences":3411,"estic":3412,"Ġreduced":3413,"uf":3414,"ored":3415,"Ġnorm":3416,"ĠUK":3417,"ptember":3418,"Ġarrange":3419,"ĠInternet":3420,"ĠBelg":3421,"Ġasking":3422,"Ġspeed":3423,"yn":3424,"ĠHung":3425,"Ġalternative":3426,"aving":3427,"Ġinitial":3428,"Ġ1999":3429,"Ġtool":3430,"Ġadded":3431,"ton":3432,"Ġflexibility":3433,"Ġschool":3434,"Some":3435,"deed":3436,"ility":3437,"Ġrecord":3438,"Ġdelegation":3439,"ĠSlov":3440,"Nevertheless":3441,"sec":3442,"Ġ2004":3443,"Ġmorning":3444,"ories":3445,"Ġestablishment":3446,"Ġbody":3447,"ĠZ":3448,"Ġassum":3449,"Ġannoun":3450,"set":3451,"estern":3452,"lus":3453,"Ġraise":3454,"Ġtransparent":3455,"aging":3456,"ĠKing":3457,"ĠIt":3458,"ulg":3459,"ĠTurk":3460,"ĠEnvironment":3461,"Ġsepar":3462,"Ġwide":3463,"Ġcloser":3464,"ury":3465,"apon":3466,"ĠAmerican":3467,"Ch":3468,"Ġmethods":3469,"Ġincorpor":3470,"Ġstrongly":3471,"Ġprobably":3472,"Ġcompany":3473,"Ġdisch":3474,"ĠMinisters":3475,"Ġge":3476,"Ġstrict":3477,"the":3478,"Ġliberalisation":3479,"Ġapplies":3480,"Ġnetworks":3481,"Ġloss":3482,"Ġintervention":3483,"Ġexactly":3484,"Ġpractices":3485,"erent":3486,"Quest":3487,"Ġorganisation":3488,"ij":3489,"iet":3490,"ovember":3491,"Ġsound":3492,"Ġperspective":3493,"ĠSpain":3494,"itten":3495,"portion":3496,"Ġdrawn":3497,"Ġsanctions":3498,"ufact":3499,"Ġdirectives":3500,"Ġreply":3501,"Ġbear":3502,"cc":3503,"ĠInter":3504,"Ġult":3505,"urance":3506,"Ġsex":3507,"Ġapplic":3508,"Ġideas":3509,"ying":3510,"After":3511,"Ġsubmitted":3512,"Ġchance":3513,"Ġfre":3514,"Ġ2010":3515,"Ġ2006":3516,"Ġrefugees":3517,"Ġsk":3518,"Indeed":3519,"ĠMa":3520,"Ġ2008":3521,"Ġfailure":3522,"ĠRomania":3523,"acter":3524,"Ġlaid":3525,"Ġtargets":3526,"Ġdealt":3527,"ĠStrate":3528,"Ġmanufact":3529,"ervation":3530,"ĠSeptember":3531,"Ġintegrated":3532,"ĠPeople":3533,"ilst":3534,"Ġagencies":3535,"iction":3536,"Ġbi":3537,"Ġcontact":3538,"Commission":3539,"Ġforest":3540,"ĠProced":3541,"Ġobligations":3542,"Ġut":3543,"Ġmer":3544,"Ġmechanism":3545,"ĠThis":3546,"Ġenormous":3547,"Why":3548,"Ġ18":3549,"Ġwithdra":3550,"Ġdimension":3551,"Ġinformed":3552,"Ġopening":3553,"Ġhappy":3554,"Ġsubsidi":3555,"Ġweapon":3556,"Ġnetwork":3557,"Ġcoll":3558,"Ġcritical":3559,"Ġarm":3560,"Ġdefend":3561,"Ġcharacter":3562,"Ġaf":3563,"Ġones":3564,"Ġaddressed":3565,"Ġconver":3566,"Ġacqu":3567,"Ġcontro":3568,"Ġfu":3569,"sman":3570,"ĠSME":3571,"ĠAmerica":3572,"01":3573,"Ġtot":3574,"bed":3575,"ats":3576,"ĠProcedure":3577,"Ġgovernance":3578,"Ġgrowing":3579,"arus":3580,"ĠCons":3581,"Ġimprovement":3582,"Ġsw":3583,"idents":3584,"ĠPaper":3585,"ctober":3586,"Ġappeal":3587,"Ġhop":3588,"ristian":3589,"Ġconstructive":3590,"ĠPalestinian":3591,"ĠProgram":3592,"No":3593,"Ġexcess":3594,"Ġputting":3595,"Ġcontains":3596,"Ġimmediately":3597,"Ġburea":3598,"ĠMEPs":3599,"Ġmandate":3600,"ĠNovember":3601,"ĠKingdom":3602,"Ġmanaged":3603,"Ġorganised":3604,"Third":3605,"Ġunivers":3606,"coming":3607,"Ġconsultation":3608,"Ġmainly":3609,"Ġign":3610,"Ġmechanisms":3611,"ĠMiddle":3612,"Ġparliaments":3613,"Ġresolutions":3614,"Ġunable":3615,"Ġahead":3616,"Ġsal":3617,"Ġenabl":3618,"Ġsensitive":3619,"ĠItalian":3620,"Ġmist":3621,"Ġmutual":3622,"Ġsend":3623,"Ġ2005":3624,"Ġunf":3625,"Ġoperation":3626,"Ġrejected":3627,"Ġchoice":3628,"Ġlo":3629,"Ġwat":3630,"Ġpositions":3631,"sterdam":3632,"ream":3633,"Ġlar":3634,"ĠStrategy":3635,"Ġdefinition":3636,"inding":3637,"Ġpersons":3638,"Ġmerely":3639,"Ġinsist":3640,"Ġsigned":3641,"ĠTurkish":3642,"ĠUkraine":3643,"gies":3644,"PL":3645,"joy":3646,"Ġintention":3647,"Ġcomply":3648,"Ġunderstanding":3649,"itable":3650,"ĠBelarus":3651,"ipl":3652,"Ġabol":3653,"Ġcontinuing":3654,"ateg":3655,"Ġappear":3656,"Ġreferend":3657,"Ġtim":3658,"Ġleading":3659,"ĠAgency":3660,"ĠAmsterdam":3661,"Ã¡":3662,"Ġsimple":3663,"Appl":3664,"ĠProgramme":3665,"aries":3666,"Ġenjoy":3667,"Ġadministration":3668,"IT":3669,"CO":3670,"Ġdebates":3671,"Ġinterpret":3672,"Ġbureauc":3673,"ĠRes":3674,"ĠChamber":3675,"Ġeasy":3676,"fect":3677,"ĠCharter":3678,"ĠBulg":3679,"Ġguarantees":3680,"Ġelected":3681,"Ġimpl":3682,"Ġincludes":3683,"Ġexercise":3684,"Ġdischarge":3685,"orse":3686,"Ġthousands":3687,"Ġreact":3688,"oor":3689,"Ġlost":3690,"Ġ2003":3691,"By":3692,"ĠOctober":3693,"engen":3694,"vereign":3695,"Ġfigures":3696,"ux":3697,"empor":3698,"Ġtold":3699,"Ġobser":3700,"Ġimpossible":3701,"Ġburden":3702,"Ġdisaster":3703,"Ġ16":3704,"eb":3705,"Ġsovereign":3706,"Ġspeakers":3707,"Ġprospect":3708,"Ġresolve":3709,"Ġcame":3710,"ĠRussian":3711,"Ġindependence":3712,"fin":3713,"ients":3714,"lant":3715,"ĠTrans":3716,"Os":3717,"oples":3718,"Ġconcentr":3719,"Ġworked":3720,"Even":3721,"Ġnear":3722,"Ġwonder":3723,"di":3724,"Ġsport":3725,"Ġevidence":3726,"Applause":3727,"Ġtotally":3728,"Ġadequate":3729,"mp":3730,"Ġmedic":3731,"Ġtechnologies":3732,"Ġought":3733,"Ġstructure":3734,"ateful":3735,"Ġwishes":3736,"Ġwarm":3737,"ittees":3738,"Ġoccup":3739,"ĠPrime":3740,"Ġsafe":3741,"Ġrecommendation":3742,"Ġrenewable":3743,"Ġsubsidiarity":3744,"ev":3745,"Ġadvantage":3746,"Many":3747,"Ġpayments":3748,"Ġ2002":3749,"Ġeconomies":3750,"Ġrates":3751,"ighted":3752,"arket":3753,"ha":3754,"Ġrelated":3755,"Ġpill":3756,"Ġpromotion":3757,"Ġrepeat":3758,"Ġattitude":3759,"Ġinterv":3760,"PE":3761,"respon":3762,"Ġtable":3763,"ourage":3764,"Ġinstance":3765,"Ġsumm":3766,"Ġmax":3767,"Ġfailed":3768,"elling":3769,"Commissioner":3770,"Ġadver":3771,"Ġregular":3772,"Ġ17":3773,"ecision":3774,"ĠSchengen":3775,"Ġdegree":3776,"orn":3777,"Ġpeoples":3778,"Ġcontrols":3779,"ival":3780,"Ġtrafficking":3781,"Ġaffairs":3782,"ulated":3783,"hood":3784,"Ġterritory":3785,"Ġincome":3786,"illions":3787,"ature":3788,"Ġgrateful":3789,"overy":3790,"Ġsupports":3791,"Ġperform":3792,"Ġsituations":3793,"icated":3794,"illed":3795,"ccord":3796,"Ġextend":3797,"Ġexpression":3798,"Ġcondemn":3799,"urs":3800,"ĠHealth":3801,"Ġsurpr":3802,"Ġmembership":3803,"Ġfamilies":3804,"prus":3805,"ghan":3806,"Ġbringing":3807,"ĠBalk":3808,"Ġpubl":3809,"Ġ2020":3810,"enary":3811,"Ġforth":3812,"Ġinvolvement":3813,"Ġtreaty":3814,"ĠSerb":3815,"Ġvotes":3816,"ĠAud":3817,"Ġlinked":3818,"wide":3819,"Ġtourism":3820,"sequently":3821,"Ġcomplain":3822,"ĠPact":3823,"uctural":3824,"ĠTrade":3825,"Am":3826,"Ġobstac":3827,"Ġtalks":3828,"ĠMonetary":3829,"Ġintend":3830,"Ġimmediate":3831,"ĠSMEs":3832,"Ġlines":3833,"Ġoriginal":3834,"Ġlearn":3835,"Ġopposed":3836,"Ġelement":3837,"Ġgoal":3838,"ters":3839,"Thirdly":3840,"Ġbelie":3841,"Ġacts":3842,"Ġsecure":3843,"Ġgreen":3844,"Ġtruly":3845,"Ġperman":3846,"ked":3847,"Ġhappening":3848,"Ġunc":3849,"Ġactual":3850,"ĠCyprus":3851,"Ġlog":3852,"Ġinvolving":3853,"Ġrele":3854,"Ġoffice":3855,"CP":3856,"ired":3857,"Ġclaim":3858,"hol":3859,"Ġgetting":3860,"Ġfinance":3861,"Ġder":3862,"ĠAfghan":3863,"Ġready":3864,"Ġpension":3865,"omb":3866,"Ġemerg":3867,"Ġforced":3868,"orthern":3869,"Ġ2001":3870,"rs":3871,"ES":3872,"Ġfaced":3873,"ĠCo":3874,"Ġdrugs":3875,"Ġsides":3876,"ift":3877,"Ġexplan":3878,"pol":3879,"Ġprotecting":3880,"Ġperfect":3881,"ior":3882,"ivity":3883,"ĠNos":3884,"Ġelection":3885,"Ġplac":3886,"ĠII":3887,"Ġunderm":3888,"ĠEx":3889,"ĠPortugal":3890,"ĠFunds":3891,"ĠStructural":3892,"Ġgreatest":3893,"Ġconsolid":3894,"Ġ27":3895,"Ġdisease":3896,"Ġhy":3897,"Ġ21":3898,"Ġplenary":3899,"Question":3900,"Ġrecognised":3901,"itime":3902,"lantic":3903,"rain":3904,"Ġadopting":3905,"Ġstarting":3906,"ccording":3907,"Ġdiv":3908,"Ġfollowed":3909,"iplom":3910,"rep":3911,"Ġtro":3912,"ĠNorth":3913,"que":3914,"Ġreferendum":3915,"Ġsubstances":3916,"vered":3917,"Ġgranted":3918,"Ġtackle":3919,"ma":3920,"ik":3921,"ping":3922,"Ġvia":3923,"Ġcommittees":3924,"Ġinteresting":3925,"icians":3926,"ones":3927,"Ġseeking":3928,"semb":3929,"sembly":3930,"Ġcal":3931,"ruption":3932,"ah":3933,"ocks":3934,"Ġmobility":3935,"Ġshared":3936,"Ġfoot":3937,"ĠOrgan":3938,"Member":3939,"amic":3940,"Ġmeetings":3941,"Ġminorities":3942,"Ġcovered":3943,"lement":3944,"aken":3945,"Ġcontinues":3946,"Ġweapons":3947,"Ġdanger":3948,"Ġappoint":3949,"ya":3950,"Ġcredit":3951,"Ġpollution":3952,"Ġround":3953,"Ġbenef":3954,"Ġglobalisation":3955,"Ġability":3956,"Ġcarefully":3957,"Ġton":3958,"02":3959,"Ladies":3960,"Ġdiplom":3961,"Ġdetailed":3962,"Ġcateg":3963,"Ġchanged":3964,"ca":3965,"Ġchair":3966,"ĠJuly":3967,"ederal":3968,"Ġdesigned":3969,"Ġcommunities":3970,"Ġey":3971,"standing":3972,"Ġvehicles":3973,"Ġdict":3974,"emporary":3975,"Ġthereby":3976,"Ġproposing":3977,"ĠAgricult":3978,"Ġfloor":3979,"ĠAfrican":3980,"enn":3981,"Ġdiversity":3982,"inks":3983,"Ġ40":3984,"rend":3985,"Mrs":3986,"ought":3987,"Ġsea":3988,"urning":3989,"Ġevaluation":3990,"According":3991,"Ġsuffering":3992,"Ġundertaking":3993,"Ġstructures":3994,"Ġcourage":3995,"Ġclass":3996,"Ġpresence":3997,"ĠBarro":3998,"org":3999,"rel":4000,"Ġnaturally":4001,"Ġpath":4002,"Ġserve":4003,"ĠPoland":4004,"Ġgender":4005,"Ġdisapp":4006,"ĠAuditors":4007,"Ġcriticism":4008,"Ġcompetence":4009,"ĠCO":4010,"Ġrange":4011,"ĠLat":4012,"Ġspent":4013,"ets":4014,"Ġproportion":4015,"ruit":4016,"Ġcauses":4017,"Ġbilateral":4018,"aw":4019,"undred":4020,"Ġcontinent":4021,"arations":4022,"While":4023,"Ġemphasis":4024,"enced":4025,"Ġminority":4026,"ĠAmendments":4027,"Ġconsistent":4028,"Ġadvoc":4029,"open":4030,"Ġexpected":4031,"Ġbinding":4032,"Ġsubsidies":4033,"Ġseries":4034,"atically":4035,"going":4036,"Ġaud":4037,"Ġattack":4038,"Ġimprovements":4039,"Ġendorse":4040,"Ġvoice":4041,"ots":4042,"Ġoral":4043,"Ġarms":4044,"ĠNA":4045,"ĠBer":4046,"erves":4047,"Ġconsumption":4048,"Ġharmonisation":4049,"Ġhours":4050,"Ġsole":4051,"pril":4052,"ana":4053,"Ġstri":4054,"Ġvolunt":4055,"ĠMar":4056,"Ġanyone":4057,"Ġtyp":4058,"ĠSwedish":4059,"Ġjudicial":4060,"comm":4061,"Ġmeant":4062,"Ġlate":4063,"Ġtaxation":4064,"using":4065,"Ġregis":4066,"Ġentit":4067,"Ġexclud":4068,"Ġjour":4069,"Ġemployees":4070,"egal":4071,"ĠAustr":4072,"Ġboard":4073,"fare":4074,"Ġreasonable":4075,"Ġlimits":4076,"Ġotherwise":4077,"Ġdebt":4078,"Ġrepeated":4079,"ĠEastern":4080,"Ġrecovery":4081,"ĠBl":4082,"Ġcredibility":4083,"Ġapproval":4084,"Ġec":4085,"Ġprofessional":4086,"agen":4087,"Ġprosper":4088,"riers":4089,"Ġdestro":4090,"AT":4091,"Ġaver":4092,"Ġfulfil":4093,"nic":4094,"Ġplanning":4095,"Ġfeed":4096,"Ġarrangements":4097,"Ġlay":4098,"Ġwithdraw":4099,"AP":4100,"ĠCan":4101,"Only":4102,"zech":4103,"Ġdeclaration":4104,"Ġreligious":4105,"Ġheav":4106,"Ġwid":4107,"Ġimmigrants":4108,"Ġamongst":4109,"ĠACP":4110,"Ġentry":4111,"Ġgoals":4112,"Ġrepresentative":4113,"ĠBulgaria":4114,"nes":4115,"Ġ100":4116,"Ġcompar":4117,"Ġglad":4118,"Ġstake":4119,"Ġtele":4120,"Ġlies":4121,"Ġexec":4122,"Ġfreedoms":4123,"Ġobligation":4124,"Ġ1998":4125,"Ġmaximum":4126,"Ġhundred":4127,"Ġsha":4128,"Ġnations":4129,"ĠApril":4130,"Ġattacks":4131,"Ġdecis":4132,"Ġparticipate":4133,"ĠPPE":4134,"atever":4135,"Ġfactors":4136,"Ġsession":4137,"ĠWestern":4138,"Ġgave":4139,"Ġstarted":4140,"ĠAll":4141,"Ġsignal":4142,"Ġterrorist":4143,"Ġgrounds":4144,"Ġenforce":4145,"Ġworks":4146,"Ġregulatory":4147,"ĠCzech":4148,"Ġgenerally":4149,"Ġcitizen":4150,"Ġpoliticians":4151,"Ġlanguages":4152,"ense":4153,"mbud":4154,"Ġneither":4155,"ather":4156,"Ġfactor":4157,"Ġlower":4158,"Ġcontributions":4159,"ĠGreek":4160,"Ġdisappoint":4161,"Ġbanks":4162,"Ġinh":4163,"Ġencouraging":4164,"Every":4165,"Ġsuperv":4166,"Ġdomestic":4167,"Ġeasier":4168,"PT":4169,"earch":4170,"ployed":4171,"Ġbelong":4172,"ĠGe":4173,"ĠSweden":4174,"ĠBur":4175,"sibly":4176,"Ġsource":4177,"Ġpolitics":4178,"Ġwhilst":4179,"Ġdon":4180,"Ġappears":4181,"ĠSea":4182,"stitutional":4183,"Ġuns":4184,"poses":4185,"Such":4186,"ulate":4187,"Ġcompensation":4188,"ook":4189,"ancing":4190,"ĠSocialist":4191,"reness":4192,"Ġrespected":4193,"based":4194,"Ġnews":4195,"iss":4196,"lying":4197,"Ġdign":4198,"Ġspeaker":4199,"ĠRule":4200,"Ġpermanent":4201,"Ġvir":4202,"Ġprefer":4203,"Ġelimin":4204,"ĠCommissioners":4205,"Ġdelighted":4206,"Ġfr":4207,"Ġhom":4208,"Those":4209,"Ġinclusion":4210,"Ġfacilitate":4211,"uxem":4212,"ancial":4213,"Ġvisa":4214,"From":4215,"Ġmoving":4216,"Ġimposed":4217,"roat":4218,"ĠMor":4219,"Ġ,":4220,"ĠRoma":4221,"bur":4222,"acco":4223,"ĠCol":4224,"Ġflexible":4225,"actory":4226,"Ġevening":4227,"Ġarrest":4228,"onia":4229,"ery":4230,"Ġissu":4231,"Ġproposes":4232,"yr":4233,"Ġcompliance":4234,"Ġopinions":4235,"Ġspending":4236,"uxembourg":4237,"ronic":4238,"Ġconstruction":4239,"Ġplaced":4240,"Ġawareness":4241,"Ġrestrictions":4242,"Ġgradu":4243,"Ġhelping":4244,"hagen":4245,"acking":4246,"Ġexperts":4247,"cast":4248,"ulner":4249,"Ġpun":4250,"Ġcrimes":4251,"Ġlikely":4252,"bal":4253,"Ġadjust":4254,"Ġinvestments":4255,"Ġconflicts":4256,"ĠAgriculture":4257,"Ġcapable":4258,"ishing":4259,"Ġoperations":4260,"mbudsman":4261,"Ġrequirement":4262,"Yet":4263,"ons":4264,"operation":4265,"etherlands":4266,"Ġwelfare":4267,"Ġequally":4268,"eries":4269,"ĠECU":4270,"Ġsupplement":4271,"Ġinterested":4272,"Ġfighting":4273,"ef":4274,"Ġforthcoming":4275,"Ġconstitutional":4276,"dd":4277,"Ġscale":4278,"ĠNetherlands":4279,"alt":4280,"Ġmigration":4281,"Ġpurposes":4282,"Ġcustoms":4283,"mark":4284,"irms":4285,"Ġcentury":4286,"Ġnegotiating":4287,"Ġlabelling":4288,"Ġsolve":4289,"Ġ1997":4290,"Ġvulner":4291,"Ġpartner":4292,"ĠLuxembourg":4293,"Ġrig":4294,"uting":4295,"Ġnumerous":4296,"Ġpersonally":4297,"Ġtasks":4298,"Ġdeli":4299,"ĠPublic":4300,"etheless":4301,"Ġguaranteed":4302,"Ġdiseases":4303,"utch":4304,"lation":4305,"asbourg":4306,"Ġslow":4307,"Ġresolved":4308,"EU":4309,"pping":4310,"Ġcontrad":4311,"Ġsaving":4312,"ĠBalkans":4313,"emical":4314,"orial":4315,"Ġimpose":4316,"Ġpra":4317,"Ġallowing":4318,"Ġincent":4319,"Ġdefined":4320,"ĠVer":4321,"Ġdisasters":4322,"Ġtruth":4323,"Ġpayment":4324,"Ġvoluntary":4325,"Ġletter":4326,"Ġcontinued":4327,"ervations":4328,"ĠStability":4329,"ĠGeneral":4330,"Ġseparate":4331,"Ġmanufacture":4332,"Ġexistence":4333,"ĠAfghanistan":4334,"Ġeast":4335,"Ġattach":4336,"Ġves":4337,"ifications":4338,"orough":4339,"Ġmaritime":4340,"cent":4341,"Ġbreak":4342,"Ġfif":4343,"Ġexists":4344,"ĠMarket":4345,"Ġprior":4346,"ites":4347,"ĠStrasbourg":4348,"Ġmillions":4349,"Ġappropriations":4350,"gence":4351,"DP":4352,"Ġquant":4353,"Ġworse":4354,"icate":4355,"Ġoccasion":4356,"Ġfunctioning":4357,"Ġtrading":4358,"openhagen":4359,"Ġremarks":4360,"ĠBarroso":4361,"Ġpeaceful":4362,"Ġdistribution":4363,"Ġdemonstrated":4364,"Ġtob":4365,"Ġtraditional":4366,"ills":4367,"Ġthorough":4368,"uese":4369,"Ġcoast":4370,"Ġpoore":4371,"Ġdeliver":4372,"Ġindividuals":4373,"Ġtobacco":4374,"Ġdemonstrate":4375,"Ġassociated":4376,"Ġoption":4377,"rich":4378,"Ġscheme":4379,"ĠFramework":4380,"Ġsettle":4381,"Ġmission":4382,"ĠBudgets":4383,"rog":4384,"Ġflow":4385,"Ġste":4386,"Ġequip":4387,"Be":4388,"ĠNATO":4389,"Ġoccasions":4390,"ĠLegal":4391,"Ġremo":4392,"arent":4393,"nother":4394,"ĠNG":4395,"rian":4396,"Ġoperate":4397,"ĠEnergy":4398,"ĠPortuguese":4399,"Ġeffectiveness":4400,"ĠCopenhagen":4401,"Ġtried":4402,"Ġofficials":4403,"Ġwritten":4404,"Ġbank":4405,"Ġcontained":4406,"Ġultimately":4407,"economic":4408,"inese":4409,"Ġoperators":4410,"ĠHead":4411,"Ġknows":4412,"Ġprotected":4413,"Ġrelative":4414,"Ġrestruct":4415,"Ġfriend":4416,"Another":4417,"Not":4418,"Ġbase":4419,"ĠUSA":4420,"Ġairport":4421,"ĠBaltic":4422,"Ġretain":4423,"umer":4424,"Ġexamples":4425,"Ġentitled":4426,"oubted":4427,"Ġhost":4428,"Ġlegitimate":4429,"Ġvision":4430,"Ġcorruption":4431,"ĠOmbudsman":4432,"Ġprimarily":4433,"Ġconcluded":4434,"Ġassure":4435,"lav":4436,"Ġsexual":4437,"Ġ198":4438,"Ġethnic":4439,"Ġjustified":4440,"Ġaverage":4441,"ades":4442,"ulations":4443,"Ġovercome":4444,"Ġpassengers":4445,"gn":4446,"Ġhands":4447,"Ġfrequ":4448,"ott":4449,"98":4450,"mission":4451,"cel":4452,"03":4453,"Ġdefinite":4454,"Ġapprove":4455,"ĠChinese":4456,"pay":4457,"ĠCroat":4458,"Ġsmo":4459,"Ġamounts":4460,"hib":4461,"Ġexempt":4462,"Ġmeaning":4463,"Ġdispos":4464,"Ġexamine":4465,"Ġelectric":4466,"outher":4467,"Ġnoted":4468,"abor":4469,"Ġrealise":4470,"Ġviolations":4471,"Ġspread":4472,"Per":4473,"urely":4474,"lection":4475,"Ġsubstance":4476,"Ġinvolves":4477,"Ġpassed":4478,"Ġdignity":4479,"Ġcourt":4480,"Ġhor":4481,"Ġinfring":4482,"Ġstatistics":4483,"Ġextended":4484,"Ġdifference":4485,"Ġtoler":4486,"Ġplayed":4487,"outhern":4488,"br":4489,"adv":4490,"espite":4491,"illing":4492,"97":4493,"Ġwin":4494,"what":4495,"ĠIndia":4496,"lled":4497,"ilt":4498,"Ġcollective":4499,"Ġcooperate":4500,"ĠDutch":4501,"ĠEm":4502,"Ġdemocrat":4503,"Ġrevision":4504,"oubtedly":4505,"Ġemergency":4506,"ruary":4507,"Ġfirmly":4508,"ebruary":4509,"ĠAra":4510,"Ġallocated":4511,"Ġpenalty":4512,"ĠGeorg":4513,"Ġplanned":4514,"ĠTreat":4515,"Ġnevertheless":4516,"Lastly":4517,"ĠResearch":4518,"echn":4519,"oon":4520,"Ġwhatever":4521,"Ġrich":4522,"Ġcondition":4523,"Ġimag":4524,"Ġwit":4525,"ĠWh":4526,"Ġvisit":4527,"Ġnormal":4528,"Ġtreated":4529,"Ġministers":4530,"Ġfarming":4531,"Ġspace":4532,"Ġvalu":4533,"adow":4534,"Ġclause":4535,"avi":4536,"pped":4537,"Ġrequested":4538,"ected":4539,"iscal":4540,"Ġord":4541,"Ġtemporary":4542,"Ġgot":4543,"ĠAustria":4544,"Ġreiter":4545,"ĠTreaties":4546,"Ġ1996":4547,"Ġchemical":4548,"Ġcou":4549,"Ġdecisive":4550,"Ġvulnerable":4551,"Ġdou":4552,"Ġtechnological":4553,"Sub":4554,"iling":4555,"Ġobstacles":4556,"Ġsecret":4557,"gment":4558,"Ġlose":4559,"uls":4560,"Ġoffers":4561,"Ġindustries":4562,"osed":4563,"Ġunless":4564,"adequ":4565,"Ġimports":4566,"ecause":4567,"ĠAssembly":4568,"Ġsl":4569,"ĠKy":4570,"Ġquotas":4571,"ĠOrganisation":4572,"Ġexcessive":4573,"ĠGu":4574,"Ġprepare":4575,"Ġabuse":4576,"Ġhappens":4577,"Ġlatter":4578,"Ġagency":4579,"institutional":4580,"Ġsomewhat":4581,"Ġimpression":4582,"201":4583,"Ġpreparing":4584,"Ġche":4585,"Ġproperty":4586,"Ġmiss":4587,"lin":4588,"Ġafford":4589,"Ġrul":4590,"Ġtaxes":4591,"Ġfishermen":4592,"Ġgone":4593,"Ġcompared":4594,"iform":4595,"Ġhonest":4596,"advant":4597,"ĠCAP":4598,"Ġnation":4599,"year":4600,"ingu":4601,"ĠAss":4602,"Despite":4603,"Ġworry":4604,"apan":4605,"2001":4606,"aviour":4607,"Ġallows":4608,"Ġsincere":4609,"Ġplease":4610,"Ġacknowledge":4611,"Ġconsidering":4612,"phere":4613,"Ġpreventing":4614,"Ġsecondly":4615,"Ġexclus":4616,"Ġcentre":4617,"Perhaps":4618,"Ġinadequ":4619,"Given":4620,"Ġdisadvant":4621,"Ġhighest":4622,"Ġunfair":4623,"nal":4624,"Ġdetails":4625,"Ġurgently":4626,"ĠLiber":4627,"Ġundoubtedly":4628,"raft":4629,"ames":4630,"isheries":4631,"Ġformal":4632,"bu":4633,"ĠHigh":4634,"Ġdyn":4635,"Ġannounced":4636,"ĠPl":4637,"ĠServ":4638,"ĠAgenda":4639,"Ġbound":4640,"Ġappreciate":4641,"enomen":4642,"ĠSec":4643,"Ġelectronic":4644,"Ġconstantly":4645,"Ġspoken":4646,"Ġelector":4647,"va":4648,"Ġphenomen":4649,"Ġtrend":4650,"enty":4651,"Ġoperational":4652,"Ġautom":4653,"Here":4654,"Ġrelates":4655,"Ġaccounts":4656,"Ġexception":4657,"cont":4658,"Ġdrawing":4659,"Ġprove":4660,"ĠIsl":4661,"Ġphase":4662,"Ġspoke":4663,"ĠFebruary":4664,"Ġbehaviour":4665,"ĠAction":4666,"Ġfiscal":4667,"oul":4668,"Ġgeograph":4669,"Ġconvention":4670,"int":4671,"Ġfruit":4672,"Ġapparent":4673,"Ġpursue":4674,"Ġdistort":4675,"Ġsupervision":4676,"Ġinsurance":4677,"Ġprocesses":4678,"ĠIsraeli":4679,"Ġfront":4680,"Ġstocks":4681,"ĠCub":4682,"Ġintroducing":4683,"Ġapplying":4684,"Ġpillar":4685,"ague":4686,"stood":4687,"Ġexpectations":4688,"Ġbat":4689,"ĠIntergovernmental":4690,"Ġtaxpay":4691,"Ġfacts":4692,"Ġextension":4693,"Ġsensible":4694,"ĠSlovak":4695,"Ġlatest":4696,"Ġoperating":4697,"Ġfriends":4698,"Ġplaces":4699,"Ġdetermined":4700,"Ġwelcomed":4701,"Ġuncertain":4702,"Ġprosperity":4703,"ĠNGOs":4704,"Ġabstain":4705,"Ġwitness":4706,"eff":4707,"Ġstronger":4708,"Ġaband":4709,"Ġengage":4710,"Ġexclusion":4711,"Ġduties":4712,"Ġminutes":4713,"Ġdescribed":4714,"Ġadvance":4715,"Any":4716,"Ġkeeping":4717,"ĠFisheries":4718,"Ġintends":4719,"sk":4720,"Ġpaper":4721,"sc":4722,"Ġrestric":4723,"Ġcodecision":4724,"Ġexploitation":4725,"Because":4726,"Ġi":4727,"Ġseven":4728,"oto":4729,"Ġproceedings":4730,"ĠAlliance":4731,"ĠTransport":4732,"Ġstrengthened":4733,"vest":4734,"inated":4735,"Ġabandon":4736,"lined":4737,"Then":4738,"General":4739,"RO":4740,"ground":4741,"essions":4742,"care":4743,"ĠSc":4744,"Ġmaterials":4745,"Ġtraged":4746,"Ġconvergence":4747,"Ġbarriers":4748,"part":4749,"Ġimper":4750,"Ġassociation":4751,"Ġconfirmed":4752,"Ġsubmit":4753,"Ġstrategies":4754,"Ġtimet":4755,"Ġart":4756,"Ġequipment":4757,"ĠJapan":4758,"oslav":4759,"ĠAsia":4760,"Ġdisag":4761,"Ġprem":4762,"ressive":4763,"Ġcoordinated":4764,"Ġrepresented":4765,"ugoslav":4766,"au":4767,"try":4768,"Ġblock":4769,"Ġstudies":4770,"Ġhistoric":4771,"Ġsuppl":4772,"Ġkept":4773,"respond":4774,"amb":4775,"Ġarguments":4776,"Ġadvert":4777,"Ġpet":4778,"Ġproc":4779,"Ġclarify":4780,"Ġfields":4781,"Ġdestroy":4782,"Ġ23":4783,"Ġuniform":4784,"Ġreplace":4785,"ĠSecret":4786,"Ġconciliation":4787,"Ġplant":4788,"Ġtypes":4789,"rees":4790,"Ġattract":4791,"Ġfuel":4792,"Ġ24":4793,"ĠYugoslav":4794,"Ġtend":4795,"Ġpolitically":4796,"mbol":4797,"ulture":4798,"Ġaccomp":4799,"akistan":4800,"Ġ60":4801,"Ġmargin":4802,"ĠKore":4803,"Ġcorrespond":4804,"Ġsad":4805,"Ġratification":4806,"Ġlargely":4807,"NL":4808,"Ġbeings":4809,"ĠAt":4810,"Ġdebating":4811,"Ġpublished":4812,"eter":4813,"Ġbriefly":4814,"cer":4815,"ĠBos":4816,"Ġprotest":4817,"Yes":4818,"struction":4819,"Ġlargest":4820,"Ġfollows":4821,"Ġcoherent":4822,"AC":4823,"sh":4824,"Ġpie":4825,"iding":4826,"Ġleadership":4827,"Ġsymbol":4828,"amp":4829,"Ġrealistic":4830,"Ġcontracts":4831,"Ġbrings":4832,"Ġvirt":4833,"Ġpatients":4834,"ĠProdi":4835,"Ġstim":4836,"utin":4837,"under":4838,"Ġbit":4839,"Ġresum":4840,"ai":4841,"Ġprohib":4842,"Ġlic":4843,"Ġmaintaining":4844,"Ġstra":4845,"50":4846,"ĠWhite":4847,"Ġestim":4848,"Ġurgency":4849,"Ġmobil":4850,"ĠFundamental":4851,"Ġongoing":4852,"Ġsuffer":4853,"Ġsovereignty":4854,"Other":4855,"Ġmultilateral":4856,"Reg":4857,"ĠVice":4858,"Ġamending":4859,"Ġundertaken":4860,"ĠFinancial":4861,"Ġperfectly":4862,"Ġanswers":4863,"ike":4864,"iciently":4865,"Ġidentity":4866,"Ġelectricity":4867,"ĠCont":4868,"Ġsurve":4869,"Ġclean":4870,"reens":4871,"orry":4872,"Ġoffered":4873,"etic":4874,"Ġcareful":4875,"Ġbelieves":4876,"Ġsignificantly":4877,"Ġshadow":4878,"ĠInst":4879,"ĠConstitutional":4880,"Ġfelt":4881,"ĠBe":4882,"Ġet":4883,"Ġroom":4884,"Ġfinding":4885,"ĠCroatia":4886,"Ġunited":4887,"ĠCommun":4888,"Ġinnovative":4889,"Ġvessels":4890,"ĠPakistan":4891,"Ġ22":4892,"Ġaccidents":4893,"ze":4894,"Ġproved":4895,"Ġdependent":4896,"ystem":4897,"Ġwaiting":4898,"afety":4899,"Ã¼":4900,"Ġterritorial":4901,"Ġregrett":4902,"Ġstable":4903,"Ġlegally":4904,"Ġabsence":4905,"Ġchanging":4906,"Ġdetermination":4907,"Ġargument":4908,"Ġrestructuring":4909,"lling":4910,"Ġvig":4911,"Ġbudgets":4912,"Can":4913,"ona":4914,"Ġwine":4915,"position":4916,"Ġuniversal":4917,"Ġfine":4918,"Ġqualified":4919,"ulsory":4920,"Ġtransition":4921,"ĠAd":4922,"Ġdefine":4923,"deav":4924,"Ġwait":4925,"Ġresist":4926,"Ġrecall":4927,"Ġcars":4928,"quir":4929,"Ġendeav":4930,"Ġdifficulty":4931,"Ġmedical":4932,"Ġdriving":4933,"Ġunderstood":4934,"Ġlearning":4935,"nel":4936,"Ġhighlighted":4937,"Ġamended":4938,"lder":4939,"Ġsupposed":4940,"levision":4941,"ĠOb":4942,"ĠHeads":4943,"Ġconstitu":4944,"ĠEmployment":4945,"Ġvaluable":4946,"ĠConsumer":4947,"Ag":4948,"Ġwealth":4949,"aching":4950,"Ġexpert":4951,"Ġdisposal":4952,"appe":4953,"96":4954,"Ġsignificance":4955,"Ġchoose":4956,"Ġwaters":4957,"Ġsurv":4958,"Ġenvis":4959,"Ġpatent":4960,"gle":4961,"ellig":4962,"Ġdistin":4963,"ĠProtocol":4964,"ĠSerbia":4965,"Ġcro":4966,"Ġholding":4967,"Ġresulting":4968,"Ġexports":4969,"Ġextensive":4970,"Ġmilk":4971,"Ġrac":4972,"ĠWest":4973,"Ġsustainability":4974,"Ġeight":4975,"akes":4976,"Ġreferring":4977,"Ġhonour":4978,"ini":4979,"gl":4980,"ĠCong":4981,"ĠRepresent":4982,"30":4983,"Ġpreced":4984,"Ġseeing":4985,"Ġgenuinely":4986,"ĠNew":4987,"%.":4988,"aily":4989,"Ġdeficit":4990,"Ġprimary":4991,"aff":4992,"ches":4993,"ĠAust":4994,"Ġfigure":4995,"Ġdispl":4996,"Ġsatisfactory":4997,"ĠProtection":4998,"ĠHungarian":4999,"Subject":5000,"Ġapart":5001,"Ġdeliber":5002,"roduct":5003,"like":5004,"Ġinfringe":5005,"âĢĻ.":5006,"ursday":5007,"Ġsociet":5008,"atible":5009,"posed":5010,"Ġtouch":5011,"Ġneighbours":5012,"Ġlegitim":5013,"Ġinspect":5014,"Ġboost":5015,"St":5016,"formation":5017,"roc":5018,"Ġisol":5019,"necess":5020,"Ġleads":5021,"IS":5022,"Ġnegotiation":5023,"Ġpermit":5024,"Ġurban":5025,"Ġslight":5026,"AF":5027,"session":5028,"Ġdaily":5029,"Ġbecomes":5030,"Ġdism":5031,"ĠVAT":5032,"Ġsuggested":5033,"Ġstock":5034,"bit":5035,"Ġflood":5036,"Ġpreparation":5037,"ops":5038,"iability":5039,"Ġbuilt":5040,"Ġactively":5041,"Ġ1995":5042,"onom":5043,"Ġprotocol":5044,"Ġconsiders":5045,"ĠArab":5046,"ĠBosn":5047,"Ġunnecess":5048,"Consequently":5049,"Ġassume":5050,"Ġstrug":5051,"Ġacknowled":5052,"Once":5053,"Ġtrial":5054,"Ġnumbers":5055,"Ġsaw":5056,"Ġdivid":5057,"ellect":5058,"Ġneighbouring":5059,"ĠGreens":5060,"Ġusers":5061,"ĠAnd":5062,"Ġsomeone":5063,"Ġmeat":5064,"Inst":5065,"Ġplaying":5066,"Ġdram":5067,"Ġplants":5068,"ĠThursday":5069,"Ġjournal":5070,"Ġmonop":5071,"Ġaviation":5072,"Ġdisappe":5073,"Ġconstitute":5074,"Ġcollabor":5075,"ÃŃ":5076,"Ġwider":5077,"Ġsevere":5078,"ries":5079,"Ġzone":5080,"Ġpreviously":5081,"Ġdestruction":5082,"Ġobliged":5083,"Ġsets":5084,"Ġrelease":5085,"rimin":5086,"Ġvalid":5087,"Ġsatisfied":5088,"Ġcode":5089,"Ġidentify":5090,"Ġversion":5091,"ĠMc":5092,"ĠNorthern":5093,"Ġrequests":5094,"Ġparent":5095,"Ġindicated":5096,"Ġelsewhere":5097,"utr":5098,"Ġbreach":5099,"Where":5100,"Ġlisten":5101,"usion":5102,"Ġ80":5103,"Ġmaintained":5104,"ari":5105,"Ġinvestigation":5106,"Ġstands":5107,"ength":5108,"ĠMoroc":5109,"Ġsufficiently":5110,"iar":5111,"Ġteam":5112,"Ġpossibly":5113,"Ġspeeches":5114,"Ġcheck":5115,"ĠHa":5116,"Ġprisoners":5117,"anging":5118,"Ġthanking":5119,"Ġlaunched":5120,"Ġconcentrate":5121,"Ġtragic":5122,"ĠLatin":5123,"ĠGDP":5124,"ique":5125,"Ġdiver":5126,"Ġtrib":5127,"Ġgreatly":5128,"Ġbackground":5129,"ixed":5130,"related":5131,"osen":5132,"Ġaffects":5133,"Ġinadequate":5134,"Ġpartly":5135,"active":5136,"Ġetc":5137,"Ġlinks":5138,"Ġvac":5139,"Christian":5140,"Ġrunning":5141,"Ġopposite":5142,"house":5143,"ĠGeorgia":5144,"Ġaftern":5145,"dict":5146,"Ġcompleted":5147,"Ġliber":5148,"igu":5149,"Ġsuffered":5150,"Ġinterpretation":5151,"ament":5152,"itage":5153,"Ġidentified":5154,"Ġattempts":5155,"Ġtopic":5156,"Ġcomplement":5157,"Ġtransitional":5158,"Ġsil":5159,"Ġtimetable":5160,"Instead":5161,"Ġenforcement":5162,"Ġspecies":5163,"pir":5164,"Ġcompulsory":5165,"Ġremove":5166,"Ġpush":5167,"Ġpossibilities":5168,"Ġaccident":5169,"ĠKyoto":5170,"ĠAustrian":5171,"Ġreaction":5172,"alle":5173,"Ġdouble":5174,"ellectual":5175,"Ġtelevision":5176,"ĠChrist":5177,"During":5178,"Ġissued":5179,"Ġenhance":5180,"Ġpleas":5181,"Ġconducted":5182,"Ġschemes":5183,"ĠBSE":5184,"Ġhimself":5185,"Ġmid":5186,"Thus":5187,"Ġwent":5188,"Ġmoreover":5189,"Ġsocieties":5190,"Ġoptions":5191,"Ġreconstruction":5192,"Ġdri":5193,"Are":5194,"vent":5195,"imb":5196,"ĠExternal":5197,"Ġchosen":5198,"Ġhearing":5199,"COM":5200,"Ġmedicines":5201,"ĠControl":5202,"ĠInternal":5203,"Ġhelped":5204,"Ġintellig":5205,"Ġmotor":5206,"Ġpain":5207,"Ġdeserves":5208,"Ġguaranteeing":5209,"quality":5210,"Ġcomplicated":5211,"ĠBritain":5212,"Ġcarrying":5213,"Ġunp":5214,"Ġdepart":5215,"Ġmoral":5216,"Ġimplications":5217,"Ġafternoon":5218,"Ġdebated":5219,"Does":5220,"arding":5221,"Ġlength":5222,"Ġblood":5223,"ĠRepresentative":5224,"Ġhouse":5225,"Ġstay":5226,"Ġgap":5227,"Ġseeks":5228,"teen":5229,"Ġfacilities":5230,"Over":5231,"Ġflag":5232,"ĠBelgian":5233,"Ġbelief":5234,"Ġstabil":5235,"Ġsurely":5236,"iety":5237,"Ġmassive":5238,"Ġtragedy":5239,"no":5240,"build":5241,"Ġtexts":5242,"Ġports":5243,"Ġcy":5244,"ane":5245,"Ġcompetent":5246,"Ġprospects":5247,"cl":5248,"Ġratified":5249,"Ġbeg":5250,"Ġsouthern":5251,"free":5252,"nership":5253,"ĠSecretary":5254,"ĠFinland":5255,"ris":5256,"Ġcount":5257,"Ġpurely":5258,"Ġspite":5259,"Ġdefinitely":5260,"Ġsorry":5261,"ĠEM":5262,"ithu":5263,"ĠTun":5264,"Ġmistake":5265,"EL":5266,"Ġwhereby":5267,"ĠNice":5268,"Ġdeals":5269,"Ġworldwide":5270,"fe":5271,"Without":5272,"ĠSafety":5273,"atures":5274,"Amend":5275,"Ġcities":5276,"Ġsize":5277,"Ġcop":5278,"Ġintentions":5279,"Having":5280,"itizens":5281,"Ġheavy":5282,"celona":5283,"ĠPat":5284,"Ġintellectual":5285,"Ġsuccessfully":5286,"Ġjudge":5287,"Ġoptim":5288,"Ġpoorest":5289,"Ġhar":5290,"Ġlob":5291,"cohol":5292,"ĠBosnia":5293,"Ġvan":5294,"Ġ31":5295,"Ġadvertising":5296,"Ġaddressing":5297,"Ġexpand":5298,"irable":5299,"Ġcentres":5300,"Ġcoal":5301,"ĠChristian":5302,"asm":5303,"Ġincreases":5304,"Ġproof":5305,"ĠSocialists":5306,"Ġdiplomatic":5307,"Ġcontradict":5308,"Ġ0":5309,"Ġopened":5310,"Ġchap":5311,"ĠFood":5312,"Ġunanimously":5313,"Ġautonom":5314,"ĠEuropol":5315,"Ġacting":5316,"Ġ26":5317,"gypt":5318,"Ġschools":5319,"commun":5320,"umping":5321,"Ġ500":5322,"Ġphenomenon":5323,"Ġconsiderations":5324,"Ġworrying":5325,"Ġgeneration":5326,"mon":5327,"Ġapprox":5328,"Ġhundreds":5329,"Ġworst":5330,"Ġpercent":5331,"Ġopenness":5332,"Ġhealthy":5333,"Ġforg":5334,"Ġchann":5335,"anges":5336,"Re":5337,"Ġstressed":5338,"Ġrelatively":5339,"Ġinev":5340,"Ġdetermine":5341,"Ġrapidly":5342,"En":5343,"Ġskills":5344,"Ġ28":5345,"abled":5346,"Ġinequ":5347,"ĠBarcelona":5348,"scale":5349,"Ġdispute":5350,"Ġproducing":5351,"Ġphys":5352,"Ġsolely":5353,"Ġdig":5354,"Ġacquis":5355,"atlantic":5356,"Ġmulti":5357,"Ġrefers":5358,"Ġessentially":5359,"ĠBelgium":5360,"Ex":5361,"Ġexceed":5362,"Ġdemanding":5363,"Ġdepends":5364,"Ġsugar":5365,"Ġeasily":5366,"Ġpurch":5367,"ped":5368,"ĠCommon":5369,"Ġscand":5370,"199":5371,"Ġcorrectly":5372,"Ġinterinstitutional":5373,"Ġtools":5374,"Ġtaxpayers":5375,"LAF":5376,"Ġproud":5377,"Ġheritage":5378,"ĠHungary":5379,"edly":5380,"Ġhous":5381,"Ġgoverning":5382,"Ġpict":5383,"Ġpensions":5384,"Ġcrises":5385,"Ġplayers":5386,"ibet":5387,"Ġadvice":5388,"burg":5389,"Ã³":5390,"inc":5391,"Ġcore":5392,"Ġcharges":5393,"Ġforemost":5394,"ĠPresidents":5395,"Ġextending":5396,"ĠPolish":5397,"Ġbeef":5398,"Ġhopes":5399,"Will":5400,"Ġreve":5401,"Ġprevail":5402,"ĠRegional":5403,"raz":5404,"Ġdecades":5405,"Ġrecip":5406,"Ġthreats":5407,"Ġharmful":5408,"Ġconsiderably":5409,"holders":5410,"aud":5411,"hr":5412,"Ġnationals":5413,"Under":5414,"Ġenvironmentally":5415,"ĠPartnership":5416,"Ġcuts":5417,"Ġextraord":5418,"Ġprofits":5419,"Ġenabling":5420,"Ġsavings":5421,"ĠLithu":5422,"Ġrespects":5423,"Ġexplicit":5424,"ein":5425,"Ġpassenger":5426,"Ġpromised":5427,"Ġquote":5428,"Ġclaims":5429,"Ġreinfor":5430,"Ġreinforce":5431,"Ġterri":5432,"cipl":5433,"Ġadvantages":5434,"ĠGM":5435,"Ġreliable":5436,"Ġbureaucracy":5437,"Ġchairman":5438,"Ġalcohol":5439,"Ġremaining":5440,"ses":5441,"Ġtort":5442,"Ġtown":5443,"oring":5444,"Ġreass":5445,"ĠLeft":5446,"ipe":5447,"Ġachievement":5448,"Ġgranting":5449,"Ġfaith":5450,"oted":5451,"Ġclarity":5452,"rem":5453,"04":5454,"Ġincom":5455,"Ġprosec":5456,"Ġexperienced":5457,"ĠECB":5458,"ifies":5459,"Ġdictators":5460,"Ġmanufacturers":5461,"2000":5462,"Both":5463,"encing":5464,"Ġblack":5465,"Ġfocused":5466,"Ġreven":5467,"ĠAuth":5468,"Pro":5469,"Ġpaying":5470,"Ġundertakings":5471,"ĠEgypt":5472,"Ġpiece":5473,"Ġfavourable":5474,"Ġpan":5475,"ĠChair":5476,"Ġfeeling":5477,"Ġspend":5478,"Ġcalc":5479,"Ġencouraged":5480,"Ġdeclared":5481,"Ġdoubts":5482,"ĠSan":5483,"Ġsuitable":5484,"Ġgeographical":5485,"Ġded":5486,"Ġcompon":5487,"ĠDanish":5488,"Ġcontributed":5489,"Ġoppose":5490,"ada":5491,"nual":5492,"ĠDen":5493,"ĠLiberal":5494,"ino":5495,"Ġapplicable":5496,"SP":5497,"ax":5498,"Ġemphasised":5499,"Ġregrettable":5500,"ĠHome":5501,"Ġreflected":5502,"isch":5503,"Ġisland":5504,"Ġeastern":5505,"ĠTibet":5506,"Ġregarded":5507,"Ġcommunications":5508,"Just":5509,"utive":5510,"repren":5511,"repreneur":5512,"Ġwillingness":5513,"ls":5514,"iles":5515,"Ġarticle":5516,"ĠKorea":5517,"road":5518,"thly":5519,"Ġhistorical":5520,"hus":5521,"ĠThank":5522,"Ġbiggest":5523,"mpath":5524,"Ġentered":5525,"Ġcompetences":5526,"Ġmodified":5527,"Ġsla":5528,"Ġalleg":5529,"ception":5530,"Ġcertainty":5531,"Ġapplications":5532,"SC":5533,"Ġagg":5534,"Ġmac":5535,"abilities":5536,"ĠMaced":5537,"Ġfirms":5538,"Ġdynamic":5539,"ourism":5540,"Ġpunish":5541,"Ġupd":5542,"Ġcontrovers":5543,"Ġ2011":5544,"Ġsucceeded":5545,"Ġunnecessary":5546,"Ġadmit":5547,"Ġinsuff":5548,"Ġindirect":5549,"Ġradical":5550,"Ġconstitutes":5551,"Ġreaching":5552,"ĠPet":5553,"ĠWomen":5554,"Ġremoved":5555,"âĢĵ":5556,"Ġaffecting":5557,"cle":5558,"Ġwhereas":5559,"oured":5560,"Ġowners":5561,"Ġimagine":5562,"resh":5563,"ulating":5564,"Ġviolation":5565,"ĠLa":5566,"Ġendors":5567,"May":5568,"Ġsympath":5569,"Ġsupplementary":5570,"ĠGrow":5571,"Ġdetri":5572,"Ġheading":5573,"Ġperformance":5574,"Ġlegitimacy":5575,"richt":5576,"Ġarise":5577,"Ġcourts":5578,"ĠGrowth":5579,"ka":5580,"erved":5581,"oll":5582,"ĠReport":5583,"astricht":5584,"Ġhealthcare":5585,"Ġships":5586,"Ġsummer":5587,"ĠCooperation":5588,"Ġnegotiated":5589,"ĠTunis":5590,"Ġpowerful":5591,"Ġrational":5592,"anda":5593,"ience":5594,"Ġvast":5595,"Ġscr":5596,"Ġconsequence":5597,"Ġairlines":5598,"Ġincorporated":5599,"ading":5600,"ores":5601,"icro":5602,"Ġprompt":5603,"Ġtradition":5604,"Ġleader":5605,"Ġantic":5606,"raid":5607,"ticles":5608,"Ġearth":5609,"quiry":5610,"Ġsought":5611,"Ġreiterate":5612,"Ġintervene":5613,"Ġoverl":5614,"cip":5615,"Ġcarbon":5616,"Ġsurround":5617,"Ġembar":5618,"reshold":5619,"tering":5620,"Ġchain":5621,"Ġcitizenship":5622,"Ġfairly":5623,"ĠMaastricht":5624,"Ġafraid":5625,"Ġcert":5626,"Ġapplicant":5627,"Ġdro":5628,"DA":5629,"Ġpersu":5630,"Ġobtained":5631,"Ġreservations":5632,"Ġstraight":5633,"rid":5634,"Ġhence":5635,"Ġpresenting":5636,"Ġsmaller":5637,"Ġweight":5638,"Ġalarm":5639,"Ġtests":5640,"Ġreligion":5641,"Ġthreshold":5642,"Ġsouth":5643,"Ġforum":5644,"Ġaside":5645,"Ġfast":5646,"Ġrestore":5647,"Ġgreenhouse":5648,"ox":5649,"oard":5650,"ĠRural":5651,"ĠAuthority":5652,"ĠSud":5653,"Ġutmost":5654,"ĠCuba":5655,"Ġdeeply":5656,"inational":5657,"Ġentrepreneur":5658,"Ġtargeted":5659,"uter":5660,"ĠWar":5661,"Ġeverybody":5662,"Ġsubjects":5663,"ustry":5664,"ĠSloven":5665,"Ġinflation":5666,"Ġnight":5667,"ĠBudgetary":5668,"ĠAssoc":5669,"Ġsake":5670,"ophob":5671,"Ġtight":5672,"Ã¤":5673,"inal":5674,"Ġ29":5675,"Ġtun":5676,"Ġbiod":5677,"duc":5678,"actions":5679,"Ġsave":5680,"ĠPlan":5681,"Ġelectoral":5682,"na":5683,"Ġje":5684,"Ġtransl":5685,"ographic":5686,"Ġbio":5687,"ĠGaz":5688,"Ġmarketing":5689,"inent":5690,"let":5691,"Ġdeserve":5692,"Ġradio":5693,"Ġcreates":5694,"Ġsuggestions":5695,"Ġleaving":5696,"ĠParliamentary":5697,"Ġwatch":5698,"ĠBurma":5699,"illenn":5700,"Ob":5701,"lobal":5702,"work":5703,"Ġimportantly":5704,"Ġraising":5705,"Ġnecessarily":5706,"Ġnegotiate":5707,"Ġprivile":5708,"Ġanticip":5709,"Ġordinary":5710,"Ġdeclarations":5711,"spect":5712,"ova":5713,"jud":5714,"point":5715,"Ġwording":5716,"Ġsched":5717,"Ġdoor":5718,"Ġjointly":5719,"%,":5720,"ming":5721,"ĠDec":5722,"while":5723,"Ġexplanation":5724,"ĠCoh":5725,"Like":5726,"ony":5727,"alities":5728,"Ġexcluded":5729,"itz":5730,"osp":5731,"ĠDenmark":5732,"ĠCF":5733,"comings":5734,"Ġmultinational":5735,"Ġhyp":5736,"Ġentail":5737,"Ġdrafting":5738,"Sim":5739,"Ġfleet":5740,"Ġterrible":5741,"Ġorganiz":5742,"Ġeyes":5743,"Ġrepeatedly":5744,"sy":5745,"alling":5746,"Ġnoon":5747,"Ġincentives":5748,"Ġscrutin":5749,"Ġrevised":5750,"Ġmacro":5751,"ĠAssociation":5752,"Ġstip":5753,"Ġexamined":5754,"Ġwelcomes":5755,"Ġsettlement":5756,"ID":5757,"ĠEst":5758,"rapporteur":5759,"itle":5760,"Ġshortcomings":5761,"Ġdoct":5762,"Ġcomplaints":5763,"stuff":5764,"Ġbuy":5765,"Ġdos":5766,"Ġcombined":5767,"Ġshowing":5768,"Ġeye":5769,"Ġcharge":5770,"Ġrailway":5771,"Nor":5772,"wing":5773,"Ġemployers":5774,"Ġbureaucratic":5775,"Ġtonnes":5776,"pread":5777,"abwe":5778,"imbabwe":5779,"ĠBro":5780,"Ġenlar":5781,"Ġbuildings":5782,"Ġ70":5783,"illennium":5784,"Ġchecks":5785,"Ġnearly":5786,"Ġhardly":5787,"ĠMus":5788,"Ġintens":5789,"put":5790,"arer":5791,"ĠBerlin":5792,"bate":5793,"ĠNational":5794,"Ġcredible":5795,"Ġarmed":5796,"Clear":5797,"opard":5798,"Ġcancer":5799,"ollowing":5800,"Ġsurprised":5801,"Ġeliminate":5802,"ĠSudan":5803,"Its":5804,"Ġdisabled":5805,"idespread":5806,"Ġexceptional":5807,"Ġsimplification":5808,"Ġrepresentation":5809,"Ġpact":5810,"Ġdisagree":5811,"Ġreflects":5812,"Ġairports":5813,"Ġtransactions":5814,"Ġpersec":5815,"obile":5816,"Ġfoundations":5817,"bania":5818,"ara":5819,"Ġhit":5820,"Ġoutstanding":5821,"Ġaccur":5822,"Ġwidespread":5823,"ĠFor":5824,"Ġeducational":5825,"orous":5826,"ĠEP":5827,"Ġracism":5828,"Ġtreaties":5829,"Ġquota":5830,"Ġunderline":5831,"usal":5832,"communications":5833,"ĠPSE":5834,"ĠAz":5835,"Well":5836,"Ġscience":5837,"Ġsac":5838,"ĠMart":5839,"ĠQuestion":5840,"Ġjustify":5841,"Ġexpressing":5842,"Ġderog":5843,"gue":5844,"ĠTime":5845,"Ġbroader":5846,"ĠSol":5847,"Ġselect":5848,"Ġcommend":5849,"Ġfederal":5850,"Ġdelays":5851,"itative":5852,"Ġcandidates":5853,"Ġsuspended":5854,"Ġpleasure":5855,"Ġturned":5856,"craft":5857,"Ġjur":5858,"itute":5859,"Ġjeopard":5860,"aks":5861,"olit":5862,"Ġperiods":5863,"ĠYugoslavia":5864,".)":5865,"ull":5866,"Ġyouth":5867,"Ġ90":5868,"ĠMorocco":5869,"AR":5870,"ĠCivil":5871,"ĠSh":5872,"Ġkinds":5873,"ĠSlovakia":5874,"urement":5875,"Ġtough":5876,"erson":5877,"ĠGal":5878,"Ġfewer":5879,"Ġpicture":5880,"ĠVan":5881,"Ġwarmly":5882,"erences":5883,"Ġredund":5884,"Ġfresh":5885,"Ġunemployed":5886,"Ġfamiliar":5887,"EN":5888,"Ġdiscrimin":5889,"Ġlosses":5890,"ĠBurea":5891,"viously":5892,"astro":5893,"Ġabolition":5894,"ĠMacedonia":5895,"Ġnone":5896,"Ġintensive":5897,"Ġfalls":5898,"ĠCulture":5899,"Ġlobby":5900,"Ġbearing":5901,"Ġeconomically":5902,"Ġresulted":5903,"emic":5904,"bre":5905,"Ġbiodiversity":5906,"bing":5907,"Ġincident":5908,"Ġambition":5909,"Ġshape":5910,"ĠBureau":5911,"Ġincomp":5912,"Ġ197":5913,"Ġtackling":5914,"Ġallocation":5915,"Ġrid":5916,"Ġdeadline":5917,"uck":5918,"ĠRoman":5919,"Ġphysical":5920,"Ġbelow":5921,"Med":5922,"ĠStat":5923,"ĠTourism":5924,"Ġdrafted":5925,"ĠZimbabwe":5926,"Ġbomb":5927,"Tw":5928,"Ġsatisfaction":5929,"iced":5930,"Ġstudents":5931,"Ġliability":5932,"Ġminim":5933,"Ġexpensive":5934,"Ġaircraft":5935,"anks":5936,"Ġincon":5937,"Ġexpense":5938,"Ġpreparations":5939,"ĠMold":5940,"Ġdiscipl":5941,"Ġtariff":5942,"Ġenhanced":5943,"glish":5944,"SV":5945,"Ġscandal":5946,"Ġrelate":5947,"Ġlasting":5948,"Ġparam":5949,"Ġundermine":5950,"Ġfost":5951,"Ġqualifications":5952,"Ġrestricted":5953,"ĠAlbania":5954,"Ġstance":5955,"ĠLam":5956,"allel":5957,"Ġteach":5958,"Ġfort":5959,"Ġdepr":5960,"Ġpenalties":5961,"gen":5962,"Ġintergovernmental":5963,"Ġshares":5964,"Ġwidely":5965,"Ġunity":5966,"ĠJoint":5967,"Ġprocessing":5968,"ĠPalestinians":5969,"Ġfire":5970,"Ġindicate":5971,"Ġdictatorship":5972,"Ġbroadcast":5973,"Ġoccurred":5974,"Ã¡n":5975,"atell":5976,"Ġfreely":5977,"Ġcategory":5978,"Ġbecame":5979,"Ġadvis":5980,"bs":5981,"Ġcovers":5982,"eneva":5983,"Ġlessons":5984,"Ġmotions":5985,"Ġcity":5986,"Ġraw":5987,"Ġtransatlantic":5988,"Ġ...":5989,"Ġcondemned":5990,"oler":5991,"Ġcivilian":5992,"Ġpreserve":5993,"fortunate":5994,"Ġspl":5995,"ĠIslamic":5996,"ĠEnglish":5997,"Ġlarger":5998,"Ġcollaboration":5999,"ĠGaza":6000,"see":6001,"ĠKurd":6002,"Ġunfortunate":6003,"Ġinsufficient":6004,"ĠFinn":6005,"Following":6006,"itiative":6007,"Ġindicators":6008,"Ġprocurement":6009,"razil":6010,"Ġwind":6011,"Ġuncertainty":6012,"ĠLib":6013,"Ġpil":6014,"Ġarmy":6015,"ĠGeneva":6016,"ĠIndustry":6017,"Ġexplained":6018,"ĠPar":6019,"ĠDirector":6020,"Ġswift":6021,"Ġjuris":6022,"Ġcorpor":6023,"Ġfinanced":6024,"Ġregulated":6025,"lderly":6026,"Ġfil":6027,"Ġputs":6028,"ĠCent":6029,"Ġterrorists":6030,"Ġcausing":6031,"Ġecological":6032,"building":6033,"Ġasse":6034,"Ġoutset":6035,"Ġregulate":6036,"Ġdiss":6037,"ĠAct":6038,"Ġtwenty":6039,"Ġreceiving":6040,"Ġcoordinate":6041,"Ġannounce":6042,"vestment":6043,"ĠIG":6044,"Ġtelecommunications":6045,"Ġoffering":6046,"Ġpopulations":6047,"Ġethical":6048,"Ġfrank":6049,"stuffs":6050,"Ġfinances":6051,"Ġcele":6052,"Ġturning":6053,"Ġpref":6054,"oviet":6055,"regular":6056,"Ġbasically":6057,"Ġdeclare":6058,"Ġgradually":6059,"Non":6060,"itch":6061,"Before":6062,"Ġaccompan":6063,"Ġparents":6064,"disc":6065,"Ġfun":6066,"Ġremed":6067,"Ġregister":6068,"ques":6069,"ĠHer":6070,"Ġtang":6071,"Ġgenerations":6072,"Ġreserve":6073,"Ġdemonstrates":6074,"irth":6075,"Ġminute":6076,"Ġunique":6077,"Ġextrem":6078,"Ġdeterior":6079,"Ġdeaths":6080,"Ġengaged":6081,"oe":6082,"Ġhaz":6083,"Ġequival":6084,"Ġsuggestion":6085,"Ġignore":6086,"Ġdrivers":6087,"She":6088,"aut":6089,"Ġwarning":6090,"Ġelderly":6091,"Ġpromises":6092,"People":6093,"hand":6094,"ensible":6095,"Ġconce":6096,"Ġcatch":6097,"Ġlie":6098,"Ġnotice":6099,"Ġcongratulations":6100,"Ġunw":6101,"Ġjournalists":6102,"abit":6103,"Ġregardless":6104,"Ġlistened":6105,"Ġextraordinary":6106,"2002":6107,"Ġundertake":6108,"Ġweakness":6109,"Ġunanimous":6110,"Clearly":6111,"spe":6112,"Ġinj":6113,"ume":6114,"Ġcomparison":6115,"Ġdossi":6116,"apers":6117,"abour":6118,"Ġfrequently":6119,"coun":6120,"ĠRome":6121,"pectives":6122,"Ġbegan":6123,"Ġsphere":6124,"Ġcontacts":6125,"Ġendeavour":6126,"oud":6127,"Ġdia":6128,"Ġreloc":6129,"Ġterritories":6130,"Ġassociations":6131,"Ġkilled":6132,"lim":6133,"Ġobserved":6134,"Ġpresentation":6135,"Ġdigital":6136,"oman":6137,"roductive":6138,"Ġinformal":6139,"ĠMalt":6140,"Ġattend":6141,"visory":6142,"Ġsupplies":6143,"oly":6144,"Ġdemonst":6145,"Ġbattle":6146,"Obviously":6147,"oz":6148,"Ġspect":6149,"Ġillustr":6150,"Ġviable":6151,"Ġenthus":6152,"Ġnonetheless":6153,"Ġstruggle":6154,"Ġcollection":6155,"Ġirregular":6156,"Ġadh":6157,"place":6158,"Ġprevented":6159,"AL":6160,"Ġdemographic":6161,"mination":6162,"Ġlooked":6163,"Ġnecessity":6164,"Ġexerc":6165,"EEC":6166,"Ġpromise":6167,"off":6168,"gm":6169,"appro":6170,"ĠEMU":6171,"ĠIGC":6172,"laration":6173,"Ġbeneficial":6174,"Ġforgot":6175,"ato":6176,"Ġtribute":6177,"ancy":6178,"Ġshame":6179,"Ġpreca":6180,"Ġarising":6181,"Ġcompatible":6182,"ĠLithuania":6183,"Ġagrees":6184,"Ġforests":6185,"Ġ1990":6186,"Ġpromoted":6187,"âĢĻ,":6188,"Ġabstained":6189,"Ġstrike":6190,"Ġsearch":6191,"Ġsending":6192,"istical":6193,"Ġshortly":6194,"):":6195,"asc":6196,"ocking":6197,"etically":6198,"Ġpursued":6199,"Ġdumping":6200,"Ġkn":6201,"Ġsection":6202,"ĠOffice":6203,"ondon":6204,"Ġsincerely":6205,"Sh":6206,"ables":6207,"Ġsuspect":6208,"ĠFisch":6209,"Ġclearer":6210,"Ġtorture":6211,"Ġunlike":6212,"ritten":6213,"heart":6214,"Ġblame":6215,"Ġnobody":6216,"ĠDeclaration":6217,"ĠSoviet":6218,"ĠBas":6219,"Ġvacc":6220,"Four":6221,"Ġpredict":6222,"Ġcouple":6223,"FI":6224,"Ġtalked":6225,"Ġmoved":6226,"iring":6227,"Ġemerging":6228,"level":6229,"Ġaccompanied":6230,"Ġprec":6231,"Ġsocio":6232,"Ġbanking":6233,"ĠAmericans":6234,".'":6235,"Ġunre":6236,"Ġcard":6237,"illance":6238,"Ġrevenue":6239,"Ab":6240,"fu":6241,"Ġtransit":6242,"Ġclarification":6243,"ĠLondon":6244,"Ġprincip":6245,"Ġchoices":6246,"Ġefficiently":6247,"Ġexclusively":6248,"Ġnoise":6249,"Ġcongratulating":6250,"Ġconventions":6251,"Ġcheap":6252,"Ġimbal":6253,"Ġ35":6254,"Ġfourth":6255,"arians":6256,"Ġpersist":6257,"Ġnorthern":6258,"Ġapproximately":6259,"IDS":6260,"Ġkeen":6261,"ĠFinnish":6262,"Ġaccessible":6263,"regulation":6264,"Ġsoft":6265,"Ġloans":6266,"Ġreveal":6267,"Ar":6268,"Ġant":6269,"Ġrespecting":6270,"Ġharmonised":6271,"Ġrising":6272,"ĠBrazil":6273,"Ġroads":6274,"Ġtroops":6275,"Ġdistinction":6276,"Ġ2013":6277,"Ġdefending":6278,"Ġobservation":6279,"Ġvehicle":6280,"time":6281,"Ġ1994":6282,"ĠAsh":6283,"fence":6284,"Ġpercentage":6285,"cyc":6286,"Ġtimely":6287,"ĠNe":6288,"Ġitems":6289,"ula":6290,"ĠAL":6291,"Ġenlarged":6292,"Ġunions":6293,"Ġrejection":6294,"olidarity":6295,"Ġwage":6296,"Ġperspectives":6297,"Ġalongside":6298,"Ġineff":6299,"Ġspring":6300,"Ġstanding":6301,"rous":6302,"Ġcampaigns":6303,"05":6304,"lights":6305,"ĠMer":6306,"Ġorganise":6307,"Or":6308,"Ġbegun":6309,"Ġerad":6310,"Ġstations":6311,"Ġsyn":6312,"Ġconsulted":6313,"Ġvoc":6314,"Ġjudgment":6315,"Ġdivision":6316,"Ġfriendly":6317,"Ġsurveillance":6318,"ĠChechn":6319,"Ġdistingu":6320,"Ġsimplify":6321,"Ġstrictly":6322,"Ġdivided":6323,"Ġbirth":6324,"Ġmarine":6325,"ĠLeban":6326,"Ġcrops":6327,"Ġexperiencing":6328,"ĠCanada":6329,"AS":6330,"Ġalternatives":6331,"tion":6332,"IB":6333,"Ġunequ":6334,"Ġquarter":6335,"Ġevident":6336,"Also":6337,"min":6338,"pro":6339,"ĠChechnya":6340,"Ġconservation":6341,"Ġcoherence":6342,"Ġcease":6343,"Ġdesirable":6344,"Ġdisappointed":6345,"Ġorganizations":6346,"Mediterranean":6347,"verse":6348,"Ġparallel":6349,"Nonetheless":6350,"ederation":6351,"Ġroute":6352,"ĠTam":6353,"Ġdirected":6354,"Ġhoriz":6355,"ĠAtlantic":6356,"ĠMal":6357,"Ġhum":6358,"Ġrefuse":6359,"2006":6360,"Ġthreatened":6361,"ĠYear":6362,"Ġhypoc":6363,"Ġtangible":6364,"Ġinhabit":6365,"ĠService":6366,"Ġfem":6367,"Ġusual":6368,"Ġsoil":6369,"keep":6370,"Ġinvite":6371,"debate":6372,"Ġruling":6373,"requ":6374,"country":6375,"Ġstring":6376,"Ġtextile":6377,"Ġbott":6378,"Most":6379,"rust":6380,"atform":6381,"ĠCa":6382,"1999":6383,"Res":6384,"Ġstem":6385,"Ġhoped":6386,"ĠThat":6387,"Ġdream":6388,"Ġintoler":6389,"Ġreflection":6390,"exist":6391,"2013":6392,"ducation":6393,"Ġmur":6394,"ĠCitizens":6395,"Ġabsurd":6396,"Ġrailways":6397,"ĠCentre":6398,"Ġsecur":6399,"Ġunanimity":6400,"ĠGlobal":6401,"Ġrespective":6402,"Ġconnected":6403,"ophobia":6404,"inn":6405,"Ġimage":6406,"Their":6407,"ented":6408,"Ġacceptance":6409,"Ġtraditions":6410,"Ġreplaced":6411,"rey":6412,"Ġrating":6413,"Ġpermitted":6414,"Ġyourself":6415,"ĠOLAF":6416,"down":6417,"ĠSingle":6418,"Ġobservers":6419,"Ġbenefici":6420,"Ġsharing":6421,"petus":6422,"Ġshowed":6423,"lo":6424,"national":6425,"Ġassessments":6426,"Ġlacking":6427,"Ġstre":6428,"Ġpharm":6429,"Ġjoined":6430,"ode":6431,"Ġcategories":6432,"Ġimpetus":6433,"Ġenshr":6434,"osis":6435,"Ġcompete":6436,"Ġpartial":6437,"Ġforgotten":6438,"Ġrare":6439,"Ġneighbourhood":6440,"Ġdefining":6441,"Ġpopular":6442,"ĠYou":6443,"ĠGo":6444,"ĠFree":6445,"enna":6446,"rison":6447,"ife":6448,"ublin":6449,"Ġrefused":6450,"limin":6451,"Ġouter":6452,"Ġvictim":6453,"Ġpursuant":6454,"HU":6455,"Ġconfusion":6456,"Ġfarms":6457,"Ġinterim":6458,"izing":6459,"Ġobserve":6460,"Ġment":6461,"Ġnorth":6462,"Ġorient":6463,"Ġimposing":6464,"Ġauthorisation":6465,"Ġresumed":6466,"rimination":6467,"omet":6468,"ski":6469,"Ġestimated":6470,"Ġgenetically":6471,"Similar":6472,"ilos":6473,"Ġraises":6474,"Ġhighlights":6475,"Ġconsequently":6476,"ĠLabour":6477,"Ġunderlying":6478,"Ã¨":6479,"arked":6480,"Ġcontributing":6481,"Ġlogical":6482,"Ġdramatic":6483,"Ġhousing":6484,"zone":6485,"Ġresource":6486,"Ġplays":6487,"Ġmicro":6488,"ountain":6489,"Ġuphold":6490,"ball":6491,"iate":6492,"Ġsigning":6493,"Ġworthy":6494,"Ġben":6495,"lease":6496,"Ġcharacteristics":6497,"Ġmigrants":6498,"Ġentrepreneurs":6499,"Ġprejud":6500,"ĠMoldova":6501,"Ġplural":6502,"Ġsystematic":6503,"Ġprocedural":6504,"ĠStatute":6505,"mm":6506,"Ġmach":6507,"Ġachievements":6508,"othing":6509,"Ġintegrity":6510,"Ġsales":6511,"Ġslightly":6512,"Ġpreventive":6513,"Ġscrutiny":6514,"Ġnotably":6515,"Ġreported":6516,"Ġchapter":6517,"ĠPalestine":6518,"Ġcounterfe":6519,"Ġmissing":6520,"soever":6521,"ĠHow":6522,"Amendment":6523,"Ġexpan":6524,"Ġmurder":6525,"ancies":6526,"Ġconsci":6527,"Your":6528,"rors":6529,"rew":6530,"Ġcontroversial":6531,"ĠWall":6532,"Ġjoining":6533,"tration":6534,"Ġfunded":6535,"Ġideal":6536,"Ġexchanges":6537,"ĠObject":6538,"aves":6539,"Ġmurd":6540,"Ġprelimin":6541,"Ġtrack":6542,"Ġpostal":6543,"Ġdestroyed":6544,"Ġreconciliation":6545,"Ġsubsequently":6546,"Ġhelpful":6547,"ĠDefence":6548,"stream":6549,"ective":6550,"...":6551,"Ġlawy":6552,"Ġprivat":6553,"iox":6554,"Ġdisreg":6555,"Ġcoastal":6556,"diction":6557,"istered":6558,"Ġwhatsoever":6559,"ĠMad":6560,"iannual":6561,"exic":6562,"Ġequivalent":6563,"teg":6564,"ĠPetitions":6565,"oss":6566,"Ġapproaches":6567,"ĠDublin":6568,"Ġemission":6569,"Ġpreliminary":6570,"inder":6571,"race":6572,"Ġcontrast":6573,"Ġrepresenting":6574,"Ġcultures":6575,"Ġexpansion":6576,"Rule":6577,"mar":6578,"Ġpilot":6579,"Ġdistributed":6580,"ĠConserv":6581,"Ġcelebr":6582,"ĠInvestment":6583,"Ġadverse":6584,"))":6585,"orne":6586,"Ġfires":6587,"Ġenvisaged":6588,"Ġadvanced":6589,"Ġmanaging":6590,"otechn":6591,"ednes":6592,"Ġreductions":6593,"Ġmovements":6594,"sequent":6595,"Ġcontrolled":6596,"Ġuniversities":6597,"Ġsacr":6598,"ednesday":6599,"Ġcommission":6600,"Ġaccordingly":6601,"Ġgrat":6602,"Ġexceptions":6603,"riminal":6604,"text":6605,"Ġchemicals":6606,"Two":6607,"Ġflows":6608,"Otherwise":6609,"Again":6610,"ucas":6611,"Ġmotiv":6612,"Ġsafeguarding":6613,"yria":6614,"Ġ[":6615,"antly":6616,"Ġunilateral":6617,"Ġratify":6618,"Ġmistakes":6619,"Ġregularly":6620,"Ġsurrounding":6621,"Ġadvocate":6622,"igation":6623,"ĠStock":6624,"Ġbanned":6625,"ĠFrid":6626,"Ġirre":6627,"Ġoutermost":6628,"pone":6629,"Ġdiox":6630,"ugust":6631,"Ġfeas":6632,"Ġanaly":6633,"IF":6634,"Ġproviders":6635,"itably":6636,"Ġcens":6637,"Ġmobile":6638,"Ġprofound":6639,"Ġerror":6640,"Regarding":6641,"Ġimported":6642,"Ġsubsequent":6643,"Ġphilos":6644,"Ġparticipating":6645,"ĠHam":6646,"Ġhorizon":6647,"ĠPe":6648,"Ġjustification":6649,"Ġlosing":6650,"abil":6651,"Ġcell":6652,"Ġinvestors":6653,"Ġambitions":6654,"Ġinhabitants":6655,"Ġscen":6656,"alia":6657,"ĠNord":6658,"Ġnine":6659,"iferation":6660,"Ġlooks":6661,"Ġpostpone":6662,"Allow":6663,"ughter":6664,"Ġsolved":6665,"Ġelig":6666,"Ġdevast":6667,"arded":6668,"Ġabuses":6669,"Ġgained":6670,"Ġcontam":6671,"Ġperpe":6672,"Ġfears":6673,"Written":6674,"emb":6675,"Ġarbit":6676,"Ġfounded":6677,"itored":6678,"Ġexperiences":6679,"Ġdelegations":6680,"Ġsentence":6681,"Ġincorporate":6682,"Ġappointment":6683,"Ġresistance":6684,"Ġfixed":6685,"Ġconviction":6686,"known":6687,"Rec":6688,"Ġcompromises":6689,"Ġeventually":6690,"Ġdisputes":6691,"ĠTunisia":6692,"oning":6693,"Ġdecre":6694,"iversary":6695,"Ġrestrictive":6696,"Ġperpetr":6697,"ĠNig":6698,"Ġfails":6699,"Ġcovering":6700,"Ġoccupation":6701,"Ġhazard":6702,"Ġfailing":6703,"Ġwages":6704,"elong":6705,"Ġregimes":6706,"Ġfreight":6707,"CS":6708,"ipping":6709,"Ġrely":6710,"ĠTim":6711,"Ġaspir":6712,"ĠMonday":6713,"dden":6714,"Ġinfringement":6715,"appropri":6716,"Please":6717,"ĠIC":6718,"Ġolder":6719,"Ġinfrastructures":6720,"ĠMalta":6721,"Rus":6722,"Ġnom":6723,"Ġinterf":6724,"Ġwoman":6725,"umn":6726,"Ġexamination":6727,"Ġconcent":6728,"Ġsigns":6729,"Ġreaff":6730,"Ġprol":6731,"bling":6732,"igned":6733,"Ġmonitored":6734,"tenance":6735,"ley":6736,"utical":6737,"ĠMil":6738,"Ġrevolution":6739,"Ġmandatory":6740,"Ġresidence":6741,"Ġblind":6742,"Ġassets":6743,"erving":6744,"Ġignored":6745,"iov":6746,"Ġaccepting":6747,"ĠALDE":6748,"Ġenfor":6749,"Ġdepl":6750,"ĠDay":6751,"Ġinside":6752,"Ġdrive":6753,"Ġinvestigations":6754,"ĠLatv":6755,"TA":6756,"Ġdivers":6757,"Ġsuggests":6758,"Ġfat":6759,"Ġfal":6760,"che":6761,"Ġabroad":6762,"Ġgross":6763,"Ġwholeheart":6764,"ugen":6765,"Ġdangers":6766,"Ġsupervisory":6767,"Ġx":6768,"ĠSystem":6769,"Ġpretext":6770,"Ġanniversary":6771,"Ġlistening":6772,"Ġfunctions":6773,"Ġarch":6774,"ooking":6775,"Ġmodels":6776,"oha":6777,"Ġdisappear":6778,"Ġstages":6779,"Ġliked":6780,"Ġmountain":6781,"Ġrecyc":6782,"Ġconsistency":6783,"Ġpursuing":6784,"Ġtolerance":6785,"ussions":6786,"Ġhumanity":6787,"beit":6788,"Ġconvince":6789,"ĠCommunist":6790,"SCE":6791,"requis":6792,"Ġacknowledged":6793,"Ġconcentration":6794,"Ġ300":6795,"gling":6796,"Ġconsent":6797,"Ġjurisdiction":6798,"Who":6799,"Ġwarrant":6800,"Ġ2012":6801,"Ġintegrate":6802,"Ġnar":6803,"Ġconfident":6804,"ĠEIB":6805,"Ġmarked":6806,"Ġcriminals":6807,"Similarly":6808,"wan":6809,"Ġconve":6810,"NG":6811,"Ġtrain":6812,"Could":6813,"ationally":6814,"Ġbrut":6815,"Ġbrid":6816,"Ġcontaining":6817,"Ġinnoc":6818,"Ġexpertise":6819,"ĠCohesion":6820,"Ġaccountability":6821,"Ġdecline":6822,"Ġprecaution":6823,"Ġunjust":6824,"Ġpresident":6825,"reaching":6826,"Ġanswered":6827,"Ġfoundation":6828,"Ġwithdrawal":6829,"astroph":6830,"pow":6831,"ĠFer":6832,"Ġstakeholders":6833,"Ġwise":6834,"Ġsudden":6835,"sist":6836,"ero":6837,"Ġalbeit":6838,"empl":6839,"Ġapolog":6840,"Ġengine":6841,"Ġfuels":6842,"ashion":6843,"ĠAshton":6844,"lex":6845,"Ġcatastroph":6846,"ĠIM":6847,"Ġprerequis":6848,"Ġindis":6849,"Ġoffices":6850,"ĠReform":6851,"cape":6852,"Ġreporting":6853,"Ġoutlined":6854,"ĠWednesday":6855,"Ġaccounting":6856,"Ġconcludes":6857,"Ġmeantime":6858,"Ġbiofu":6859,"HO":6860,"Ġinvited":6861,"Ġvariety":6862,"ĠIraqi":6863,"Ġxen":6864,"ĠÃ":6865,"ĠCar":6866,"Ġsell":6867,"Ġhour":6868,"Ġhung":6869,"ĠMexic":6870,"Hence":6871,"uries":6872,"Ġdecent":6873,"Ġvisited":6874,"Ġdenied":6875,"Ġviolent":6876,"Ġarrive":6877,"Ġstringent":6878,"nex":6879,"Ġemployed":6880,"Ġconsolidation":6881,"ctic":6882,"ĠAb":6883,"Ġresolving":6884,"holm":6885,"unately":6886,"Ġener":6887,"Ġusually":6888,"ĠIndones":6889,"Ġfit":6890,"Ġneutr":6891,"ĠDoha":6892,"ĠJoh":6893,"Ġeuros":6894,"Ġcast":6895,"Ġfinish":6896,"Ġactors":6897,"ĠColomb":6898,"Nat":6899,"ĠCor":6900,"Ġsold":6901,"ĠAugust":6902,"million":6903,"Ġimprison":6904,"Ġconstrain":6905,"Ġstatute":6906,"ulous":6907,"Ġvit":6908,"Ġsympathy":6909,"Certain":6910,"Ġesc":6911,"Ġpostpon":6912,"Ġnames":6913,"Ġrecital":6914,"Ġproven":6915,"Ġautonomy":6916,"Ġnotes":6917,"ovina":6918,"heugen":6919,"Ġreleased":6920,"Ġtonight":6921,"ĠServices":6922,"ompl":6923,"Ġsight":6924,"Ġbacking":6925,"celer":6926,"Ġorganic":6927,"Ġutil":6928,"ĠScot":6929,"ĠFreedom":6930,"Ġdecentral":6931,"Ġneglect":6932,"ĠRed":6933,"Ġfalling":6934,"apse":6935,"Ġmaintenance":6936,"Ġrecognises":6937,"Ġvisible":6938,"rea":6939,"Ġmodernisation":6940,"Through":6941,"Ġvisas":6942,"Ġageing":6943,"Ġcorresponding":6944,"Ġvirtually":6945,"Ġfemale":6946,"Ã¶m":6947,"Ġregistration":6948,"vote":6949,"stic":6950,"Ġfeatures":6951,"Ġforecast":6952,"Ġsafeguards":6953,"Ġvoters":6954,"Ġfurthermore":6955,"Ġveget":6956,"Ġfifth":6957,"ĠObjective":6958,"eep":6959,"strÃ¶m":6960,"upp":6961,"erion":6962,"Ġatm":6963,"Ġprivacy":6964,"aceutical":6965,"ĠOSCE":6966,"Ġhes":6967,"ney":6968,"ĠLibya":6969,"yes":6970,"Ġcriterion":6971,"Ġirrespon":6972,"venth":6973,"Ġsites":6974,"Ġprime":6975,"Ġincentive":6976,"Ġmonopol":6977,"Ġadequately":6978,"ĠBon":6979,"Ġlearned":6980,"Ġgradual":6981,"riend":6982,"2003":6983,"ĠAlban":6984,"Ġdossier":6985,"Ġacceler":6986,"mann":6987,"Ġconsultations":6988,"Ġrenewed":6989,"ĠPatten":6990,"NS":6991,"esty":6992,"Ġparagraphs":6993,"Ġsubstantially":6994,"Ġfifteen":6995,"rate":6996,"Ġsatell":6997,"Ġdisastrous":6998,"Ġexplanations":6999,"ĠFriday":7000,"ulf":7001,"Ġcutting":7002,"Ġceiling":7003,"Ġendorsed":7004,"Ad":7005,"ressed":7006,"Ġobservations":7007,"ĠDemocratic":7008,"hne":7009,"erland":7010,"Ġhosp":7011,"Ġessence":7012,"respective":7013,"Ġindication":7014,"Ġacted":7015,"Ġphilosoph":7016,"ok":7017,"Ġentering":7018,"zeg":7019,"ĠMs":7020,"Ġdomin":7021,"financing":7022,"Ġfron":7023,"Ġhelps":7024,"Ġrefugee":7025,"11":7026,"Ġpestic":7027,"amed":7028,"Ġhopefully":7029,"whel":7030,"Ġpartnerships":7031,"Ġdevoted":7032,"Ġappointed":7033,"Ġsqu":7034,"Ġbra":7035,"ĠMillennium":7036,"Ġassurance":7037,"Ġscientists":7038,"ĠChairman":7039,"itzerland":7040,"son":7041,"Ġpipe":7042,"oper":7043,"ĠFirst":7044,"Ġcompletion":7045,"Ġmisunder":7046,"Ġclauses":7047,"Ġexecutive":7048,"Part":7049,"ĠSyria":7050,"Ġoverwhel":7051,"Ġconfront":7052,"overed":7053,"ĠLiberals":7054,"Ġfalse":7055,"Ġmal":7056,"Ġargue":7057,"Ġ1992":7058,"haust":7059,"orage":7060,"Ġdied":7061,"ĠCriminal":7062,"Ġproductivity":7063,"Ġconsistently":7064,"Ġcorner":7065,"Ġsurpl":7066,"Ġborne":7067,"Ġapparently":7068,"ĠEducation":7069,"Ġclosure":7070,"pection":7071,"Ġavoided":7072,"Ġbadly":7073,"ĠSolana":7074,"iated":7075,"Ġleaves":7076,"Ġeverywhere":7077,"Ġemerged":7078,"Ġannex":7079,"ĠAlg":7080,"Ġinitially":7081,"ĠRoth":7082,"Ġ37":7083,"Ġpragm":7084,"Ġdismant":7085,"discrimination":7086,"Ġimmunity":7087,"Ġexcuse":7088,"zegovina":7089,"Ġcere":7090,"Ġearm":7091,"Ġtrace":7092,"ruck":7093,"Ġsmooth":7094,"atur":7095,"Ġinquiry":7096,"Ġretire":7097,"sch":7098,"icits":7099,"Ġstric":7100,"ĠSolidarity":7101,"Ġinspection":7102,"Ġdefinitive":7103,"ĠSanter":7104,"Ġpharmaceutical":7105,"UE":7106,"oles":7107,"amentally":7108,"Ġwarn":7109,"Ġfocusing":7110,"Ġtackled":7111,"Ġenables":7112,"utor":7113,"friend":7114,"isen":7115,"Ġpret":7116,"Ġcollapse":7117,"state":7118,"Ġmother":7119,"Ġreper":7120,"Ġevaluate":7121,"Ġirregularities":7122,"iment":7123,"Ġdetention":7124,"Ġreserves":7125,"cient":7126,"Ġgame":7127,"Ġproductive":7128,"Ġreciproc":7129,"Ġinterm":7130,"elled":7131,"Ġprogramming":7132,"Ġdie":7133,"Ġdeficits":7134,"pel":7135,"Ġcha":7136,"Ġmatch":7137,"Ġresort":7138,"Ġcope":7139,"Ġexamining":7140,"ĠScotland":7141,"auth":7142,"ĠPers":7143,"Ġplatform":7144,"ĠFischler":7145,"olved":7146,"Within":7147,"Ġfootball":7148,"Ġcow":7149,"Russia":7150,"Ġprecond":7151,"Ġmeets":7152,"Ġarrived":7153,"Ġstorage":7154,"Ġtransf":7155,"Ġfate":7156,"ulz":7157,"Ġcontinuation":7158,"Ġdamaging":7159,"Ġdemocratically":7160,"uled":7161,"Ġsections":7162,"Ġimperative":7163,"Ġtransform":7164,"aj":7165,"Ġsums":7166,"Ġpresents":7167,"Ġrigorous":7168,"ĠQu":7169,"ĠLebanon":7170,"ĠDecision":7171,"Ġtesting":7172,"ĠCongo":7173,"Ġgrave":7174,"racies":7175,"Ġensured":7176,"Ġrecommended":7177,"Ġexclusive":7178,"10":7179,"Ġstruck":7180,"ounce":7181,"Ġrepression":7182,"ĠVerheugen":7183,"Ġvigil":7184,"Ġvocational":7185,"Ġresponses":7186,"Ġ75":7187,"ĠAnnex":7188,"zen":7189,"Ġsit":7190,"Ġinappropri":7191,"Ġautumn":7192,"how":7193,"Ġfought":7194,"Ġuses":7195,"ĠStockholm":7196,"Naturally":7197,"Ġreperc":7198,"Ġflu":7199,"Ġminor":7200,"Ġembargo":7201,"erted":7202,"pere":7203,"Ġfault":7204,"Ġdisg":7205,"Ġgenerous":7206,"ounded":7207,"Ġvolume":7208,"Ġanx":7209,"Ġaccused":7210,"Ġsett":7211,"Ġmarginal":7212,"friendly":7213,"AN":7214,"Ġprop":7215,"Ġstory":7216,"Ġexplicitly":7217,"Above":7218,"Ġguard":7219,"Ġpersonnel":7220,"Ġsocially":7221,"Ġprecautionary":7222,"Ġstatistical":7223,"Ġdisplay":7224,"Ġrepercussions":7225,"aratory":7226,"idential":7227,"Ġcomputer":7228,"anged":7229,"Ġprogressive":7230,"Ġprescri":7231,"Ġremov":7232,"Ġearn":7233,"Ġadapted":7234,"ĠLiberties":7235,"ĠSlovenia":7236,"dep":7237,"Ġpled":7238,"ĠNor":7239,"Ġexhaust":7240,"ett":7241,"ipher":7242,"GF":7243,"adm":7244,"Ġhazardous":7245,"uster":7246,"Ġadmitted":7247,"Ġheads":7248,"Ġinvestigate":7249,"15":7250,"Ġshift":7251,"ĠGUE":7252,"ĠSwitzerland":7253,"Ġfulfilled":7254,"ĠTampere":7255,"Ġmiddle":7256,"Ġdisadvantaged":7257,"ĠSup":7258,"ĠBush":7259,"Ġfundamentally":7260,"ivered":7261,"Ġdesired":7262,"Ġexemption":7263,"aire":7264,"Ġforestry":7265,"Ġlists":7266,"Ġexposed":7267,"Ġenshrined":7268,"NGL":7269,"Ġwall":7270,"Ġflights":7271,"Ġdistur":7272,"ĠGMOs":7273,"sen":7274,"uk":7275,"Ġsimplified":7276,"Ġdeny":7277,"Ġdemocratisation":7278,"Ġcomponent":7279,"ileo":7280,"Ġsoldi":7281,"Ġlaying":7282,"Ġsoldiers":7283,"Ġast":7284,"Ġdelivered":7285,"Ġhomes":7286,"ala":7287,"Ġlingu":7288,"Ġdele":7289,"Ġnotion":7290,"Ġexploit":7291,"Ne":7292,"ashing":7293,"qual":7294,"Ġteleph":7295,"Ġunres":7296,"Ġlifelong":7297,"Ġparticipants":7298,"Ġerrors":7299,"Ġlogic":7300,"Ġremoval":7301,"Ġdispar":7302,"Ġtwice":7303,"Ġmilit":7304,"ustrial":7305,"Ġattractive":7306,"Ġfashion":7307,"ĠTechn":7308,"Ġinternationally":7309,"Ġwherever":7310,"Ġscar":7311,"emocratic":7312,"Ġattached":7313,"Ġhandling":7314,"Ġconsolidate":7315,"Ġfindings":7316,"Ġenabled":7317,"keeping":7318,"IV":7319,"ĠInformation":7320,"Ġpreparatory":7321,"Ġseekers":7322,"Ġreaffirm":7323,"De":7324,"ko":7325,"Ġincred":7326,"Ġpresidential":7327,"Ġinspections":7328,"itology":7329,"ĠConf":7330,"Ġopenly":7331,"Ġsurprise":7332,"author":7333,"Ġtransferred":7334,"Would":7335,"Ġinitiated":7336,"Ġobstacle":7337,"uv":7338,"Ġmanif":7339,"inki":7340,"ĠVi":7341,"elsinki":7342,"Ġdetriment":7343,"Ġalarming":7344,"Ġconvey":7345,"Ġmultiannual":7346,"Ġpraise":7347,"SK":7348,"Ġresearchers":7349,"ALE":7350,"Tur":7351,"Ġsale":7352,"ĠInstitute":7353,"Ġhospital":7354,"Ġpace":7355,"Ġserves":7356,"ooks":7357,"ĠIranian":7358,"asion":7359,"ĠBang":7360,"Ġownership":7361,"initiative":7362,"Ġfrag":7363,"Ġaccompl":7364,"Ġ1993":7365,"Ġminds":7366,"Ġsports":7367,"Ġstricter":7368,"06":7369,"Ġseat":7370,"Ġfoodstuffs":7371,"Ġsilence":7372,"Ġroutes":7373,"Ġended":7374,"2004":7375,"law":7376,"Ġislands":7377,"Ġobjections":7378,"Ġoriginally":7379,"ER":7380,"Ġbul":7381,"Ġinse":7382,"Ġspeculation":7383,"Ġwished":7384,"pens":7385,"ĠHelsinki":7386,"cul":7387,"Ġstick":7388,"ibly":7389,"Ġdependence":7390,"Ġrecycling":7391,"25":7392,"Ġattain":7393,"Ġinevitably":7394,"Ġplanet":7395,"Ġfallen":7396,"Ġconstituency":7397,"Ġrob":7398,"Ġdoll":7399,"Ġpressing":7400,"ĠUSD":7401,"Ġfacility":7402,"Ġaccurate":7403,"ĠRomanian":7404,"Ġoverwhelming":7405,"Ġtrem":7406,"Ġdisse":7407,"Ġassured":7408,"Ġapplaud":7409,"Ġearthqu":7410,"ustain":7411,"Whilst":7412,"aiwan":7413,"DF":7414,"ria":7415,"isual":7416,"Ġcultiv":7417,"Ġinequalities":7418,"Ġbiofuels":7419,"xic":7420,"agement":7421,"pin":7422,"Ġwestern":7423,"eds":7424,"Ġsuspic":7425,"Article":7426,"Ġnarrow":7427,"Ġcivilians":7428,"Ġposts":7429,"Ġprincipal":7430,"Ġinnocent":7431,"Ġinappropriate":7432,"Ġtitle":7433,"iest":7434,"ĠGreat":7435,"Ġappalling":7436,"Ġdesper":7437,"Ġconstraints":7438,"fur":7439,"tt":7440,"Fourthly":7441,"Ġwholeheartedly":7442,"Ġpays":7443,"Ġpillars":7444,"Ġpotentially":7445,"sych":7446,"Ġirrespective":7447,"ommod":7448,"Ġgenerate":7449,"Ġenterprise":7450,"Ġburdens":7451,"Ġmonopoly":7452,"iovisual":7453,"Ġfing":7454,"rov":7455,"Ġdistance":7456,"Ġcomparable":7457,"Ġlinguistic":7458,"inian":7459,"Ġtape":7460,"Ġpractically":7461,"Ġassessing":7462,"icing":7463,"ulates":7464,"Ġshipping":7465,"Ġcoinc":7466,"Ġempt":7467,"Ġpersecution":7468,"ĠAlgeria":7469,"Ġbroadly":7470,"Ġproducer":7471,"Everyone":7472,"ares":7473,"Ġharmonise":7474,"Ġtelling":7475,"Ġdiscipline":7476,"Ġaccommod":7477,"Ġgenoc":7478,"Ġdetain":7479,"Ġcriticisms":7480,"Ġrecorded":7481,"Ġfloods":7482,"Ġvary":7483,"ĠFederal":7484,"Ġfeature":7485,"Ġhorizontal":7486,"Ġdisabilities":7487,"ĠFron":7488,"being":7489,"anas":7490,"Ġsystematically":7491,"ariat":7492,"Ġmanifest":7493,"erate":7494,"esides":7495,"Ġmissions":7496,"ilty":7497,"ĠCypri":7498,"Ġcomitology":7499,"Ġconcessions":7500,"ĠFl":7501,"Ġbases":7502,"Ġ45":7503,"Ġsurvival":7504,"Ġoffic":7505,"ĠSchulz":7506,"ĠVerts":7507,"ĠKurdish":7508,"Ġbench":7509,"ĠEur":7510,"Ġdemanded":7511,"Ġclosing":7512,"Ġstopped":7513,"ĠIslam":7514,"Ġtremend":7515,"Ġstating":7516,"Ġadult":7517,"ĠBol":7518,"Ġcharacterised":7519,"icking":7520,"osphere":7521,"Ġinstall":7522,"Ġplacing":7523,"Ġautomatically":7524,"ĠPri":7525,"Ġincidents":7526,"Ġremained":7527,"Ġdonors":7528,"ĠTimor":7529,"oet":7530,"xual":7531,"Ġbook":7532,"Ġtuna":7533,"ba":7534,"Ġpsych":7535,"Ġcomposition":7536,"Ġcomplied":7537,"Ġsubjected":7538,"Ġmorator":7539,"Ġmedicinal":7540,"Ġtransposition":7541,"Ġcolon":7542,"Ġlabel":7543,"Ġstimulate":7544,"Ġretirement":7545,"Ġappreciation":7546,"ĠGalileo":7547,"med":7548,"Ġarbitr":7549,"Ġguilty":7550,"Ġadjustment":7551,"oke":7552,"Ġsem":7553,"ald":7554,"Ġbiotechn":7555,"Ġunit":7556,"Ġdeciding":7557,"Ġmarks":7558,"ĠHar":7559,"Ġtopical":7560,"Ã³n":7561,"Ġcontributes":7562,"Ġfragment":7563,"Ġadaptation":7564,"arious":7565,"Ġonto":7566,"ĠVienna":7567,"Ġblue":7568,"Ġreferences":7569,"Ġworried":7570,"Ġplain":7571,"Ġroot":7572,"Ġassessed":7573,"right":7574,"Ġabort":7575,"Ġparad":7576,"ĠYouth":7577,"depth":7578,"employed":7579,"ĠGar":7580,"Ġlesson":7581,"Ġdeadlines":7582,"Ġthoroughly":7583,"Ġdispro":7584,"Ġgrants":7585,"lusive":7586,"Ġpassport":7587,"Ġvictory":7588,"Ġtravelling":7589,"Ġpunishment":7590,"Ġtransfers":7591,"Som":7592,"Ġrelief":7593,"Ġ36":7594,"Ġcoordinating":7595,"Ġintelligent":7596,"Ġhunger":7597,"establish":7598,"vy":7599,"ware":7600,"reced":7601,"Ġbottom":7602,"Ġsatellite":7603,"stan":7604,"Ġprotectionism":7605,"Ġformally":7606,"Ġbanana":7607,"ĠBÃ¶":7608,"ĠBrok":7609,"Ġchannels":7610,"Ġhot":7611,"Ġinterference":7612,"teneg":7613,"2005":7614,"Ġsensit":7615,"ĠSah":7616,"Ġcouncil":7617,"ernity":7618,"Ġeveryday":7619,"Ġideological":7620,"Ġcriticised":7621,"ĠLatvia":7622,"nam":7623,"lymp":7624,"Ġrefusal":7625,"Ġwake":7626,"Ġwithdrawn":7627,"Ġmoratorium":7628,"oness":7629,"ĠMos":7630,"rates":7631,"ĠAIDS":7632,"Ġdecade":7633,"Ġcamps":7634,"Ġemot":7635,"Ġdelicate":7636,"Ġmine":7637,"ĠMexico":7638,"water":7639,"Ġunpreced":7640,"Ġincomes":7641,"Ġcancell":7642,"acerb":7643,"Ġzero":7644,"rum":7645,"ĠMich":7646,"Inc":7647,"ĠOlymp":7648,"Ġreminded":7649,"Ġauthorised":7650,"Among":7651,"Ġexacerb":7652,"Ġtopics":7653,"ĠEl":7654,"ĠPh":7655,"Ġrh":7656,"Ġoffences":7657,"Ġpatient":7658,"Ġgir":7659,"Ġavoiding":7660,"Ġobtaining":7661,"irty":7662,"ĠDan":7663,"Ġinsp":7664,"Ġillness":7665,"Ġcontradiction":7666,"ĠChristians":7667,"Ġtempt":7668,"Ġstream":7669,"estock":7670,"ivestock":7671,"Ġarises":7672,"mitting":7673,"Ġembry":7674,"Ġtowns":7675,"Ġatmosphere":7676,"Ġgenocide":7677,"Ġconform":7678,"Ġarrested":7679,"band":7680,"Ġarticles":7681,"Ġwars":7682,"Ġestimates":7683,"Ġscheduled":7684,"Ġbeneficiaries":7685,"Ġrace":7686,"Ġrealised":7687,"Ġcorporate":7688,"Ġdemonstration":7689,"Ġemphasize":7690,"Ġunprecedented":7691,"ĠQ":7692,"Ġfer":7693,"umb":7694,"ĠTaiwan":7695,"ĠDim":7696,"Ġphr":7697,"Ġunderest":7698,"Ġera":7699,"ivoc":7700,"Ġdiffer":7701,"ĠKar":7702,"ĠArmen":7703,"Ġdepth":7704,"Ġreviewed":7705,"ĠMcC":7706,"Ġborn":7707,"stat":7708,"Ġkill":7709,"LT":7710,"Ġconj":7711,"ĠCaucas":7712,"ifiable":7713,"undering":7714,"Ġisolation":7715,"enses":7716,"innock":7717,"Ġanywhere":7718,"ificial":7719,"Ġmodest":7720,"Ġconscience":7721,"ili":7722,"ĠPos":7723,"ĠGuine":7724,"Ġfacilitating":7725,"ĠGlobalisation":7726,"Ġol":7727,"Ġreun":7728,"ĠFederation":7729,"Ġconfron":7730,"Ġdatab":7731,"Ġremarkable":7732,"Ġmainstream":7733,"Ġpassing":7734,"Ġsteel":7735,"with":7736,"ĠX":7737,"ĠCode":7738,"Ġinstability":7739,"Ġpublish":7740,"Ġpersuade":7741,"tra":7742,"Ġthrow":7743,"Ġstresses":7744,"Ġheavily":7745,"Ġxenophobia":7746,"Ġclarified":7747,"lihood":7748,"gent":7749,"organ":7750,"ils":7751,"Ġconsists":7752,"tini":7753,"ĠMan":7754,"conn":7755,"aly":7756,"ĠEr":7757,"Ġlivestock":7758,"ĠBlack":7759,"Ġanalyse":7760,"Ġdur":7761,"Ġthirdly":7762,"Ġnormally":7763,"Ġabolish":7764,"Ġaudiovisual":7765,"Ġendang":7766,"Ġarrangement":7767,"Ġfoster":7768,"Ġthinks":7769,"Ġinput":7770,"Ġtrends":7771,"uber":7772,"Ġdeem":7773,"Ġworkforce":7774,"tex":7775,"Ġorganization":7776,"Ġcreative":7777,"ietnam":7778,"iguous":7779,"Ġprerequisite":7780,"ĠEstonia":7781,"mail":7782,"Ġball":7783,"Ġmort":7784,"oli":7785,"Ġresc":7786,"Ġaddresses":7787,"Ġcattle":7788,"Ġwitnessed":7789,"Ġindispens":7790,"Ġempty":7791,"Ġdual":7792,"Ġassert":7793,"Ġindicates":7794,"Ġultimate":7795,"Ġimperial":7796,"Ġreinforced":7797,"ano":7798,"Ġabolished":7799,"tenegro":7800,"Ġgoverned":7801,"Ġdifferently":7802,"Ġinvesting":7803,"att":7804,"Ġreturned":7805,"Ġdisadvantage":7806,"Ġsustained":7807,"Ġpremium":7808,"Ġdiverse":7809,"ĠMadrid":7810,"jour":7811,"Ġscept":7812,"Ġgases":7813,"Ġregistered":7814,"Conc":7815,"Ġirresponsible":7816,"IP":7817,"issible":7818,"Ġkil":7819,"Ġidentification":7820,"Ġmisle":7821,"rading":7822,"Ġquantity":7823,"ki":7824,"Ġacced":7825,"Ġsolving":7826,"Ġdescribe":7827,"iant":7828,"ultural":7829,"Ġdisarm":7830,"airy":7831,"Ġindispensable":7832,"ensions":7833,"Ġpick":7834,"Ġreverse":7835,"Ġpointing":7836,"rehensible":7837,"Ġartificial":7838,"Ġ32":7839,"ography":7840,"Ġexclude":7841,"Tr":7842,"oration":7843,"rage":7844,"Should":7845,"Ġpesticides":7846,"Ġwebs":7847,"Ġrecover":7848,"Ġglob":7849,"Com":7850,"board":7851,"ĠAsian":7852,"Ġcontra":7853,"Ġfoods":7854,"Ġconnect":7855,"enous":7856,"Ġensures":7857,"ECD":7858,"Ġaccompany":7859,"Ġdisproportion":7860,"Ġemphasises":7861,"Ġconcepts":7862,"Ġlicences":7863,"Ġcycle":7864,"kers":7865,"oting":7866,"Ġdear":7867,"ĠHague":7868,"Ġroll":7869,"Ġadding":7870,"ĠKinnock":7871,"Ġresponding":7872,"Ġenjoyed":7873,"Ġisolated":7874,"Ġaccus":7875,"Ġinterventions":7876,"Ġpropag":7877,"zz":7878,"ĠThere":7879,"Ġsees":7880,"Ġmap":7881,"Ġorientation":7882,"Ġcaught":7883,"ĠNordic":7884,"ĠRE":7885,"Ġserved":7886,"Ġremit":7887,"Ġattempting":7888,"Ġsatisfy":7889,"ĠCaucasus":7890,"Ġtoxic":7891,"Ġintegral":7892,"urch":7893,"Ġpublicly":7894,"Ġlicence":7895,"ĠHamas":7896,"ids":7897,"Ġends":7898,"Ġwonderful":7899,"ĠHaiti":7900,"Ġdisparities":7901,"ales":7902,"Ġconvict":7903,"Ġbelieved":7904,"Spe":7905,"iasm":7906,"ola":7907,"owski":7908,"aded":7909,"usiness":7910,"Ġposed":7911,"Ġaffair":7912,"ĠMonti":7913,"ĠCFSP":7914,"oeuv":7915,"Ġmonopolies":7916,"olly":7917,"Ġshock":7918,"Ġexpenses":7919,"Ġrecognising":7920,"Ġillegally":7921,"COD":7922,"uble":7923,"inations":7924,"cho":7925,"Ġ33":7926,"Ġcombination":7927,"ipped":7928,"Ġmun":7929,"addam":7930,"Ġtranslation":7931,"Ġwhenever":7932,"Ġstrange":7933,"orously":7934,"orient":7935,"Ġassembly":7936,"ocial":7937,"Ġavailability":7938,"olitical":7939,"mas":7940,"Ġmix":7941,"ĠRo":7942,"Ġmoves":7943,"ĠCongress":7944,"utors":7945,"Ġmanoeuv":7946,"ĠLaw":7947,"akis":7948,"ĠDemocrat":7949,"Ġstrikes":7950,"Ġours":7951,"Ġdairy":7952,"ovation":7953,"Ġmessages":7954,"Ġcriticise":7955,"Ġunequivoc":7956,"deter":7957,"Ġgather":7958,"rier":7959,"Ġmaybe":7960,"Ġremoving":7961,"Ġenthusiasm":7962,"Ġmental":7963,"Ġaspirations":7964,"Apart":7965,"LO":7966,"Ġrecession":7967,"ĠTra":7968,"Ġstrive":7969,"Ġ400":7970,"Ġcondemnation":7971,"Ġliter":7972,"Ġvon":7973,"mense":7974,"idden":7975,"Ġfooting":7976,"Ġdisgrace":7977,"view":7978,"icip":7979,"ĠEco":7980,"Ġincur":7981,"Ġadvances":7982,"Ġtotalitarian":7983,"Ġdivide":7984,"Ġinevitable":7985,"Ġenergies":7986,"ĠHIV":7987,"Ġencouragement":7988,"Ġsurprising":7989,"Ġprecedent":7990,"ros":7991,"Ġnav":7992,"Ġdoors":7993,"stone":7994,"Ġimmense":7995,"Ġcommod":7996,"justment":7997,"Ġinequality":7998,"Ġinconsist":7999,"Ġfleets":8000,"Ġpoorer":8001,"isations":8002,"iciency":8003,"Ġfeels":8004,"tiers":8005,"ĠThey":8006,"ĠCl":8007,"osystem":8008,"Ġgenetic":8009,"Ġconfirms":8010,"Ġdemocracies":8011,"Ġgets":8012,"Ġlowest":8013,"Ġsecuring":8014,"ĠASE":8015,"Ġinstruct":8016,"Ġpatents":8017,"Ġmanufacturing":8018,"Ġclaimed":8019,"Ġfrankly":8020,"ĠArctic":8021,"Ġearmarked":8022,"Ind":8023,"rorism":8024,"Ġappeared":8025,"Ġrelationships":8026,"Ġphilosophy":8027,"Ġfinger":8028,"ushing":8029,"Ġpromotes":8030,"ĠIN":8031,"Ġparliamentarians":8032,"Ġvent":8033,"Ġdrinking":8034,"Ġdrop":8035,"Ġrecognize":8036,"Ġabsor":8037,"ĠPrize":8038,"llor":8039,"Ġtransnational":8040,"Ġemerge":8041,"Ġremote":8042,"ĠVietnam":8043,"etor":8044,"Ġunb":8045,"Ġdisplaced":8046,"Ãł":8047,"irds":8048,"Ġcombine":8049,"ĠSecond":8050,"Ġecosystem":8051,"ioned":8052,"Ġ48":8053,"Ġcivilisation":8054,"Ġinterpreted":8055,"Ġcompr":8056,"Ġlocation":8057,"iously":8058,"Ġorganized":8059,"Ġgrass":8060,"itudes":8061,"Ġmultinationals":8062,"arsh":8063,"Ġaudit":8064,"Turkey":8065,"ĠES":8066,"Ġfocuses":8067,"Ġsmoking":8068,"IA":8069,"ĠDav":8070,"Ġformula":8071,"Ġoppon":8072,"Ġfaces":8073,"Ġpublication":8074,"Ġbroken":8075,"Until":8076,"Ġgratitude":8077,"amo":8078,"Ġpreferred":8079,")]":8080,"bes":8081,"Ġprud":8082,"Ġ34":8083,"Ġdonor":8084,"Ġpetition":8085,"Ġindirectly":8086,"Women":8087,"icable":8088,"Ġelimination":8089,"ustainable":8090,"Ġtremendous":8091,"Ġvague":8092,"Ġrequiring":8093,"Ġoccupied":8094,"iot":8095,"Ġing":8096,"Ġyield":8097,"Ġsafer":8098,"Ġlimiting":8099,"Ġexert":8100,"Ġlays":8101,"sider":8102,"vic":8103,"Ġaiming":8104,"ĠNigeria":8105,"Ġroots":8106,"iciary":8107,"Ġhandled":8108,"Ġwarming":8109,"ipheral":8110,"gments":8111,"ranging":8112,"Ġworkplace":8113,"Ġconvincing":8114,"yright":8115,"Ġslaughter":8116,"12":8117,"elve":8118,"obod":8119,"Ġthreatening":8120,"Ġdiagn":8121,"Each":8122,"turn":8123,"Ġconfidential":8124,"Ġconcluding":8125,"Cons":8126,"Ġdioxide":8127,")).":8128,"Ġepid":8129,"Ġsubs":8130,"Ġpostponed":8131,"ourse":8132,"Ġpragmatic":8133,"elations":8134,"Ġsignals":8135,"Ġdelayed":8136,"Ġdedicated":8137,"Ġintr":8138,"Ġattrib":8139,"ĠYork":8140,"Ġexploited":8141,"Ġrhetor":8142,"CNS":8143,"Ġsectoral":8144,"Ġdoctors":8145,"ĠMosc":8146,"ault":8147,"osevic":8148,"Ġpositively":8149,"Ġintelligence":8150,"ĠParis":8151,"enth":8152,"berg":8153,"Ġunits":8154,"Ġperce":8155,"ĠHowever":8156,"Ġconjunction":8157,"ĠSom":8158,"ancellor":8159,"Cl":8160,"ĠBu":8161,"Ġharmonization":8162,"Ġcalm":8163,"Ġremedy":8164,"Ġpreference":8165,"Ġexpressly":8166,"Ġsurvive":8167,"Ġsacrific":8168,"eken":8169,"embers":8170,"ĠHol":8171,"Ġregulating":8172,"Ġabandoned":8173,"ĠEcofin":8174,"Ġonline":8175,"Ġbananas":8176,"Ġquantities":8177,"contro":8178,"ĠColombia":8179,"atch":8180,"Ġuphe":8181,"ĠBaroness":8182,"ijing":8183,"Ġteachers":8184,"II":8185,"fire":8186,"Ġpose":8187,"ama":8188,"ĠRec":8189,"Ġaccepts":8190,"Ġsecondary":8191,"Ġmanag":8192,"cury":8193,"Ġcul":8194,"ĠSen":8195,"ĠDep":8196,"Ġurged":8197,"ĠEurostat":8198,"Ġdriven":8199,"uel":8200,"Ġvill":8201,"Ġinitiate":8202,"Ġunderstandable":8203,"Ġintegrating":8204,"liers":8205,"Ġinterpre":8206,"Ġsuspension":8207,"Ġutter":8208,"assion":8209,"ĠDar":8210,"Ġinvested":8211,"Ġencourages":8212,"Ġjudiciary":8213,"Ġveto":8214,"Ġpity":8215,"Ġproblematic":8216,"Ġviolated":8217,"Ġ95":8218,"Ġfeasible":8219,"ĠFrontex":8220,"ole":8221,"Ġshar":8222,"ĠOECD":8223,"Ġadministrations":8224,"Ġbiological":8225,"ĠNeighbour":8226,"Ġcells":8227,"Ġpipeline":8228,"rass":8229,"Ġdup":8230,"Yesterday":8231,"Ġweaknesses":8232,"tical":8233,"Ġstead":8234,"ĠSpecial":8235,"ĠSaddam":8236,"ĠConciliation":8237,"Ġcontrolling":8238,"back":8239,"ĠAir":8240,"Ġdetermining":8241,"Ġswitch":8242,"ĠAdjustment":8243,"Ġprivatisation":8244,"ani":8245,"Thanks":8246,"Ġplayer":8247,"ĠMontenegro":8248,"Ġbrutal":8249,"Neither":8250,"His":8251,"agn":8252,"Ġsymbolic":8253,"ĠPap":8254,"ĠTAC":8255,"Ġenforced":8256,"ĠIMF":8257,"Im":8258,"celand":8259,"Ġspecified":8260,"izes":8261,"Ġawait":8262,"Ġlag":8263,"Ġacad":8264,"Ġresolute":8265,"Ġcomplaint":8266,"Ġunsatisf":8267,"Ġbroadcasting":8268,"Ġoutbre":8269,"ĠProcess":8270,"ĠLaeken":8271,"Ġfaster":8272,"Ġsuppliers":8273,"Quite":8274,"Pre":8275,"Ġagents":8276,"Ġextrad":8277,"Ġsmug":8278,"Ġflight":8279,"Ġholid":8280,"idity":8281,"ĠSal":8282,"Ġliqu":8283,"Ġ38":8284,"Ġholds":8285,"Ġzones":8286,"Ġadjustments":8287,"existence":8288,"ĠGuinea":8289,"Ġ196":8290,"paper":8291,"Ġruns":8292,"Ġannouncement":8293,"ĠIndonesia":8294,"Ġsheep":8295,"Ġshortage":8296,"Ġbanning":8297,"Ġcomplexity":8298,"rop":8299,"Ġprofessionals":8300,"Ġpriorit":8301,"Ġimbalances":8302,"ario":8303,"accession":8304,"Ġreluct":8305,"asmus":8306,"ĠCamb":8307,"Ġclub":8308,"abe":8309,"Ġestablishes":8310,"Ġconcentrated":8311,"Ġradioactive":8312,"iers":8313,"Ġmines":8314,"ĠNet":8315,"Ġcomponents":8316,"Ġingred":8317,"ultane":8318,"ĠBalkan":8319,"EA":8320,"usse":8321,"Ġinvitation":8322,"Ġdeliberately":8323,"ĠNeighbourhood":8324,"icism":8325,"urt":8326,"Ġdisappointment":8327,"Co":8328,"Fort":8329,"Vice":8330,"paration":8331,"ĠCom":8332,"Ġmerit":8333,"08":8334,"Ġallev":8335,"Ġscra":8336,"Ġgenerated":8337,"akers":8338,"Ġpreservation":8339,"Ġdevote":8340,"Ġhesit":8341,"oboda":8342,"Ġunified":8343,"Ġbacked":8344,"Ġ150":8345,"power":8346,"met":8347,"Ġiron":8348,"Ġmig":8349,"Ġseparation":8350,"ĠResolution":8351,"Ġimplies":8352,"ACH":8353,"Concern":8354,"Ġbill":8355,"rattini":8356,"Ġhalt":8357,"Ġuniversity":8358,"Ġconsc":8359,"ressing":8360,"Ġsimplifying":8361,"Ġinhuman":8362,"ĠBeijing":8363,"Ġsplit":8364,"ĠMilosevic":8365,"mall":8366,"Ġshop":8367,"Ġguide":8368,"Ġminors":8369,"Ġrejecting":8370,"Ġtraceability":8371,"atri":8372,"itect":8373,"ĠCot":8374,"Ġalter":8375,"Ġanalyses":8376,"Ġspectrum":8377,"ĠGoals":8378,"Certainly":8379,"Ġfragile":8380,"Ġhide":8381,"Ġecho":8382,"Ġstation":8383,"Ġdefended":8384,"Ġsadly":8385,"ashington":8386,"Bar":8387,"petition":8388,"Ġexecution":8389,"Ġbelonging":8390,"Ġtransmission":8391,"Ġrenewal":8392,"Appro":8393,"inate":8394,"osexual":8395,"Ġknowing":8396,"Ġdemonstrations":8397,"Ġenhancing":8398,"Ġcofinancing":8399,"Ġdecomm":8400,"ĠDG":8401,"Ġcirculation":8402,"Ġacquired":8403,"Ġmobilisation":8404,"Ġdupl":8405,"Ġunsatisfactory":8406,"Ġmacroeconomic":8407,"ĠFerre":8408,"ĠPerspective":8409,"Ġcontinuous":8410,"RE":8411,"enko":8412,"Ġporn":8413,"Ġseas":8414,"Ġsimultane":8415,"Ġexisted":8416,"itherto":8417,"Ġresponded":8418,"ĠMuslim":8419,"ĠThese":8420,"Ġblow":8421,"Ġselection":8422,"ĠBoard":8423,"Ġinteroper":8424,"Ġthreaten":8425,"Ġentails":8426,"ĠSIS":8427,"acing":8428,"Ġcopyright":8429,"Ġtelephone":8430,"iful":8431,"China":8432,"Ġmedicine":8433,"Ġeligible":8434,"Ġarchitect":8435,"vo":8436,"Ġseemed":8437,"Ġcaut":8438,"Anyone":8439,"market":8440,"Ġsupr":8441,"Ġresidents":8442,"Ġunderpin":8443,"Ġstabilisation":8444,"Ġdeprived":8445,"Ġpluralism":8446,"Ġlawyers":8447,"Ġsurplus":8448,"Ġgirls":8449,"US":8450,"Ġties":8451,"Ġreb":8452,"ĠKong":8453,"ika":8454,"Ġdiplomacy":8455,"urrent":8456,"Ġarisen":8457,"Ġending":8458,"ĠWashington":8459,"Ġwishing":8460,"40":8461,"Ġexpos":8462,"Ġmagn":8463,"Ġincap":8464,"Ġformulated":8465,"Ġtrouble":8466,"Ġsupran":8467,"ĠOn":8468,"Ġseats":8469,"Ġtourist":8470,"Ġsalaries":8471,"call":8472,"Ġbears":8473,"ĠCommunities":8474,"ĠBut":8475,"ĠOs":8476,"Ġlocated":8477,"Ġintolerable":8478,"95":8479,"Human":8480,"Ġoutl":8481,"Ġgrown":8482,"ĠChancellor":8483,"Ġaffirm":8484,"Ġretail":8485,"Questions":8486,"ĠBlair":8487,"Ġderogation":8488,"Ġscarce":8489,"Ġtheory":8490,"ĠPer":8491,"acio":8492,"ĠColle":8493,"ĠDarfur":8494,"cile":8495,"Ġtensions":8496,"Ġridic":8497,"Ġcloning":8498,"Ġfishery":8499,"Ġpreserving":8500,"Ġsubstantive":8501,"Ġundermining":8502,"Ġodd":8503,"ustration":8504,"Ġapproving":8505,"ĠArticles":8506,"Community":8507,"Ġhoping":8508,"Ġworker":8509,"Ġjourney":8510,"determination":8511,"cos":8512,"Ġconsolidated":8513,"Ġfeeding":8514,"ĠFreedoms":8515,"Ġsupranational":8516,"ker":8517,"Ġboy":8518,"Ġtabling":8519,"Ġissuing":8520,"kest":8521,"Ġunamb":8522,"Ġmarking":8523,"ĠBarn":8524,"Ġbooks":8525,"Ġintense":8526,"Ġreproductive":8527,"Ġguidance":8528,"Ġexemptions":8529,"Ġconceal":8530,"Ġtension":8531,"ĠCam":8532,"Ġproves":8533,"Ġoperates":8534,"Ġcommunicate":8535,"Ġfulfilling":8536,"Ġeliminating":8537,"Ġderogations":8538,"omÃ©":8539,"Ġprostitution":8540,"Ġmomentum":8541,"Ġmercury":8542,"Ġdates":8543,"Ġderegulation":8544,"oren":8545,"Ġreforming":8546,"Ġairline":8547,"erba":8548,"risy":8549,"Ġearthquake":8550,"Ġresign":8551,"Ġchamp":8552,"ĠTe":8553,"Ġindications":8554,"rame":8555,"uesday":8556,"Ġreactions":8557,"Ġbreed":8558,"coni":8559,"Ġswiftly":8560,"gs":8561,"Ġluck":8562,"ray":8563,"Ġmanip":8564,"Ġorganising":8565,"Ġcrew":8566,"Ġaccountable":8567,"Ġjudges":8568,"ĠSwoboda":8569,"Ġdefinitions":8570,"Ġelectorate":8571,"Ġcensure":8572,"roup":8573,"Ġasks":8574,"ĠLadies":8575,"Ġdefe":8576,"Ġ42":8577,"Ġdetrimental":8578,"ĠForum":8579,"ĠCambod":8580,"Ġrect":8581,"Ġpensioners":8582,"Ġabortion":8583,"Ġdecommission":8584,"kestein":8585,"NP":8586,"ician":8587,"igenous":8588,"Ġ2015":8589,"Ġcruel":8590,"Ġofficially":8591,"Ġexplanatory":8592,"ĠGuant":8593,"Ġblocked":8594,"Ġflags":8595,"Ġmisleading":8596,"Ġsocialist":8597,"Ġcarriers":8598,"Ġescape":8599,"Ġgrand":8600,"Ġadvocates":8601,"Ġhypocrisy":8602,"ĠAlbanian":8603,"ĠOlympic":8604,"Ġsensitivity":8605,"ĠHong":8606,"Ġfamous":8607,"Ġpackaging":8608,"Ġweekend":8609,"Ġcustomers":8610,"Ġdistortions":8611,"Ġinfringements":8612,"Ġpurchase":8613,"ige":8614,"Ġenrich":8615,"aces":8616,"Ġdepending":8617,"inistration":8618,"Ġlisted":8619,"Ġsubsidy":8620,"Ġmerits":8621,"Ġlearnt":8622,"Ġnewspaper":8623,"ĠChristmas":8624,"Ġthoughts":8625,"Ġdemonstrating":8626,"Ġstreets":8627,"roots":8628,"Ġnoticed":8629,"Report":8630,"Ġknew":8631,"Coun":8632,"Ġaro":8633,"ĠIceland":8634,"ador":8635,"Ġattended":8636,"Ġreput":8637,"Ġhyd":8638,"Ġdismiss":8639,"Ġcertific":8640,"Ġredundancies":8641,"Ġrecruit":8642,"Ġimpart":8643,"Ġworthwhile":8644,"ĠOrganization":8645,"Ġrevealed":8646,"ĠMoscow":8647,"seen":8648,"Ġgaps":8649,"ĠPack":8650,"ĠHusse":8651,"Ġunderlined":8652,"develop":8653,"Ġauthors":8654,"Ġcontinuity":8655,"Ġdomain":8656,"Ġbiotechnology":8657,"resp":8658,"Ġexempl":8659,"Ġministerial":8660,"Ġreassure":8661,"Ġneutral":8662,"Ġfrontiers":8663,"Ġhat":8664,"Ġformed":8665,"Ġcapacities":8666,"Ġmassac":8667,"Ġwave":8668,"ĠIT":8669,"Ġdiscover":8670,"ildren":8671,"Sch":8672,"Ġsuddenly":8673,"Ġdisability":8674,"Ġfinds":8675,"Ġexpresses":8676,"Ġreconcile":8677,"Ġsummary":8678,"Ġcourageous":8679,"Ġtendency":8680,"Ġtariffs":8681,"ĠRound":8682,"Ġrefusing":8683,"Ġtransportation":8684,"Ġpursuit":8685,"Ġdisappointing":8686,"ky":8687,"Ġinland":8688,"rown":8689,"icating":8690,"Ġbeaut":8691,"Ġwanting":8692,"ĠKh":8693,"ĠIslands":8694,"ĠSerbian":8695,"Ġbreaches":8696,"ĠHussein":8697,"anen":8698,"Ġgam":8699,"Ġ55":8700,"Ġdynam":8701,"Ġdistinguish":8702,"Ġinsecurity":8703,"Ġarbitrary":8704,"sess":8705,"Ġtoys":8706,"Ġnationality":8707,"Ġfinancially":8708,"Ġoptimistic":8709,"ien":8710,"iny":8711,"reening":8712,"istrib":8713,"Ġcos":8714,"Ġda":8715,"eters":8716,"Ġobjection":8717,"Ġ149":8718,"Ġcoalition":8719,"Ġautonomous":8720,"erm":8721,"Ġattitudes":8722,"Ġidentifying":8723,"Ġveter":8724,"New":8725,"Ġwis":8726,"Ġmixed":8727,"ĠArea":8728,"Ġwors":8729,"Ġdeterioration":8730,"Trans":8731,"atom":8732,"Ġenem":8733,"Ġcoins":8734,"Ġnewly":8735,"Ġrefund":8736,"Ġincorrect":8737,"Ġlengthy":8738,"Ġ65":8739,"Ġjudgments":8740,"Ġalleged":8741,"Ġredundant":8742,"Ġintermedi":8743,"Ġpropaganda":8744,"ched":8745,"Ġawaiting":8746,"Ġadvocated":8747,"ĠHerzegovina":8748,"ĠBarnier":8749,"Ġtick":8750,"ita":8751,"Ġlend":8752,"Ġsuccesses":8753,"Ġofficers":8754,"asp":8755,"kel":8756,"aping":8757,"Ġoffence":8758,"ĠVal":8759,"Ġcareer":8760,"Ġdelivery":8761,"Ġdistinct":8762,"Ġopponents":8763,"fall":8764,"Ġsenior":8765,"Ġacquire":8766,"Ġvigilant":8767,"aper":8768,"Ġselling":8769,"ĠUkrainian":8770,"Ġcounterfeiting":8771,"Ġscenario":8772,"Ġpig":8773,"Ġinjust":8774,"Ġtwelve":8775,"Ġdesp":8776,"Ġmeaningful":8777,"Ġpremature":8778,"oettering":8779,"ĠCollege":8780,"DR":8781,"can":8782,"Ġpapers":8783,"Ġ43":8784,"Ġsooner":8785,"ugabe":8786,"Ġcaution":8787,"Ġcomplementary":8788,"Ġharass":8789,"ĠREACH":8790,"ĠIndustrial":8791,"Ġbankrupt":8792,"ixt":8793,"Ġaqu":8794,"Ġindigenous":8795,"Ġstructured":8796,"Ġescal":8797,"Ġsubscri":8798,"eper":8799,"ĠÅ":8800,"Ġreformed":8801,"Ġcapt":8802,"ĠMichel":8803,"Ġphrase":8804,"Concerning":8805,"do":8806,"Ġmus":8807,"Ġprede":8808,"Ġtextiles":8809,"unal":8810,"ĠDel":8811,"others":8812,"ĠPalacio":8813,"ustoms":8814,"Ġundermined":8815,"ĠFloren":8816,"ĠSak":8817,"Ġshut":8818,"Ġfaire":8819,"Ġbigger":8820,"cosur":8821,"Ġspeaks":8822,"Ġcondemning":8823,"Ġdictator":8824,"Ġautomatic":8825,"Ġhousehold":8826,"Ġcontradictory":8827,"Members":8828,"produ":8829,"Ġwholly":8830,"Ġmutually":8831,"Ġtrig":8832,"Ġtheme":8833,"Ġrealities":8834,"lessly":8835,"ĠCard":8836,"Ġchief":8837,"bles":8838,"Ġwrite":8839,"Ġdestabil":8840,"Ġfruitful":8841,"eel":8842,"ille":8843,"Ġuser":8844,"Ġmemory":8845,"Ġrestriction":8846,"Ġgeared":8847,"Ġbelongs":8848,"Ġparadox":8849,"13":8850,"reme":8851,"Ġowe":8852,"ĠEri":8853,"Ġcenturies":8854,"Ġcertification":8855,"Ġdevastating":8856,"itives":8857,"Ġmobilise":8858,"oked":8859,"Ġbold":8860,"Ġhitherto":8861,"Ġdimin":8862,"cker":8863,"ĠDirectorate":8864,"mentioned":8865,"Ġunh":8866,"Ġadjour":8867,"ĠTuesday":8868,"Ġvoices":8869,"Ġsummar":8870,"Ġincompatible":8871,"Ġrobust":8872,"Ãº":8873,"ĠRad":8874,"ritical":8875,"annes":8876,"Ġcompare":8877,"Ġinsult":8878,"Ġrecognized":8879,"Ġadapting":8880,"Ġcompensate":8881,"Ġconstituents":8882,"spapers":8883,"ijan":8884,"ĠConfederal":8885,"Pl":8886,"Ġrede":8887,"Ġtrip":8888,"Ġsentences":8889,"Ġpermits":8890,"Ġdepartments":8891,"Ġbridge":8892,"Much":8893,"orate":8894,"alistic":8895,"ĠMac":8896,"Ġabst":8897,"Ġdiscovered":8898,"Ġabsent":8899,"ĠMartin":8900,"Ġincomprehensible":8901,"vens":8902,"Ġexcise":8903,"Ġengagement":8904,"Ġmit":8905,"Ġgri":8906,"Ġoutline":8907,"Ġagreeing":8908,"Ġkilling":8909,"Ġfrequent":8910,"Ġprivileged":8911,"mer":8912,"Ġwood":8913,"Ġ1991":8914,"Ġcostly":8915,"Ġsuspend":8916,"Ġrhetoric":8917,"Ġpredecess":8918,"lock":8919,"rets":8920,"Ġbreat":8921,"Ġallies":8922,"Ġalliance":8923,"everal":8924,"Ġexpecting":8925,"Ġreturning":8926,"Ġslowly":8927,"Person":8928,"ey":8929,"Ġwhite":8930,"Ġgest":8931,"Ġpregn":8932,"Ġexcessively":8933,"Surely":8934,"Ġseason":8935,"Ġcontinually":8936,"Ġbuying":8937,"harov":8938,"ĠGra":8939,"Ġinclusive":8940,"ĠTri":8941,"Ġcharter":8942,"ĠIII":8943,"Ġapologise":8944,"ĠBolkestein":8945,"Ġtens":8946,"onou":8947,"Ġbillions":8948,"Ġmentions":8949,"Ġgall":8950,"Ġacute":8951,"Ġseriousness":8952,"east":8953,"Ġupdate":8954,"Ġprejudice":8955,"Ġvitally":8956,"Rather":8957,"kind":8958,"ĠEth":8959,"Ġhomosexual":8960,"Ġpetitions":8961,"Ġdeliberations":8962,"14":8963,"NI":8964,"opoul":8965,"Ġnewspapers":8966,"Ġproportionality":8967,"eas":8968,"Ġtem":8969,"icious":8970,"Ġcounterpart":8971,"Ġconventional":8972,"Ġdisproportionate":8973,"front":8974,"rote":8975,"ĠGod":8976,"Ġsupporters":8977,"Ġassent":8978,"Ġprisons":8979,"Ġcontamination":8980,"Ġinterfere":8981,"Ġdiffering":8982,"Ġallowances":8983,"ĠIndian":8984,"Ġtested":8985,"Ġcollected":8986,"Ġrestricting":8987,"iques":8988,"Ġharsh":8989,"Ġpreferences":8990,"gans":8991,"alib":8992,"Ġproport":8993,"Ġscour":8994,"Ġforesee":8995,"aterally":8996,"Ġreferendums":8997,"Ġreward":8998,"ĠSouthern":8999,"ĠRelations":9000,"Ġteaching":9001,"Ġcold":9002,"Ġtranslated":9003,"ĠCotonou":9004,"ga":9005,"enburg":9006,"ilaterally":9007,"aming":9008,"Ġfeelings":9009,"ĠRegions":9010,"laim":9011,"Ġcheaper":9012,"ĠConservative":9013,"Ġorgans":9014,"Ġlaundering":9015,"Ġviewed":9016,"Ġdimensions":9017,"ĠBasque":9018,"Ġmanoeuvre":9019,"Turning":9020,"iracy":9021,"Ġeat":9022,"Ġposes":9023,"Ġawarded":9024,"Ġrecommends":9025,"ĠSakharov":9026,"Ġcharged":9027,"Amendments":9028,"Ġrescue":9029,"pass":9030,"Ġham":9031,"think":9032,"Ġinterconn":9033,"Ġconditional":9034,"Ġforecasts":9035,"urances":9036,"Ġclothing":9037,"Ġcompetitors":9038,"Ġweaken":9039,"ĠCuban":9040,"Ġliberty":9041,"Ġpainful":9042,"Several":9043,"hard":9044,"ĠJer":9045,"Ġscore":9046,"Ġmentioning":9047,"atories":9048,"Ġunclear":9049,"Ġscandalous":9050,"Ġdisregard":9051,"ener":9052,"dez":9053,"Ġappropriately":9054,"Ġlaunching":9055,"Ġmurdered":9056,"iop":9057,"Ġsite":9058,"Ġhinder":9059,"Ġreceives":9060,"Ġincapable":9061,"face":9062,"orking":9063,"ĠMugabe":9064,"Ġinstances":9065,"roliferation":9066,"Ġobserv":9067,"Ġdestination":9068,"Ġassumed":9069,"Ġtolerate":9070,"Ġsoftware":9071,"Ġconscious":9072,"Ġpornography":9073,"developed":9074,"Next":9075,"Ġhast":9076,"Ġdebts":9077,"iev":9078,"Ġsuperf":9079,"Ġlimitations":9080,"'t":9081,"eness":9082,"alan":9083,"iled":9084,"Ġcountryside":9085,"Ġfounding":9086,"ĠFinance":9087,"Ġcooperating":9088,"Ġingredients":9089,"Af":9090,"uous":9091,"yan":9092,"Ġrecourse":9093,"Ġhect":9094,"selt":9095,"Ġideology":9096,"2010":9097,"Ġseverely":9098,"Ġminimal":9099,"Ġdw":9100,"Ġru":9101,"Ġplus":9102,"Ġadvisory":9103,"Ġinteroperability":9104,"Ġcig":9105,"ione":9106,"Ġhabit":9107,"ami":9108,"Ġ%.":9109,"habil":9110,".,":9111,"Ġpending":9112,"Ġunus":9113,"ĠAc":9114,"Ġintim":9115,"ude":9116,"Ġcontents":9117,"Ġmaternity":9118,"Ġparticipated":9119,"Ġredistrib":9120,"Ġcooperative":9121,"ĠNorway":9122,"Ġreception":9123,"Ġlit":9124,"ĠUEN":9125,"Ġeurozone":9126,"Ġargued":9127,"Ġqualitative":9128,"Ġquantitative":9129,"Ġ1989":9130,"ĠBefore":9131,"Ġadhere":9132,"Ġdisarmament":9133,"Ġmunicip":9134,"Ġhal":9135,"Ġdare":9136,"Ġlacks":9137,"obyl":9138,"Ġbox":9139,"Ġshipy":9140,"hernobyl":9141,"ilingual":9142,"ossil":9143,"Ġbare":9144,"Ġproactive":9145,"Ġunderlines":9146,"Ġaccum":9147,"egoti":9148,"Ġliberalization":9149,"together":9150,"Ġreinforcing":9151,"ĠPeace":9152,"lez":9153,"adays":9154,"Ġdrastic":9155,"enez":9156,"Together":9157,"Ġprofessions":9158,"Against":9159,"FO":9160,"makers":9161,"Ġmad":9162,"Ġrevers":9163,"Ġfinished":9164,"Ġanybody":9165,"Ġspecul":9166,"Ġtechniques":9167,"Ġcapabilities":9168,"ĠSchm":9169,"Ġattempted":9170,"Ġpollut":9171,"Ġliberties":9172,"reyer":9173,"Ġkilomet":9174,"itical":9175,"Ġnutr":9176,"iciencies":9177,"ĠLeon":9178,"Ġbreaking":9179,"erbaijan":9180,"Ġreputation":9181,"Ġimpartial":9182,"Ġopens":9183,"Ġtechnically":9184,"athers":9185,"Ġ142":9186,"Ġbarb":9187,"Fortunately":9188,"Her":9189,"Ġmothers":9190,"Ġrehabil":9191,"Ġviewpoint":9192,"Ġhanded":9193,"Ġconven":9194,"Ġunrest":9195,"Ġpromising":9196,"Ġexcellence":9197,"Ġbreast":9198,"Ġsimpler":9199,"Ġfairer":9200,"atibility":9201,"ĠEquality":9202,"Ġlove":9203,"ĠMand":9204,"ĠFound":9205,"ĠMercosur":9206,"Ġsettled":9207,"ĠLank":9208,"Ġlifting":9209,"Ġprofitable":9210,"burse":9211,"Ġboundaries":9212,"ĠAdm":9213,"Ġgold":9214,"Ġentirety":9215,"usterity":9216,"Ġsends":9217,"Ġstood":9218,"Ġconfine":9219,"Ġrevise":9220,"eanwhile":9221,"balanced":9222,"17":9223,"Ġroles":9224,"Ġrequesting":9225,"Ġhearings":9226,"ĠWorking":9227,"Ġpunished":9228,"Ġruled":9229,"will":9230,"arz":9231,"Ġstorm":9232,"Ġshif":9233,"Ġcommerce":9234,"Ġprecondition":9235,"mes":9236,"Ġcab":9237,"Ġhandle":9238,"Ġpressures":9239,"Ġchapters":9240,"Ġinjured":9241,"NR":9242,"Ġaer":9243,"Ġcart":9244,"ĠChernobyl":9245,"ands":9246,"Ġpossess":9247,"Ġhighlighting":9248,"Ġclassification":9249,"Ġbenchmark":9250,"gers":9251,"novation":9252,"Ġpushing":9253,"Ġdil":9254,"Ġimpunity":9255,"Ġmodes":9256,"Ġthreatens":9257,"Accordingly":9258,"ĠEuratom":9259,"Ġeco":9260,"Ġshoulder":9261,"ĠFif":9262,"ĠFrattini":9263,"Ġinforming":9264,"Ġactivists":9265,"07":9266,"Ġfossil":9267,"ounced":9268,"ibiot":9269,"2008":9270,"ependent":9271,"Ġviability":9272,"Ġsupplied":9273,"Ġprotests":9274,"Ã¤n":9275,"enezuel":9276,"za":9277,"ocation":9278,"ump":9279,"2007":9280,"itoring":9281,"ĠEng":9282,"Ġwelcoming":9283,"Ġinspectors":9284,"ĠGoth":9285,"IC":9286,"group":9287,"emann":9288,"Ġindiff":9289,"Whether":9290,"Ġentrust":9291,"Ġretained":9292,"Ġpsychological":9293,"27":9294,"45":9295,"oid":9296,"inu":9297,"imer":9298,"Ġrefrain":9299,"Ġconducting":9300,"unte":9301,"Ġspot":9302,"ĠChile":9303,"Ġlands":9304,"Ġlabor":9305,"Ġmistaken":9306,"Ġinherent":9307,"Ġsurvey":9308,"Ġdecrease":9309,"East":9310,"ĠSri":9311,"Ġconferences":9312,"Ġshel":9313,"ibb":9314,"Ġentities":9315,"ĠJew":9316,"Ġorganisms":9317,"space":9318,"ĠSlovenian":9319,"ek":9320,"rical":9321,"ĠWhat":9322,"Ġausterity":9323,"Ġupg":9324,"Ġ195":9325,"Ġharmonising":9326,"Ġprofile":9327,"Ġrigid":9328,"Ġdiversification":9329,"Ġdeemed":9330,"Ġhatred":9331,"aunch":9332,"ĠECHO":9333,"Ġprohibited":9334,"ĠCFP":9335,"Ġconfronted":9336,"Personally":9337,"PA":9338,"gi":9339,"Ġjudged":9340,"Ġmeasured":9341,"ĠBulgarian":9342,"elect":9343,"ratory":9344,"ĠWork":9345,"Ġrelevance":9346,"Ġdestroying":9347,"Ġtouched":9348,"Ġsilent":9349,"ĠSahara":9350,"Ġcautious":9351,"Meanwhile":9352,"pelled":9353,"ĠIf":9354,"ĠPutin":9355,"ĠTitle":9356,"Ġproduces":9357,"Ġadditives":9358,"Ġletters":9359,"Ġguiding":9360,"Ġcigare":9361,"ilation":9362,"agu":9363,"Ġopposing":9364,"Ġstriking":9365,"Ġineffective":9366,"far":9367,"Ġwrote":9368,"Ġhoc":9369,"Ġtransformation":9370,"pring":9371,"Ġmoderate":9372,"Ġglobalised":9373,"ĠSeventh":9374,"Ġidentical":9375,"ĠAng":9376,"Ġinsisted":9377,"Ġfilm":9378,"ulling":9379,"Ġjun":9380,"Ġappreciated":9381,"Ġattaches":9382,"Ġdiscriminatory":9383,"Ġsuspicion":9384,"ĠGothenburg":9385,"Ġtransposed":9386,"akh":9387,"Ġseparately":9388,"Ġmissed":9389,"Ġexemplary":9390,"erred":9391,"Ġdiscrep":9392,"Ġspreading":9393,"Ġdisagreement":9394,"atura":9395,"Ġduration":9396,"ĠFoundation":9397,"inter":9398,"Ġsick":9399,"icity":9400,"ĠCustoms":9401,"ĠILO":9402,"emen":9403,"Ġlikewise":9404,"Ġsentenced":9405,"ĠPosselt":9406,"Ġmainstreaming":9407,"rez":9408,"erential":9409,"reasing":9410,"Ġfix":9411,"Ġflaw":9412,"Ġchoos":9413,"DC":9414,"oa":9415,"Ġcyn":9416,"ĠPoettering":9417,"Ġchose":9418,"Ġdistr":9419,"Ġguided":9420,"Ġinnovations":9421,"ĠCommunication":9422,"Ġveterinary":9423,"Ġthera":9424,"ander":9425,"earing":9426,"Ġformulate":9427,"Ġblocking":9428,"Ġloud":9429,"iably":9430,"Ġsomewhere":9431,"Ġvisits":9432,"ĠMEDA":9433,"atson":9434,"Ġ1980":9435,"Ġolive":9436,"Ġaccusations":9437,"Ġwild":9438,"idently":9439,"add":9440,"ĠGender":9441,"Ġrelax":9442,"Ġdiscret":9443,"2009":9444,"Ġpattern":9445,"Ġantibiot":9446,"arzemb":9447,"Par":9448,"hn":9449,"18":9450,"Ġnit":9451,"ĠVenezuel":9452,"regional":9453,"Ġdismantling":9454,"cks":9455,"Ġrepair":9456,"Ġtypical":9457,"Ġdeplore":9458,"aliban":9459,"Ġthrust":9460,"ĠJean":9461,"Ġpresum":9462,"Ġexposure":9463,"lig":9464,"Ġunch":9465,"Ġprerog":9466,"Ġoutrage":9467,"Ġrelaunch":9468,"Ġemphasising":9469,"Ġwebsite":9470,"ĠEngland":9471,"arzembowski":9472,"lers":9473,"Ġspon":9474,"Ġapplause":9475,"Ġ44":9476,"Ġairspace":9477,"Ġdistortion":9478,"onym":9479,"Ġreunification":9480,"Ġdatabase":9481,"Ġridiculous":9482,"Ġintimid":9483,"Ġsup":9484,"pled":9485,"Ġcoexistence":9486,"Ġmostly":9487,"Ġallocate":9488,"Ġreactors":9489,"Ġpartially":9490,"ĠEthiop":9491,"Ġincin":9492,"Ġprocessed":9493,"Ġequipped":9494,"large":9495,"uzz":9496,"Ġanyway":9497,"Ġinternally":9498,"Ġencomp":9499,"Ġreplacing":9500,"Ġincidentally":9501,"cultural":9502,"Ġtone":9503,"reb":9504,"cture":9505,"Ġaltogether":9506,"sofar":9507,"ĠAv":9508,"ĠGulf":9509,"Ġdeparture":9510,"usalem":9511,"Ġencompass":9512,"ET":9513,"ĠNatura":9514,"Ġprecarious":9515,"Ġdominant":9516,"Ġglobally":9517,"Ġforcing":9518,"ĠEL":9519,"bled":9520,"oyal":9521,"Ġconfined":9522,"Ġrestoring":9523,"Ġprecedence":9524,"Ġprosecution":9525,"Ġdiscretion":9526,"Ġsuit":9527,"Ġplenty":9528,"Ġanticipated":9529,"ĠConservatives":9530,"oral":9531,"Ġbond":9532,"ĠEDF":9533,"Ġfacto":9534,"Ġdeepening":9535,"Ġenthusia":9536,"Bet":9537,"Ġna":9538,"Ġsuic":9539,"Ġuncontro":9540,"ĠIsraelis":9541,"Ġprohibition":9542,"Ġperpetrators":9543,"acity":9544,"rencies":9545,"ĠFran":9546,"Ġperipheral":9547,"Ġindependently":9548,"Ġschedule":9549,"ĠAzerbaijan":9550,"ibbean":9551,"ica":9552,"ĠPac":9553,"Ġresid":9554,"Ġ600":9555,"ĠDemocracy":9556,"Ġsafeguarded":9557,"commer":9558,"Ġdelivering":9559,"Ġinability":9560,"Ġfill":9561,"Ġatroc":9562,"Ġcurrencies":9563,"Ġstrongest":9564,"ho":9565,"Ã§":9566,"icular":9567,"istance":9568,"ĠCouncils":9569,"Ġprevents":9570,"Ġlooph":9571,"Ġunresolved":9572,"Ġventure":9573,"Ġextradition":9574,"Ġeg":9575,"Ġlinking":9576,"ĠSu":9577,"Ġdisappeared":9578,"Ġexercised":9579,"Ġaston":9580,"here":9581,"lins":9582,"Ġcash":9583,"Ġchances":9584,"ĠTaliban":9585,"ĠLomÃ©":9586,"ĠNaz":9587,"Ġinvent":9588,"Ġmining":9589,"Ġdraftsman":9590,"Ġindustrialised":9591,"iki":9592,"Ġexceeded":9593,"Ġpreferential":9594,"Pr":9595,"Ġreorgan":9596,"olic":9597,"Ġclash":9598,"inded":9599,"Ġ39":9600,"Ġteams":9601,"ARE":9602,"Ġimbalance":9603,"Ġcultivation":9604,"Ġinstallations":9605,"Ġmigratory":9606,"Current":9607,"Ġfell":9608,"Ġweigh":9609,"Ġpron":9610,"ĠMaur":9611,"Ġaccompanying":9612,"ĠJerusalem":9613,"Ġdeeper":9614,"rameworks":9615,"Ġmarria":9616,"Ġparameters":9617,"Ġunwilling":9618,"Ġrelocation":9619,"Ġunrealistic":9620,"Ġdecommissioning":9621,"yle":9622,"Ġnice":9623,"through":9624,"Ġconfused":9625,"Ġsecured":9626,"Ġreconsider":9627,"Ġrigour":9628,"Ġdisadvantages":9629,"month":9630,"Ġprivilege":9631,"Ġparamount":9632,"Ġmotivated":9633,"Ġupheld":9634,"undi":9635,"Ġpromptly":9636,"ĠErika":9637,"Ġtur":9638,"Ġtoll":9639,"Ġfasc":9640,"Ġdark":9641,"auer":9642,"speed":9643,"iro":9644,"pical":9645,"Ġassurances":9646,"legisl":9647,"Ġrecords":9648,"kh":9649,"uy":9650,"ĠPH":9651,"Ġpermission":9652,"Ġentity":9653,"Ġrestored":9654,"inistry":9655,"Ġassisting":9656,"ĠCanc":9657,"Ġeliminated":9658,"ĠCat":9659,"Ġafterwards":9660,"Ġdraws":9661,"Ġexceptionally":9662,"Ġjeopardise":9663,"Approval":9664,"Ġadjourned":9665,"Ru":9666,"cin":9667,"ata":9668,"ĠEv":9669,"Ġsubmitting":9670,"obody":9671,"Ġadvise":9672,"Ġinspir":9673,"Ġmaxim":9674,"Ġexercising":9675,"cientific":9676,"inery":9677,"Ġdrew":9678,"ĠSix":9679,"comp":9680,"Ġspeedy":9681,"Ġcomplying":9682,"Ġtaxpayer":9683,"largement":9684,"productive":9685,"ouses":9686,"Ġbran":9687,"Ġreconcil":9688,"ĠThird":9689,"Ġsalary":9690,"Ġstipulates":9691,"Ġproliferation":9692,"bett":9693,"Ġbans":9694,"forest":9695,"Ġsignatures":9696,"ĠMedia":9697,"Ġinvestigated":9698,"Ġexpanding":9699,"Ġaggressive":9700,"16":9701,"ĠGr":9702,"osta":9703,"Ġevil":9704,"Ġscreening":9705,"Ġintroduces":9706,"Ġlift":9707,"Ġcapitalist":9708,"Ġsporting":9709,"Ġenvisage":9710,"ĠCaribbean":9711,"sighted":9712,"Ġwasted":9713,"Ġgaining":9714,"Ġoccurs":9715,"Ġwitnessing":9716,"Ġresume":9717,"Ġhind":9718,"Ġuncond":9719,"Ġbenefiting":9720,"Ġcompliment":9721,"Ġmaintains":9722,"Ġdependency":9723,"alus":9724,"Ġease":9725,"Ġlived":9726,"Ġalive":9727,"essor":9728,"Ġabide":9729,"ÂłÂłĠ":9730,"Ġ85":9731,"Ġlivelihood":9732,"Ġoptimism":9733,"Ġreciprocity":9734,"Ġacademic":9735,"urity":9736,"Ġasset":9737,"Ġexag":9738,"Ġdecides":9739,"Ġrepressive":9740,"Ġpresidencies":9741,"Ġ250":9742,"Ġgains":9743,"Ġstandardisation":9744,"Ġdivisions":9745,"Ġjudgement":9746,"Ġsplend":9747,"ĠReding":9748,"Ġscourge":9749,"Three":9750,"aculture":9751,"Ġdeficiencies":9752,"Ġemphatically":9753,"Has":9754,"Äį":9755,"Ġstrengthens":9756,"Ġspecialist":9757,"ĠMaritime":9758,"Ġsecretariat":9759,"Ġcolonial":9760,"Ġwisdom":9761,"serv":9762,"elt":9763,"outs":9764,"Ġnons":9765,"Ġpurchasing":9766,"Ġfan":9767,"Ġframeworks":9768,"Ġrum":9769,"ĠNie":9770,"Ġcreativity":9771,"Ġshipbuilding":9772,"Ġprosperous":9773,"Ġpushed":9774,"alon":9775,"Ġdub":9776,"ĠEGF":9777,"Ġkid":9778,"Ġimpressive":9779,"Ġassumption":9780,"Ġoutbreak":9781,"tered":9782,"Ġcards":9783,"stically":9784,"ĠCE":9785,"Ã©s":9786,"Ġstreet":9787,"Ġsun":9788,"Ġneo":9789,"Ġconserv":9790,"forward":9791,"Ġreplacement":9792,"ĠJohannes":9793,"Ġrecruitment":9794,"tail":9795,"Ġowing":9796,"arkoz":9797,"ĠCambodia":9798,"Afric":9799,"Euro":9800,"lam":9801,"lah":9802,"Ġemergence":9803,"Ġendeavours":9804,"ĠSomalia":9805,"Ac":9806,"Ġregain":9807,"Ġrestoration":9808,"Ġsuggesting":9809,"Ġbenefited":9810,"AO":9811,"taking":9812,"Ġunification":9813,"reements":9814,"Ġcry":9815,"Ġoverr":9816,"Ġcourses":9817,"Ġspare":9818,"Ġencoun":9819,"Ġfairness":9820,"Ġvessel":9821,"ĠJohn":9822,"ĠPHARE":9823,"Ġsplendid":9824,"ĠOomen":9825,"Ġincorporating":9826,"trodu":9827,"Ġthirty":9828,"Ġinsofar":9829,"ĠSund":9830,"Ġ46":9831,"ijten":9832,"arkozy":9833,"ds":9834,"uty":9835,"Ġdeployment":9836,"Ġcomfort":9837,"ĠHel":9838,"Ġobstruct":9839,"ĠCOM":9840,"Ġaffordable":9841,"Ġdeliberate":9842,"oriented":9843,"Ruijten":9844,"OL":9845,"scept":9846,"Ġinex":9847,"ested":9848,"Ġunite":9849,"rence":9850,"ongue":9851,"Ġpride":9852,"Ġhumane":9853,"Ġweaker":9854,"Ġsanction":9855,"Ġbarrier":9856,"Ġphenomena":9857,"Ġdollar":9858,"Ġpassion":9859,"ĠBan":9860,"Ġdescription":9861,"iam":9862,"ĠJapanese":9863,"Ġtrials":9864,"Ġhouses":9865,"Ġinspired":9866,"Ġmanagers":9867,"Ġutterly":9868,"Fin":9869,"ctu":9870,"arters":9871,"ÃŃa":9872,"Ġsimultaneously":9873,"Ãºn":9874,");":9875,"ral":9876,"Ġduly":9877,"Ġenact":9878,"Ġtact":9879,"Ġdrag":9880,"Ġunderstands":9881,"Ġprolong":9882,"hor":9883,"mese":9884,"orthy":9885,"Ġcircle":9886,"Ġsummits":9887,"Ġredress":9888,"Besides":9889,"tw":9890,"van":9891,"istr":9892,"sians":9893,"Ġboats":9894,"mn":9895,"Ġthrown":9896,"Intern":9897,"Ġsuccessive":9898,"Ġbegins":9899,"Ġunlikely":9900,"ukash":9901,"Nobody":9902,"backs":9903,"zÃ¡":9904,"ĠPen":9905,"ogues":9906,"ĠWatson":9907,"Ġindividually":9908,"Ġobligatory":9909,"Ġvolunte":9910,"Ġmodernise":9911,"Ġacknowledges":9912,"ĠCorbett":9913,"Ġinjustice":9914,"Comp":9915,"Ġbab":9916,"Ġfed":9917,"ĠPre":9918,"plan":9919,"Ġaward":9920,"Ġoppression":9921,"ĠPacific":9922,"Nothing":9923,"Ġevolution":9924,"Ġovercoming":9925,"Ġethics":9926,"Everything":9927,"Ġvegetables":9928,"Ġmouth":9929,"Ġpricing":9930,"Ġ47":9931,"person":9932,"Ġalike":9933,"Ġrot":9934,"Ġprotectionist":9935,"ella":9936,"ubb":9937,"ĠBurmese":9938,"ĠASEAN":9939,"zing":9940,"edge":9941,"archy":9942,"Ġtransported":9943,"Ġdamaged":9944,"Ġevaluated":9945,"Ġoccupational":9946,"Ġorders":9947,"Ġupdated":9948,"Ġanticipate":9949,"Ġintensify":9950,"Ġneglected":9951,"Ġmilitar":9952,"aldner":9953,"Ġnavigation":9954,"astic":9955,"Ġneglig":9956,"ĠEurojust":9957,"Ġwaiver":9958,"Ġconversion":9959,"Ġracist":9960,"ĠClimate":9961,"22":9962,"Ġservants":9963,"Ġformation":9964,"Ġrehabilitation":9965,"ukashenko":9966,"reas":9967,"ller":9968,"Unless":9969,"Ġmargins":9970,"giene":9971,"Ps":9972,"certain":9973,"Ġpolitician":9974,"Ġfundamentalism":9975,"Ġclasses":9976,"Ġstraightforward":9977,"Ġaquaculture":9978,"ĠCath":9979,"ĠSarkozy":9980,"upport":9981,"Ġtells":9982,"Ġevaluating":9983,"Ã¶r":9984,"Ġstimul":9985,"Ġdramatically":9986,"ifice":9987,"ĠUC":9988,"ĠJac":9989,"owners":9990,"Ġrestrain":9991,"Ġpopul":9992,"Ġapplicants":9993,"Ġcatastrophe":9994,"Ġharassment":9995,"ĠELDR":9996,"tar":9997,"Ġprize":9998,"ĠFon":9999,"Ġevol":10000,"Ġprotein":10001,"Ġnationalism":10002,"Ġlifted":10003,"Ġcodes":10004,"ĠScott":10005,"Ġvirtue":10006,"Ġchannel":10007,"Ġimprisoned":10008,"ĠCypriot":10009,"ĠArmenia":10010,"ĠTACIS":10011,"Ġtank":10012,"Ġdread":10013,"quarters":10014,"ĠRÃ¼":10015,"Ġblat":10016,"rogen":10017,"Ġallegations":10018,"Ã¡namo":10019,"Ġcornerstone":10020,"bul":10021,"Ġapproaching":10022,"Ġconsulting":10023,"ĠAnn":10024,"Ġchallenging":10025,"ĠLeague":10026,"Ġcoverage":10027,"Ġsettlements":10028,"Ġbeautiful":10029,"Ġgallery":10030,"Str":10031,"Waldner":10032,"Ġtrialogue":10033,"ĠTV":10034,"Ġsaved":10035,"ĠJarzembowski":10036,"Ġselected":10037,"Ã¨s":10038,"Ġpage":10039,"Ġstar":10040,"Ġquiet":10041,"Ġdiscl":10042,"Ġdominated":10043,"Ġchecked":10044,"Ġobserver":10045,"Ġentrepreneurship":10046,"ĠWallstrÃ¶m":10047,"Ġgambling":10048,"jo":10049,"anian":10050,"Ġdeple":10051,"ivable":10052,"Ġdemocrats":10053,"Ġfees":10054,"Ġrisen":10055,"Ġexpects":10056,"itorino":10057,"Ã©n":10058,"Ġpermanently":10059,"ikanen":10060,"Ġvigorously":10061,"Ġmultiple":10062,"Ġimperialist":10063,"Ġsmuggling":10064,"des":10065,"Ġpure":10066,"Ġscene":10067,"Ġ49":10068,"ube":10069,"Israel":10070,"Ġunjustified":10071,"Ġmisunderstanding":10072,"Ġpiracy":10073,"Ġhorm":10074,"ĠSA":10075,"Ġtail":10076,"Ġtranspl":10077,"Ġstarts":10078,"fold":10079,"lims":10080,"utory":10081,"Ġconcerted":10082,"Ġspecify":10083,"Ġgroundwater":10084,"Ġfrustr":10085,"Ġdecentralised":10086,"Ġdisturbing":10087,"Very":10088,"een":10089,"rance":10090,"alys":10091,"ĠChad":10092,"Ġreasonably":10093,"compl":10094,"ependence":10095,"rig":10096,"Ġrough":10097,"Ġsalmon":10098,"ĠTibetan":10099,"iments":10100,"Ġgoodwill":10101,"bek":10102,"Ġbiom":10103,"Bendit":10104,"Ġseize":10105,"phe":10106,"ĠErasmus":10107,"ĠJohannesburg":10108,"grow":10109,"Ġhidden":10110,"ĠEF":10111,"chi":10112,"osure":10113,"artet":10114,"Ġunex":10115,"Ġstipulated":10116,"Ġshameful":10117,"uis":10118,"Ġdying":10119,"ilitary":10120,"Ġdeport":10121,"ĠSpring":10122,"Ġtrained":10123,"Ġsignature":10124,"Ġignoring":10125,"Ġlicens":10126,"ih":10127,"asse":10128,"Ġabund":10129,"Ġcontempt":10130,"ĠLang":10131,"Ġcompleting":10132,"Ġcorrected":10133,"Ġdevices":10134,"ĠLiikanen":10135,"Ġoccurring":10136,"Ġconsolidating":10137,"Ġadvocating":10138,"Ġunreason":10139,"Ġmachinery":10140,"suff":10141,"zhe":10142,"Ġflying":10143,"arbon":10144,"ĠPNR":10145,"pling":10146,"Ġworkable":10147,"Ġstriving":10148,"Ġforefront":10149,"Ġrejects":10150,"Ġassuming":10151,"Ġhygiene":10152,"cific":10153,"date":10154,"Ġnotification":10155,"ooked":10156,"Ġforgetting":10157,"Ġtimber":10158,"Ġanxious":10159,"billion":10160,"looking":10161,"rated":10162,"orand":10163,"Ġbath":10164,"lements":10165,"ivate":10166,"dec":10167,"Ġharder":10168,"Ġcatches":10169,"Ġvalidity":10170,"Ġlawyer":10171,"orandum":10172,"ĠTaj":10173,"ocolate":10174,"Ġstepping":10175,"Ġreiterated":10176,"Ġfrontier":10177,"Ġvaccination":10178,"Sometimes":10179,"Ġperceived":10180,"Ġcas":10181,"ingly":10182,"Ġash":10183,"Ġcounting":10184,"Ġbackwards":10185,"Ġprovisional":10186,"Ġcategor":10187,"Ġsuspected":10188,"ĠGuantÃ¡namo":10189,"zheimer":10190,"Fif":10191,"voy":10192,"Ġalert":10193,"ĠMu":10194,"prin":10195,"Ġtreating":10196,"ĠSocrates":10197,"Ġstudied":10198,"Ġauthoritarian":10199,"Ġjournalist":10200,"Ġcontradictions":10201,"ora":10202,"Ġhol":10203,"Ġcongest":10204,"Ġalign":10205,"Ġrush":10206,"Ġintent":10207,"Ġambigu":10208,"Ġrepeal":10209,"Ġdubious":10210,"oure":10211,"Ġhab":10212,"usp":10213,"ighter":10214,"umers":10215,"ĠGSP":10216,"ĠBow":10217,"Ġcondol":10218,"Ġgeop":10219,"Ġabolishing":10220,"Ġlobbyists":10221,"Ġadults":10222,"19":10223,"made":10224,"Ġmillennium":10225,"Ġhun":10226,"Ġoverview":10227,"ecutive":10228,"ĠVitorino":10229,"Ġretention":10230,"Ġflee":10231,"Ġincredibly":10232,"Ġincurred":10233,"Public":10234,"oking":10235,"zbek":10236,"Ġhur":10237,"Ġweather":10238,"ountered":10239,"Ġencountered":10240,"Ġreplies":10241,"oultry":10242,"ÃŃn":10243,"tegration":10244,"Ġvegetable":10245,"Ġhavens":10246,"Ġfab":10247,"ĠGames":10248,"ogen":10249,"Ġcompeting":10250,"Ġcorrid":10251,"unctioning":10252,"Ġbreakthrough":10253,"Ġcereals":10254,"gain":10255,"Ġdies":10256,"ĠMade":10257,"essalon":10258,"Ġcompatibility":10259,"ounds":10260,"Ġ700":10261,"Ġmultilingual":10262,"Ġclaiming":10263,"Ġfortunately":10264,"Ġmitig":10265,"ĠSunday":10266,"35":10267,"Economic":10268,"agh":10269,"chet":10270,"quest":10271,"ĠJos":10272,"Ġhandic":10273,"aval":10274,"Ġcommunaut":10275,"Ġsurface":10276,"Ġexperiment":10277,"Ġpreserved":10278,"ĠECO":10279,"Ġrepeating":10280,"Ġexporting":10281,"Ġreplied":10282,"Ġundermines":10283,"Ġimprisonment":10284,"ĠBangemann":10285,"fat":10286,"Ġpull":10287,"Ġbee":10288,"Ġfines":10289,"Ġrock":10290,"Ġurging":10291,"Ġturns":10292,"Ġcamp":10293,"Ġexpanded":10294,"fund":10295,"Ġ120":10296,"Ġheat":10297,"Ġconfirmation":10298,"Ġdeadlock":10299,"Ġtiming":10300,"Ġcrop":10301,"Have":10302,"Ġswe":10303,"Ġbur":10304,"Ġfool":10305,"taine":10306,"lusconi":10307,"Ġchaos":10308,"Ġdetained":10309,"Ġscarcely":10310,"Ġgesture":10311,"Le":10312,"Ġdrought":10313,"ĠGon":10314,"Ġinternet":10315,"Ġcrossing":10316,"Ġexplaining":10317,"Ġstimulating":10318,"Ġwindow":10319,"Ġcommunautaire":10320,"ĠInitiative":10321,"ssen":10322,"Ġelabor":10323,"ĠFerrero":10324,"mouth":10325,"Ġeve":10326,"ĠPan":10327,"Ġunst":10328,"eline":10329,"Ġsubstitute":10330,"Ġcomparative":10331,"ĠKorean":10332,"Ġconnections":10333,"minded":10334,"imated":10335,"raud":10336,"Ġdeployed":10337,"ager":10338,"Ġserving":10339,"apsed":10340,"Ġappeals":10341,"Ġrend":10342,"Ġradically":10343,"Ġincredible":10344,"Ġkilometres":10345,"Ġpoultry":10346,"Ġreim":10347,"Ġhaul":10348,"Ġarrog":10349,"Ġpoorly":10350,"ĠThessalon":10351,"Ġradiation":10352,"Ġhypocritical":10353,"oliberal":10354,"Ġholiday":10355,"TE":10356,"hm":10357,"Ġwines":10358,"Ġlegality":10359,"Ġprominent":10360,"Along":10361,"Ġtourists":10362,"Ġcontractual":10363,"Ġportf":10364,"ĠAustralia":10365,"Ġprevailing":10366,"ĠSixth":10367,"ĠScottish":10368,"Ġwal":10369,"alin":10370,"Ġsubord":10371,"Ġassass":10372,"Ġimproves":10373,"Ġ41":10374,"liberal":10375,"ijk":10376,"ĠSerbs":10377,"ĠExecutive":10378,"Ġsharp":10379,"bursement":10380,"map":10381,"Ġbid":10382,"ĠMinistry":10383,"Ġtries":10384,"Ġlegislate":10385,"Ġlegislators":10386,"Ġcarries":10387,"Ġunden":10388,"Ġspokes":10389,"Ġsynth":10390,"Ġbarely":10391,"dor":10392,"Ġtheore":10393,"Ġshocking":10394,"Ġtaught":10395,"Ġoverse":10396,"ĠRussians":10397,"Ġanalysed":10398,"Ġenormously":10399,"hardt":10400,"aul":10401,"fessor":10402,"wa":10403,"ester":10404,"Ġascertain":10405,"Ġallowance":10406,"Ġexported":10407,"Ġweakened":10408,"Beh":10409,"ometric":10410,"ubercul":10411,"Ġreserved":10412,"ĠAgreements":10413,"Ġstressing":10414,"Ġdamages":10415,"Ġtransferring":10416,"Ġdriver":10417,"Ġcalculated":10418,"Ġslavery":10419,"Ġeradication":10420,"uberculosis":10421,"Ġpock":10422,"ittings":10423,"Ġcommunist":10424,"ĠSwiss":10425,"ĠAnnual":10426,"Ġtraffick":10427,"Ġcentralised":10428,"ĠRef":10429,"irac":10430,"Ġillustrates":10431,"Ġdiagnosis":10432,"inating":10433,"recy":10434,"arth":10435,"ĠCosta":10436,"Ġblocks":10437,"Ġpackages":10438,"ĠMonitoring":10439,"Ġarrival":10440,"Ġultra":10441,"Particular":10442,"Ġunambiguous":10443,"ĠLanka":10444,"ias":10445,"Ġpup":10446,"Ġneoliberal":10447,"Ġmankind":10448,"Ġassistants":10449,"Ġguardian":10450,"ĠThessaloniki":10451,"cott":10452,"pire":10453,"Ġliable":10454,"Ġdepos":10455,"oping":10456,"Ġunknown":10457,"Ġpredom":10458,"Ġreadiness":10459,"Ġcapitalism":10460,"Ġvolat":10461,"Ġloan":10462,"quiries":10463,"Ġaccelerate":10464,"Ġconvictions":10465,"Ġtemper":10466,"pheres":10467,"ĠLangen":10468,"Ġfabric":10469,"Sad":10470,"TS":10471,"reet":10472,"Ġunilaterally":10473,"Ġrape":10474,"ĠDr":10475,"aped":10476,"Ġreviewing":10477,"Ġderived":10478,"ĠMuslims":10479,"nesty":10480,"ressions":10481,"Ġunderway":10482,"ologies":10483,"Ġcapita":10484,"ĠAlzheimer":10485,"Ġvoiced":10486,"Ġattacked":10487,"lem":10488,"ĠEqual":10489,"Ġquo":10490,"Ġtrains":10491,"ĠKen":10492,"Ġmodification":10493,"Ġquoted":10494,"Ġtranslate":10495,"Ġextremism":10496,"ĠMadeira":10497,"omin":10498,"ĠComp":10499,"Ġremun":10500,"redit":10501,"Ġdesert":10502,"comes":10503,"Ġvisibility":10504,"Ġ800":10505,"ĠLehne":10506,"Ġanalysing":10507,"Ġproceeding":10508,"respo":10509,"Add":10510,"rine":10511,"Ġ?":10512,"Ġburn":10513,"omic":10514,"Ġdece":10515,"ĠNic":10516,"Ġproving":10517,"Ġpointless":10518,"Ġadds":10519,"Ġestimate":10520,"Ġratio":10521,"Ġaccessibility":10522,"DEM":10523,"Ġclarifying":10524,"Ġhorr":10525,"Ġcounterfeit":10526,"Ġpretty":10527,"Cor":10528,"orries":10529,"Ġvice":10530,"Ġintra":10531,"ĠLukashenko":10532,"assador":10533,"Ġfailures":10534,"afe":10535,"Ġoccupying":10536,"Ġproportionate":10537,"Ġexecutions":10538,"Ġbatter":10539,"Ġquarters":10540,"Ġecosystems":10541,"Ġunusual":10542,"pes":10543,"anium":10544,"Ġlev":10545,"ĠTer":10546,"Ġinterd":10547,"elson":10548,"Ġhonesty":10549,"Ġintolerance":10550,"Ġalleviate":10551,"Ġfathers":10552,"Ġforb":10553,"ĠER":10554,"Ġchocolate":10555,"iances":10556,"ologically":10557,"Ġequity":10558,"legation":10559,"ĠInstru":10560,"Ġeradicate":10561,"Ġbehave":10562,"Ġ52":10563,"Ġherself":10564,"rupted":10565,"Ġbargain":10566,"Ġaggression":10567,"mun":10568,"aron":10569,"Ġlever":10570,"Ġsupportive":10571,"Ġquestionable":10572,"Ġphasing":10573,"ĠRegulations":10574,"Ġpostponement":10575,"ĠQuartet":10576,"ĠTrib":10577,"46":10578,"Ġmale":10579,"ĠCrespo":10580,"Ġadmission":10581,"Ġdenounce":10582,"ĠIND":10583,"Ġrefunds":10584,"Est":10585,"gage":10586,"och":10587,"vert":10588,"ĠRw":10589,"regulated":10590,"Ġwatching":10591,"ĠNetwork":10592,"Ġkidn":10593,"39":10594,"oms":10595,"erers":10596,"Whatever":10597,"Ġfarmer":10598,"Ġshareholders":10599,"embered":10600,"Cooperation":10601,"tries":10602,"istically":10603,"Ġdirector":10604,"Ġrepatri":10605,"draft":10606,"adesh":10607,"ao":10608,"life":10609,"ladesh":10610,"Ġlia":10611,"Ġadopts":10612,"exam":10613,"Ġslog":10614,"Ġpieces":10615,"ĠMalm":10616,"Ġsceptical":10617,"Ġcommodity":10618,"Ġsuicide":10619,"ĠCancÃºn":10620,"Sadly":10621,"ville":10622,"Ġsmart":10623,"Ġannually":10624,"Ġincorporation":10625,"Ġartists":10626,"Ġtunnel":10627,"IFE":10628,"Ġconfidentiality":10629,"48":10630,"zio":10631,"ĠUzbek":10632,"Ġcommitting":10633,"Ġreliability":10634,"Ġextract":10635,"ĠMont":10636,"Ġinsisting":10637,"Ġproclaim":10638,"class":10639,"Ġperpetrated":10640,"Ġthr":10641,"ĠMen":10642,"weg":10643,"Ġfavoured":10644,"Ġbloc":10645,"Ġrenational":10646,"Ġsecular":10647,"Ġsecrecy":10648,"Ġsorts":10649,"Ġcoup":10650,"Ġpanel":10651,"Ġdissemination":10652,"ĠDanube":10653,"Ġdefeat":10654,"ĠSchmid":10655,"Ġbarbar":10656,"Ġantibiotics":10657,"Ġlending":10658,"Ġsomehow":10659,"Ġperception":10660,"Ġpassive":10661,"Ġroadmap":10662,"Ġpatience":10663,"Ġweakening":10664,"Ġlagging":10665,"Ġlorries":10666,"ĠMann":10667,"ĠDal":10668,"Ġthematic":10669,"Ġflooding":10670,"Ġcountless":10671,"Ġeligibility":10672,"Ġdesperate":10673,"Ġcouncils":10674,"ĠÅł":10675,"SA":10676,"stad":10677,"sters":10678,"ulsion":10679,"Ġprotects":10680,"Ġelectrical":10681,"Ġuranium":10682,"Ġviolate":10683,"Ġimposition":10684,"Ġhonestly":10685,"Ġsymbols":10686,"Ġextremists":10687,"Ġcelebrate":10688,"Ġtune":10689,"atz":10690,"Ġep":10691,"Ġoffensive":10692,"Ġlastly":10693,"Ġfavours":10694,"Ġpool":10695,"Ġindicating":10696,"Ġhospitals":10697,"Ġshipyards":10698,"ford":10699,"oned":10700,"epal":10701,"Ġmilest":10702,"Ġvisiting":10703,"ĠBarÃ³n":10704,"Ġindicative":10705,"minute":10706,"Ġoverseas":10707,"Ġbrain":10708,"udd":10709,"apital":10710,"Ġremembered":10711,"Ġforming":10712,"Ġmedi":10713,"Ġrevital":10714,"Ġdenying":10715,"Ġcoordinator":10716,"Ġlabels":10717,"Ġembark":10718,"Ġcollectively":10719,"Ġdistinguished":10720,"Ġepidemic":10721,"Ġcondolences":10722,"60":10723,"Taking":10724,"Ġum":10725,"cean":10726,"terrorism":10727,"Which":10728,"Ġextends":10729,"Ġcredits":10730,"Ġundemocratic":10731,"Ġreintrodu":10732,"Ġreveals":10733,"Ġgeopolitical":10734,"49":10735,"inet":10736,"Ġfly":10737,"ĠIV":10738,"Ġresponsibly":10739,"Ġeconomics":10740,"Ġstandpoint":10741,"Ġopted":10742,"Ġ%,":10743,"Ġbiometric":10744,"Ġmergers":10745,"ategory":10746,"Prot":10747,"Ġoverlook":10748,"Ġengineering":10749,"Ġarchitecture":10750,"Ġtender":10751,"pportunities":10752,"lander":10753,"Ġinfect":10754,"Ġreadmission":10755,"Ġblackmail":10756,"Ġlobbying":10757,"ĠKurds":10758,"Ġillustrate":10759,"stadt":10760,"ja":10761,"otive":10762,"ĠBay":10763,"ogau":10764,"Ġfactories":10765,"hips":10766,"Ġgrowers":10767,"Ġdistant":10768,"Ġemployee":10769,"Ġdefenders":10770,"Ġregrettably":10771,"State":10772,"Ġfluctu":10773,"Ġcounterparts":10774,"ĠFontaine":10775,"col":10776,"Ã±":10777,"Ġimminent":10778,"intensive":10779,"Ġboosting":10780,"Ġembarrass":10781,"ĠCohn":10782,"mmet":10783,"ĠHarbour":10784,"ĠAngola":10785,"ĠGonzÃ¡":10786,"\".":10787,"war":10788,"Ġbol":10789,"ilities":10790,"uts":10791,"Ġnowhere":10792,"Ġcollecting":10793,"Ġpreferable":10794,"Ġstruggling":10795,"ĠLamy":10796,"Ġdeleted":10797,"AIDS":10798,"EF":10799,"SL":10800,"big":10801,"rection":10802,"Ġdial":10803,"Ġshaping":10804,"Ġthemes":10805,"ĠChange":10806,"Ġpeacekeeping":10807,"Ġflour":10808,"Ġpersistent":10809,"ĠAdministration":10810,"CC":10811,"apporteur":10812,"uction":10813,"ignific":10814,"ructive":10815,"Ġdesignated":10816,"ĠBonino":10817,"aside":10818,"ĠSport":10819,"ĠWogau":10820,"ĠKaz":10821,"Ġspecialised":10822,"Ġharmony":10823,"Ġchecking":10824,"Ġconcentrating":10825,"Ġhostage":10826,"amped":10827,"Ġpersecuted":10828,"Ġbrave":10829,"Ġembryos":10830,"Ġshocked":10831,"Em":10832,"Social":10833,"oni":10834,"Ġriver":10835,"Ġdog":10836,"Ġabused":10837,"Ġrefuses":10838,"Ġfeet":10839,"Ġvisitors":10840,"Ġearliest":10841,"38":10842,"Ġpages":10843,"roach":10844,"step":10845,"ĠRober":10846,"Ġsomebody":10847,"Ġmethodology":10848,"Ġreacted":10849,"ĠBerlusconi":10850,"Ġhumans":10851,"Ġworries":10852,"ardo":10853,"reevy":10854,"Ġsym":10855,"Ġrevising":10856,"Ġkeeps":10857,"Ġdrift":10858,"Ġsixth":10859,"Ġreligions":10860,"Ġprohibit":10861,"IM":10862,"first":10863,"ny":10864,"proliferation":10865,"ĠÎ":10866,"ĠMy":10867,"Ġunlaw":10868,"Ġcommem":10869,"Ġsyner":10870,"ĠAzores":10871,"Ġbiomass":10872,"Ġunreasonable":10873,"24":10874,"Ġcure":10875,"Ġunt":10876,"Ġmeal":10877,"Ġlesser":10878,"ĠAlger":10879,"Ġceasefire":10880,"gically":10881,"lt":10882,"Ġfro":10883,"Ġunav":10884,"Ġapproached":10885,"Ġcapability":10886,"ĠProfessor":10887,"Ġshorter":10888,"Ġimpacts":10889,"Ġmoments":10890,"ĠYemen":10891,"ĠInterinstitutional":10892,"Ġperformed":10893,"upper":10894,"withstanding":10895,"bo":10896,"due":10897,"Ġborrow":10898,"ptions":10899,"Ġupdating":10900,"Ġunequivocal":10901,"Ġpredecessor":10902,"ĠVenezuela":10903,"Ġdreadful":10904,"ĠGonzÃ¡lez":10905,"Ġcot":10906,"Ġattending":10907,"Ġinstitute":10908,"Ġbalances":10909,"Ġcopy":10910,"ĠDavid":10911,"Ġresolutely":10912,"Ã´":10913,"ĠDelegation":10914,"Ġhonoured":10915,"Ġexcluding":10916,"Ġfrustration":10917,"Ġsemin":10918,"Barro":10919,"orable":10920,"Ġbought":10921,"Ġstore":10922,"ĠSil":10923,"iel":10924,"ĠForm":10925,"Ġnowadays":10926,"Ġprotective":10927,"Ġpoison":10928,"Ġmisuse":10929,"Ġundes":10930,"ĠRehn":10931,"Ġvirus":10932,"Ġselective":10933,"ĠSharon":10934,"ĠBÃ¶ge":10935,"Ġnonsense":10936,"ĠMalmstrÃ¶m":10937,"Ġbacks":10938,"Ġmigrant":10939,"Ġresident":10940,"Ġbackd":10941,"Ã¶der":10942,"Ġdivor":10943,"party":10944,"Ġvigorous":10945,"Ġcontroversy":10946,"Ġcertificates":10947,"ĠJacques":10948,"ĠAnnan":10949,"Ġausp":10950,"Ġsittings":10951,"Ġreprodu":10952,"Ġformulation":10953,"Ġequitable":10954,"sided":10955,"Ġengines":10956,"ĠBarrot":10957,"ĠICT":10958,"ĠBangladesh":10959,"Ġuncontrolled":10960,"NA":10961,"iological":10962,"ede":10963,"Ġarena":10964,"Ġlibr":10965,"orship":10966,"Ġbreakdown":10967,"Ġcommendable":10968,"Ġcatastrophic":10969,"forestation":10970,"Ġcongestion":10971,"Equ":10972,"vency":10973,"Ġtempor":10974,"ĠTEN":10975,"ĠKal":10976,"Ġdetect":10977,"Ġrender":10978,"Ġorganisational":10979,"Ġinfluenced":10980,"Ġarrests":10981,"Ġstabilise":10982,"Ġunequal":10983,"Ġpreconditions":10984,"ĠCypriots":10985,"Ġbreeding":10986,"Ter":10987,"ĠScientific":10988,"Ġsubmission":10989,"Ġmediation":10990,"Ġadvent":10991,"Ġstepped":10992,"Ġtragedies":10993,"Ġunreserved":10994,"ĠDelors":10995,"ĠEthiopia":10996,"Ġpredomin":10997,"ĠInstrument":10998,"21":10999,"wed":11000,"Ġcraft":11001,"Ġonwards":11002,"ĠBen":11003,"ĠâĢĶ":11004,"ĠInnovation":11005,"ĠOpportunities":11006,"Ġreminds":11007,"ĠMoroccan":11008,"Ġunderestimate":11009,"Mar":11010,"None":11011,"eal":11012,"Ġtied":11013,"inen":11014,"ulph":11015,"ĠBo":11016,"Ġdefines":11017,"ĠJun":11018,"Ġdonation":11019,"Ġharvest":11020,"oes":11021,"Ġsessions":11022,"Ġloyal":11023,"ĠSaud":11024,"ightened":11025,"ĠNap":11026,"ĠNepal":11027,"Ġadvised":11028,"Ġexplore":11029,"Ġfatal":11030,"Ġnurs":11031,"stein":11032,"Ġeating":11033,"idal":11034,"mpro":11035,"Ġcontaminated":11036,"Ġpremiums":11037,"iqu":11038,"sun":11039,"ĠEd":11040,"rav":11041,"Ġheed":11042,"Ġfactory":11043,"Ġrealize":11044,"Ġregulators":11045,"Ġdevise":11046,"Ġinvestigating":11047,"International":11048,"Ġstimulus":11049,"Ġfather":11050,"employment":11051,"Ġju":11052,"agon":11053,"Ġclim":11054,"Ġdealings":11055,"iolence":11056,"Ġtraditionally":11057,"Ġminimise":11058,"Ġdollars":11059,"Ġoutlook":11060,"opoulos":11061,"bet":11062,"Ġwest":11063,"Ġspheres":11064,"ĠMove":11065,"ĠStalin":11066,"ĠJord":11067,"Ġaids":11068,"Ġchildcare":11069,"Ġverify":11070,"Ġverification":11071,"ĠBelarusian":11072,"Paragraph":11073,"EM":11074,"Ġsle":11075,"Ġstret":11076,"Ġpersonality":11077,"Ġheadings":11078,"Ġengaging":11079,"Ġcontracting":11080,"Ġsupposedly":11081,"Ġsacrifice":11082,"Ġduplication":11083,"Ġchoosing":11084,"Ġatrocities":11085,"Ġfant":11086,"Ġrain":11087,"ĠDrug":11088,"Ġattent":11089,"Ġreads":11090,"Ġreflecting":11091,"Ġgrasp":11092,"Ġclassified":11093,"brid":11094,"ĠObama":11095,"Consumers":11096,"ĠMaurit":11097,"ĠRefuge":11098,"orily":11099,"ĠCarl":11100,"olf":11101,"ĠMe":11102,"ĠSant":11103,"ĠGh":11104,"Ġforeseen":11105,"Ġweakest":11106,"Ġbombs":11107,"Ġrarely":11108,"Ġfeasibility":11109,"Ġcotton":11110,"Ġenters":11111,"Ġlimitation":11112,"Ġcongratulated":11113,"Ġstudent":11114,"Ġbroadband":11115,"Ġfacilitation":11116,"Ġdischar":11117,"Ġdissatisf":11118,"Ġinstructions":11119,"Ġclubs":11120,"71":11121,"best":11122,"Ġupper":11123,"Ġfur":11124,"ali":11125,"Ġdiet":11126,"Ġalia":11127,"oses":11128,"lla":11129,"ĠVol":11130,"Ġurges":11131,"Energy":11132,"Research":11133,"Ġreciprocal":11134,"Ġdisplayed":11135,"Ġillnesses":11136,"Ġenemy":11137,"Prog":11138,"sted":11139,"Ġgames":11140,"Ġprovince":11141,"Ġassigned":11142,"ĠChurch":11143,"Ġinteraction":11144,"Ġreduces":11145,"ĠVel":11146,"Ġcorrupt":11147,"Ġaccorded":11148,"Ġnets":11149,"ĠArafat":11150,"Enlargement":11151,"Ġtemptation":11152,"Ġmortality":11153,"Ġexagger":11154,"Looking":11155,"cut":11156,"Ġafore":11157,"otti":11158,"osity":11159,"ects":11160,"Ġdecou":11161,"Ġmeasuring":11162,"Ġvaried":11163,"Ġ51":11164,"Ġreadily":11165,"Ġlocally":11166,"Ġeleven":11167,"Ġmisery":11168,"Ġallocating":11169,"Ġ130":11170,"ĠCox":11171,"Ġspectac":11172,"Ġneutrality":11173,"ĠTribunal":11174,"Ġcum":11175,"Ġhier":11176,"Ġrebuild":11177,"ĠRen":11178,"ĠNon":11179,"ords":11180,"Ġlegislator":11181,"ĠProsec":11182,"Ġrenewables":11183,"Ġarguing":11184,"Ġlabelled":11185,"Exper":11186,"Ġdynamism":11187,"ĠJosÃ©":11188,"ĠSaudi":11189,"Op":11190,"RC":11191,"Ġdeploy":11192,"fficial":11193,"Ġcounts":11194,"plete":11195,"ologne":11196,"Ġinflict":11197,"Ġstatutory":11198,"nez":11199,"Ġ2014":11200,"Ġfifty":11201,"ĠNiels":11202,"Democ":11203,"isa":11204,"ĠCategory":11205,"Ġseconds":11206,"Ġlifesty":11207,"Ġcharging":11208,"contract":11209,"ĠTechnology":11210,"ĠGarc":11211,"Ġmusic":11212,"Ġlandscape":11213,"Pol":11214,"Å¡":11215,"Ġfru":11216,"ĠRio":11217,"rators":11218,"ĠInquiry":11219,"Ġexperiments":11220,"Ġgenerating":11221,"Ġdocumentation":11222,"Ġcondemns":11223,"ĠCanary":11224,"Ġfostering":11225,"Ġadhered":11226,"Ġconfrontation":11227,"Ġsmoothly":11228,"Ġwarnings":11229,"Citizens":11230,"Ġkm":11231,"Ġtransaction":11232,"Ġoperator":11233,"ĠBelgrade":11234,"Ġdecisively":11235,"Ġrevenues":11236,"Ġoverlooked":11237,"Ġfragmentation":11238,"Ġballot":11239,"Ġvillages":11240,"easures":11241,"92":11242,"lining":11243,"trade":11244,"aten":11245,"lete":11246,"ĠFour":11247,"ĠWHO":11248,"Ġdrain":11249,"Ġrealisation":11250,"Ġexploiting":11251,"Ġcalculation":11252,"Ġpassports":11253,"Ġseaf":11254,"Ġmanufactured":11255,"ROM":11256,"Ġadmittedly":11257,"Ġkidnapp":11258,"Ġauspices":11259,"Ġaforementioned":11260,"80":11261,"Eff":11262,"Great":11263,"Ġbesides":11264,"Ġdeeds":11265,"ĠAlex":11266,"ĠFar":11267,"ĠList":11268,"Ġobjectively":11269,"Ġinterpreters":11270,"ĠCardiff":11271,"CR":11272,"Ġpand":11273,"ste":11274,"ĠFe":11275,"Ġrevol":11276,"Ġheadquarters":11277,"Ġreferenda":11278,"Ġmanufacturer":11279,"ĠEPP":11280,"Ġunequivocally":11281,"Ġinconsistent":11282,"Ġinhumane":11283,"Ġsubscribe":11284,"Ġpollutants":11285,"Ġtemporarily":11286,"Ġice":11287,"ĠQuestions":11288,"Ġtuberculosis":11289,"Ġcoc":11290,"Ġanch":11291,"oty":11292,"ĠCologne":11293,"Ġseed":11294,"ĠGNP":11295,"Ġcommand":11296,"ĠByr":11297,"taining":11298,"Ġelite":11299,"Ġwarned":11300,"iscrimin":11301,"roducts":11302,"Barroso":11303,"Ġstone":11304,"Ġlegislature":11305,"Ġ56":11306,"Ġverdict":11307,"ĠBurundi":11308,"Ġconformity":11309,"55":11310,"Good":11311,"Ġax":11312,"Ġsuited":11313,"Ġoffset":11314,"Ġinterl":11315,"Ġ57":11316,"Ġcombining":11317,"ĠSeville":11318,"Ġfulfilment":11319,"Ġtighten":11320,"ĠLama":11321,"Ġsid":11322,"Ġbread":11323,"Ġstagn":11324,"ĠSim":11325,"Ġregrets":11326,"obel":11327,"egisl":11328,"Ġnegotiators":11329,"Ġreset":11330,"Ġtraders":11331,"Ġlandf":11332,"Ġendorses":11333,"generation":11334,"ĠByrne":11335,"Bur":11336,"attle":11337,"ĠWater":11338,"Ġglass":11339,"Ġmineral":11340,"identally":11341,"Ġinflux":11342,"ĠKyi":11343,"Ġdesperately":11344,"Ġentrusted":11345,"kop":11346,"raining":11347,"ĠSy":11348,"Ġovers":11349,"paid":11350,"Ġforwarded":11351,"Ġamounting":11352,"Ġstudying":11353,"Ġfortun":11354,"Ġdictatorships":11355,"Ġworsening":11356,"Ġlicensing":11357,"Gu":11358,"Ãª":11359,"ĠSub":11360,"Ġimages":11361,"ĠLIFE":11362,"Ġspecifications":11363,"Ġ53":11364,"ĠArgent":11365,"Ġarriving":11366,"tlement":11367,"Ġexplains":11368,"Ġtroubl":11369,"ĠAgricultural":11370,"Ġexecuted":11371,"Ġdropped":11372,"ĠMerkel":11373,"ĠRothley":11374,"Ġunconditional":11375,"BG":11376,"Mon":11377,"National":11378,"case":11379,"Ġozone":11380,"otic":11381,"Ġseal":11382,"ĠAth":11383,"ĠBusiness":11384,"Ġinvasion":11385,"Ġsocialists":11386,"Ġcorrection":11387,"Ġemployer":11388,"Ġeventual":11389,"Ġhearts":11390,"rendt":11391,"Overall":11392,"Ġthresholds":11393,"Ġprivileges":11394,"Ġdelete":11395,"Ġaccede":11396,"Ġconvenience":11397,"23":11398,"iations":11399,"run":11400,"itutions":11401,"ĠCast":11402,"Ġgath":11403,"ĠMore":11404,"Ġexpectation":11405,"Ġfinalised":11406,"Ġyounger":11407,"Ġobsc":11408,"continu":11409,"Ġrelocations":11410,"Ġdisappearance":11411,"Ġfragmented":11412,"Equally":11413,"Dec":11414,"etting":11415,"Ġmaize":11416,"Ġemphasized":11417,"Ġpave":11418,"ĠECR":11419,"Ġresponds":11420,"Ġdoctor":11421,"Ġinjuries":11422,"Ġvaccines":11423,"Ã¨re":11424,"ĠDu":11425,"Ġevidently":11426,"Ġlegacy":11427,"Ġparalys":11428,"ĠSudanese":11429,"Ġspeculative":11430,"Ġloopholes":11431,"Ġunavoid":11432,"Ġbackdrop":11433,"bol":11434,"dis":11435,"Ġvers":11436,"erc":11437,"Ġbirds":11438,"urches":11439,"ĠGAT":11440,"Ġcoin":11441,"Ġnovel":11442,"ĠKla":11443,"Ġcivilised":11444,"Ġprofitability":11445,"Ġsynergies":11446,"ilings":11447,"ĠCas":11448,"ĠNobel":11449,"luous":11450,"eck":11451,"ĠMcCreevy":11452,"Ġprerogatives":11453,"Ġinspiration":11454,"draftsman":11455,"ĠCIA":11456,"Ġshed":11457,"umes":11458,"ĠRoc":11459,"Ġcritici":11460,"Ġconstructively":11461,"Ġspeeding":11462,"Ġaggrav":11463,"Ġfingerprin":11464,"ĠDiam":11465,"Ġcontinents":11466,"ounding":11467,"Ġversions":11468,"Ġcorresponds":11469,"Ġslightest":11470,"Ġbeneficiary":11471,"Ġdisgraceful":11472,"Ġtrigg":11473,"compliance":11474,"Behrendt":11475,"Ġsympt":11476,"BC":11477,"Ġpione":11478,"Ġlod":11479,"andzio":11480,"Ġ92":11481,"ĠWorkers":11482,"ĠSuu":11483,"five":11484,"tte":11485,"Ġforwards":11486,"ĠPra":11487,"ĠSir":11488,"Ġheating":11489,"ĠLulling":11490,"Ġreminding":11491,"ĠMedina":11492,"Ġenjoys":11493,"Ġsmoke":11494,"Ġdiscriminated":11495,"Plath":11496,"Ġproportions":11497,"Ġsuperfluous":11498,"stedt":11499,"ĠCamp":11500,"elho":11501,"ĠStand":11502,"ĠBus":11503,"Ġindiscrimin":11504,"Ġrose":11505,"ĠChech":11506,"Ġreasoning":11507,"Ġmodify":11508,"Ġ96":11509,"Ġholdings":11510,"Ġcataly":11511,"represent":11512,"Ġbeliefs":11513,"Ġextremist":11514,"Ġprecious":11515,"Ġresignation":11516,"Ġforeseeable":11517,"Ġspons":11518,"Currently":11519,"Ġtransplant":11520,"26":11521,"inarily":11522,"Ġcra":11523,"anism":11524,"Ġfile":11525,"Ġfals":11526,"ĠMitch":11527,"ĠGerm":11528,"Ġimply":11529,"ĠKash":11530,"Ġfunctional":11531,"Ġsafely":11532,"Ġapproxim":11533,"Recently":11534,"ON":11535,"aur":11536,"Ã¯":11537,"ima":11538,"ests":11539,"enders":11540,"ensen":11541,"Ġlament":11542,"lessness":11543,"Ġinsistence":11544,"Ġreinforcement":11545,"Ġmisunderstand":11546,"question":11547,"ĠAlgerian":11548,"omorrow":11549,"Ġideals":11550,"Ġreaches":11551,"ervis":11552,"ierra":11553,"Ġpolluting":11554,"Ġrulings":11555,"Ġunchanged":11556,"YROM":11557,"ham":11558,"lad":11559,"Ġsulph":11560,"Ġcite":11561,"ĠBour":11562,"Ġindign":11563,"Ġpert":11564,"uccess":11565,"Ġcarcin":11566,"Ġconflicting":11567,"ĠAnti":11568,"Ġappearance":11569,"Ġvacu":11570,"Ġprincipally":11571,"Ġaccommodate":11572,"Ġjuncture":11573,"German":11574,"Ġsn":11575,"Ġster":11576,"ĠUnder":11577,"ostlander":11578,"Ġquestioned":11579,"Ġcurtail":11580,"Ġphot":11581,"Ġcounterproductive":11582,"Ġbulk":11583,"Ġintimidation":11584,"ignificant":11585,"Ġgathered":11586,"AG":11587,"WIF":11588,"Ġtsun":11589,"emp":11590,"trans":11591,"solete":11592,"Ġcontempl":11593,"Ġcoach":11594,"ĠFord":11595,"Ġevasion":11596,"ĠWales":11597,"Ġcohes":11598,"Ġwinter":11599,"airo":11600,"Agenda":11601,"Ġdemonstrators":11602,"Ġchaired":11603,"Something":11604,"ĠUCLAF":11605,"WIFT":11606,"INI":11607,"Work":11608,"kara":11609,"night":11610,"Ġsing":11611,"Ġally":11612,"atem":11613,"Ġrespectively":11614,"parency":11615,"Ġmodifications":11616,"Ġ54":11617,"Ġimposes":11618,"awa":11619,"Ġpetrol":11620,"Ġmurders":11621,"Ġgathering":11622,"Ġliterally":11623,"ĠValen":11624,"Ġdiesel":11625,"Too":11626,"asant":11627,"Ġmodulation":11628,"Ġimmigrant":11629,"Ġcontinuously":11630,"Ġskilled":11631,"Ġignor":11632,"Ġwondering":11633,"Ġinterview":11634,"poll":11635,"Ġwithdrawing":11636,"Ġautomotive":11637,"Ġ1970":11638,"Ġhesitate":11639,"Ġmilestone":11640,"ĠJordan":11641,"South":11642,"icia":11643,"otal":11644,"rained":11645,"Ġmaster":11646,"arks":11647,"arest":11648,"Ġboat":11649,"Ġexchanging":11650,"Ġconservative":11651,"ĠVelzen":11652,"rank":11653,"ĠSmall":11654,"Ġliberalising":11655,"Ġmodernising":11656,"Ġafforded":11657,"Ġcalculations":11658,"Ġfertil":11659,"ĠDalai":11660,"ĠRobert":11661,"ĠGarcÃŃa":11662,"Ġvacuum":11663,"High":11664,"democratic":11665,"mir":11666,"Ġdile":11667,"Ġpossession":11668,"petitive":11669,"Ġinsists":11670,"Ġbuses":11671,"Ġpeacefully":11672,"Ġpotato":11673,"aluation":11674,"Ġtolerated":11675,"Ġmachine":11676,"voire":11677,"aes":11678,"net":11679,"zens":11680,"Ġobsolete":11681,"Ġ58":11682,"Ġcircles":11683,"finite":11684,"Ġcleaner":11685,"ĠAlbanians":11686,"ĠDimension":11687,"Freedom":11688,"Ġframe":11689,"edoph":11690,"eland":11691,"Ġundergoing":11692,"Ġrelatives":11693,"ĠWith":11694,"Ġcolour":11695,"Ġceilings":11696,"Ġbitter":11697,"FIN":11698,"Ġsecurities":11699,"Ġrestraint":11700,"Ã´te":11701,"ĠProsecutor":11702,"VC":11703,"Ġgear":11704,"Ġgang":11705,"Ġconvers":11706,"Ġreservation":11707,"Ġoverdue":11708,"abuc":11709,"Ġnorms":11710,"Ġredistribution":11711,"Herzegovina":11712,"Ġremuneration":11713,"ĠKazakh":11714,"37":11715,"Ġcited":11716,"emics":11717,"ishment":11718,"ĠRandzio":11719,"arers":11720,"actorily":11721,"which":11722,"Ġdegrad":11723,"ynn":11724,"ĠCanad":11725,"Ġextraordinarily":11726,"Ġescalation":11727,"Ġhabits":11728,"ĠRwanda":11729,"ĠUzbekistan":11730,"?'":11731,"langes":11732,"sely":11733,"ĠSing":11734,"ĠTo":11735,"Ġrout":11736,"Ġrepublic":11737,"Ġspecialists":11738,"Ġdescribes":11739,"ĠCoelho":11740,"ĠSecretariat":11741,"Ġpledge":11742,"ĠManagement":11743,"Ġtraffickers":11744,"Ivoire":11745,"Ġtongue":11746,"Ġnamed":11747,"struct":11748,"ĠSierra":11749,"Ġcoff":11750,"itual":11751,"vironmental":11752,"ritorial":11753,"Ġdestructive":11754,"Ġaccurately":11755,"abucco":11756,"onian":11757,"essim":11758,"Ġinventions":11759,"ibr":11760,"Ġquestioning":11761,"eeded":11762,"Ġblank":11763,"Ġdelegated":11764,"ĠRev":11765,"commerce":11766,"ĠNielson":11767,"jer":11768,"aker":11769,"Ġsolar":11770,"rett":11771,"Ġobserving":11772,"Ġperforming":11773,"Ġabandoning":11774,"Ġliquidity":11775,"Ġodds":11776,"Ġhamper":11777,"Ġobservance":11778,"Ġdistrict":11779,"ltimately":11780,"Voting":11781,"una":11782,"Ġleap":11783,"Ġsynergy":11784,"Ġgrips":11785,"Ġincineration":11786,"Ġreimbursement":11787,"ĠFormer":11788,"January":11789,"Up":11790,"otted":11791,"Ġenvoy":11792,"ĠGen":11793,"Ġincumb":11794,"Ġclin":11795,"ĠOostlander":11796,"Ġvirtual":11797,"Ġdividing":11798,"Ġaccelerated":11799,"ĠSupervis":11800,"Ġcancelled":11801,"Ġarose":11802,"Ġunexpect":11803,"Ġundesirable":11804,"igo":11805,"ĠNuclear":11806,"Ġbackward":11807,"limited":11808,"Ġprudent":11809,"ĠECOFIN":11810,"Ġhorse":11811,"uters":11812,"ĠPie":11813,"Ġunim":11814,"cons":11815,"iversal":11816,"Americ":11817,"Ġderiv":11818,"Ġtroika":11819,"ĠGuatem":11820,"Ġirrever":11821,"ĠEvans":11822,"dorf":11823,"Support":11824,"Ultimately":11825,"eem":11826,"rim":11827,"ymmet":11828,"Ġshops":11829,"ĠUg":11830,"ĠAut":11831,"ĠFra":11832,"Ġovert":11833,"health":11834,"financial":11835,"track":11836,"Ġoutrageous":11837,"Ġtsunami":11838,"Tomorrow":11839,"aste":11840,"Ġoutcomes":11841,"ĠTom":11842,"Ġtranspose":11843,"Ġjustifies":11844,"Ġbeforehand":11845,"Ġrests":11846,"Ġrecommending":11847,"ĠAnkara":11848,"Ġliberalised":11849,"appy":11850,"Ġwrongly":11851,"Ġcomprehensible":11852,"Ġprofoundly":11853,"Ġaccomplished":11854,"ĠAccession":11855,"Take":11856,"gone":11857,"Ġfee":11858,"Ġaltered":11859,"Ġmag":11860,"Ġconcur":11861,"Ġupset":11862,"Ġracial":11863,"Ġexplos":11864,"Ġplea":11865,"Ġpaedoph":11866,"ĠECSC":11867,"Ġsatisfactorily":11868,"ieties":11869,"aware":11870,"efficient":11871,"Ġdwell":11872,"Bel":11873,"Political":11874,"lyn":11875,"elcome":11876,"Ġpublicity":11877,"Ġyourselves":11878,"Ġlowering":11879,"Cont":11880,"Ġpenalised":11881,"Ġreaffirmed":11882,"Ġcommodities":11883,"atism":11884,"Ġancient":11885,"Ġeager":11886,"ĠDell":11887,"Ġperpet":11888,"Ġconferred":11889,"entials":11890,"arantee":11891,"Ġassisted":11892,"neys":11893,"Ġdrink":11894,"Ġcohesive":11895,"mo":11896,"Ġdish":11897,"ĠMult":11898,"ĠAung":11899,"Ġchurches":11900,"ĠDis":11901,"Ġfraudul":11902,"016":11903,"ĠGalicia":11904,"Ġcorporations":11905,"Recent":11906,"ttes":11907,"Ġvarying":11908,"Ġbonds":11909,"EE":11910,"dated":11911,"Ġcust":11912,"Ġdegrees":11913,"Ġusefulness":11914,"Ġupholding":11915,"Ġdissemin":11916,"Ġhectares":11917,"Ġtheoretical":11918,"Ġpupils":11919,"Ġfrozen":11920,"29":11921,"Faced":11922,"Ġhedge":11923,"ĠNabucco":11924,"apore":11925,"Ġreminder":11926,"Ġoperated":11927,"Ġshortages":11928,"burgh":11929,"ĠBasel":11930,"Ġcoincidence":11931,")].":11932,"Ġreluctant":11933,"ĠBourlanges":11934,"PS":11935,"oris":11936,"ĠSo":11937,"aphne":11938,"Ġsupplemented":11939,"ĠGuid":11940,"ĠEgyptian":11941,"ĠTunisian":11942,"tega":11943,"Ġsquare":11944,"hem":11945,"ournal":11946,"andin":11947,"Ġdirectors":11948,"Ġforeigners":11949,"Ġharmonious":11950,"Ġdeepen":11951,"Ġderive":11952,"Ġchairmen":11953,"Ġretaining":11954,"integ":11955,"Ġfriendship":11956,"ĠNiger":11957,"Incidentally":11958,"Ġmarriage":11959,"SME":11960,"opl":11961,"Ġunquestion":11962,"ĠPresidencies":11963,"ĠFab":11964,"Ġpractised":11965,"Ġundertook":11966,"Ġfrequency":11967,"Ġdepartment":11968,"Ġincomplete":11969,"Ġmalaria":11970,"ĠBÃ¶sch":11971,"ĠFlorenz":11972,"ĠCup":11973,"ĠHerman":11974,"Ġaddiction":11975,"Ġpopulated":11976,"ĠSchreyer":11977,"ombating":11978,"Ġpremises":11979,"Ġencounter":11980,"93":11981,"Mo":11982,"Ġnan":11983,"otage":11984,"ĠCÃ´te":11985,"Ġnotified":11986,"ĠSWIFT":11987,"endar":11988,"Ġprest":11989,"Ġinde":11990,"petit":11991,"Ġconfisc":11992,"Ġexpressions":11993,"abel":11994,"Ġstopping":11995,"Ġdevised":11996,"Ġdistorted":11997,"Ġrecipients":11998,"Ġfederalist":11999,"Ġenforcing":12000,"Ġanxiety":12001,"ĠSupreme":12002,"ĠMulder":12003,"Ġunlawful":12004,"ĠAthens":12005,"Ġunavoidable":12006,"Col":12007,"hof":12008,"missible":12009,"aran":12010,"ĠCastro":12011,"Ġune":12012,"arliamentary":12013,"Ġcommence":12014,"Ġmemorandum":12015,"Ġemerges":12016,"ashed":12017,"Ġparental":12018,"mod":12019,"Ġnoting":12020,"Ġ-,":12021,"Ġinfected":12022,"Ġambiguous":12023,"ĠLithuanian":12024,"Ġroutine":12025,"Ġped":12026,"ilib":12027,"rium":12028,"Ġtrap":12029,"ached":12030,"Ġcapitals":12031,"Ġauthorise":12032,"Ġpublishing":12033,"Ġtendencies":12034,"Ġacknowledging":12035,"growing":12036,"bestos":12037,"andinav":12038,"Bas":12039,"Nord":12040,"Rom":12041,"Ġtends":12042,"Ġinadm":12043,"ĠAdam":12044,"Ġdozens":12045,"itionally":12046,"apter":12047,"Ġadminister":12048,"ĠOrtega":12049,"producing":12050,"Africa":12051,"ĠGermans":12052,"petitiveness":12053,"41":12054,"90":12055,"ded":12056,"vity":12057,"Ġid":12058,"Ġinject":12059,"Ġmism":12060,"Ġunde":12061,"Ġ63":12062,"Ġillicit":12063,"efe":12064,"Ġunnecessarily":12065,"Ġrecipient":12066,"Ġfilms":12067,"Ġprioritise":12068,"elected":12069,"Ġcigarettes":12070,"ĠCatholic":12071,"Ġfortunate":12072,"Ġincumbent":12073,"Ġindefinite":12074,"Action":12075,"falus":12076,"esis":12077,"Ġasymmet":12078,"Ġstup":12079,"Ġsignatories":12080,"Ġwaterways":12081,"Ġadjusted":12082,"Ġprotocols":12083,"Ġendeavouring":12084,"ĠTechnological":12085,"ilipp":12086,"Ġdiscrepancies":12087,"94":12088,"ns":12089,"anagement":12090,"Ġinher":12091,"pered":12092,"atered":12093,"Ġimporting":12094,"Ġtravellers":12095,"Ġshipowners":12096,"Ġprompted":12097,"Likewise":12098,"abilisation":12099,"Ġblatant":12100,"design":12101,"Ġunstable":12102,"hofstadt":12103,"falussy":12104,"sing":12105,"ady":12106,"Ġrepresentations":12107,"Ġpractise":12108,"Ġvaries":12109,"Ġcombated":12110,"Ġexciting":12111,"Ġtermed":12112,"ĠBali":12113,"Ġsupermarket":12114,"Ġillusion":12115,"Ġsky":12116,"Ġinterpretations":12117,"Maybe":12118,"Ġpersuaded":12119,"Ġadvisable":12120,"Ġexhaustive":12121,"ĠKaras":12122,"ĠAviation":12123,"ÂłÂłĠÂłÂł":12124,"Ġspell":12125,"rians":12126,"Ġsuffers":12127,"ĠGovernments":12128,"Ġprosecutor":12129,"Ġunderestimated":12130,"Ġhouseholds":12131,"Ġpatterns":12132,"ĠSingapore":12133,"Ġpessim":12134,"anes":12135,"Inter":12136,"ĠDon":12137,"ĠWynn":12138,"ĠMED":12139,"Ġtightening":12140,"Ġpregnant":12141,"70":12142,"fined":12143,"nar":12144,"thirds":12145,"ava":12146,"Ġclosest":12147,"Ġflat":12148,"Ġtermin":12149,"Ġfeedingstuffs":12150,"ĠRÃ¼big":12151,"zy":12152,"inner":12153,"ctor":12154,"rak":12155,"Ġasbestos":12156,"portant":12157,"emit":12158,"conf":12159,"ĠFern":12160,"Ġjustifiable":12161,"Ġprogressing":12162,"Unlike":12163,"ĠAnge":12164,"Ġbombing":12165,"Ġillustrated":12166,"Ġhesitation":12167,"Ġemotional":12168,"Ġbankruptcy":12169,"Ġbarbaric":12170,"ĠKazakhstan":12171,"36":12172,"overs":12173,"Ġrelying":12174,"Ġwheel":12175,"iger":12176,"Ġlevy":12177,"ĠFat":12178,"ordination":12179,"luding":12180,"Ġdirections":12181,"Ġ2050":12182,"Ġpassage":12183,"Ġindicator":12184,"Ġmetres":12185,"Ġcharacteristic":12186,"COS":12187,"Ġunsustainable":12188,"ĠScandinav":12189,"Ġdetainees":12190,"Ġmunicipal":12191,"Ġhunting":12192,"Ġsulphur":12193,"RA":12194,"bone":12195,"food":12196,"smen":12197,"Ġga":12198,"aint":12199,"Ġlaud":12200,"Ġrooted":12201,"Ġmultipl":12202,"Ġreturns":12203,"Ġsimilarly":12204,"Ġcatal":12205,"Ġappealing":12206,"Ġresumption":12207,"Ġmobilised":12208,"Ġtouches":12209,"ĠArabia":12210,"Ġdialogues":12211,"onic":12212,"Ġwre":12213,"esity":12214,"lets":12215,"Ġtrick":12216,"Ġpolicing":12217,"ĠFYROM":12218,"Ġoblige":12219,"Ġdossiers":12220,"Ġrecitals":12221,"ĠKashmir":12222,"75":12223,"aid":12224,"bene":12225,"cs":12226,"ĠErit":12227,"Ġring":12228,"ams":12229,"Ġplight":12230,"Ġoutput":12231,"Ġtimef":12232,"ĠDaphne":12233,"Ġcurb":12234,"Ġendless":12235,"Ġdrastically":12236,"Ġrealism":12237,"ĠSeattle":12238,"Ġ66":12239,"Ġexacerbated":12240,"Ã©ndez":12241,"28":12242,"bies":12243,"cup":12244,"cap":12245,"Ġmount":12246,"ĠEll":12247,"Ġgrey":12248,"owed":12249,"ĠFa":12250,"Ġrecalled":12251,"Ġtransmitted":12252,"ĠDirectives":12253,"Ġflagrant":12254,"Ġintensified":12255,"established":12256,"Ġconvicted":12257,"Ġbargaining":12258,"Ġunreservedly":12259,"ilibrium":12260,"Bearing":12261,"ĠOne":12262,"onourable":12263,"Ġrebuilding":12264,"Ġunaware":12265,"Ġsupporter":12266,"plementation":12267,"ĠOl":12268,"Ġtargeting":12269,"Ġliberalise":12270,"Ġdenial":12271,"Ġwinners":12272,"ĠBroek":12273,"Ġtougher":12274,"ĠLamfalussy":12275,"Ġsurpluses":12276,"Ġnutrition":12277,"khaz":12278,"eenth":12279,"otion":12280,"Ġweb":12281,"Ġseventh":12282,"Ġconfusing":12283,"Ġuseless":12284,"ailand":12285,"Ġbrand":12286,"Ġedge":12287,"Ġoptimum":12288,"Ġoptional":12289,"Ġreintegration":12290,"ĠRadical":12291,"Fund":12292,"Need":12293,"Ġhus":12294,"trust":12295,"Ġ99":12296,"evident":12297,"Ġjourneys":12298,"risk":12299,"Ġdeplorable":12300,"ĠIndonesian":12301,"ĠLeonardo":12302,"Ġbathing":12303,"ĠMauritania":12304,"44":12305,"iating":12306,"lean":12307,"imal":12308,"aringdorf":12309,"mittedly":12310,"ĠCroatian":12311,"Ġstabilising":12312,"ĠAbkhaz":12313,"Ġaeropl":12314,"Ġbon":12315,"Ġhoney":12316,"Ġalien":12317,"rable":12318,"igm":12319,"ĠUniversity":12320,"ĠVigo":12321,"Ġfreeze":12322,"Ġoriginating":12323,"Ġturnover":12324,"Ġskill":12325,"ĠBlok":12326,"Ġwinner":12327,"Explan":12328,"increasing":12329,"Ġmanipulation":12330,"onymous":12331,"Ġapproximation":12332,"SMEs":12333,"Nordic":12334,"card":12335,"fast":12336,"long":12337,"iten":12338,"orious":12339,"ĠPost":12340,"ĠSam":12341,"Ġrice":12342,"Ġmakers":12343,"acc":12344,"Ġoutdated":12345,"Ġrepay":12346,"avoured":12347,"Ġdeteriorating":12348,"munia":12349,"Ġhierarchy":12350,"sub":12351,"inos":12352,"ĠSection":12353,"ighth":12354,"Ġchurch":12355,"Ġdevelops":12356,"Ġrecast":12357,"abs":12358,"Ġevaluations":12359,"Ġdelaying":12360,"Ġvoluntarily":12361,"Ġcelebrating":12362,"Ġtransformed":12363,"decision":12364,"bollah":12365,"Act":12366,"Hope":12367,"Ro":12368,"mma":12369,"needed":12370,"ta":12371,"ĠCross":12372,"ĠSky":12373,"elf":12374,"ĠTemporary":12375,"ĠKat":12376,"Ġdifferentiated":12377,"Ġfreezing":12378,"Ġorigins":12379,"Ġdestiny":12380,"Ġdesignation":12381,"Ġwidening":12382,"ĠHaut":12383,"Ġscandals":12384,"ĠGMO":12385,"Admittedly":12386,"aturday":12387,"ĠOslo":12388,"Ġindifferent":12389,"Ġcasual":12390,"Ġdilemma":12391,"felt":12392,"lene":12393,"ĠCity":12394,"Ġvain":12395,"Ġdisruption":12396,"development":12397,"Ġfamine":12398,"Ġholders":12399,"Ġqualify":12400,"Ġseparated":12401,"Ġsounds":12402,"committee":12403,"Ġrigorously":12404,"Ġrectify":12405,"Ġticket":12406,"Ġtickets":12407,"Ġenthusiastic":12408,"Ġtactics":12409,"ĠRocard":12410,"ĠMitchell":12411,"Ġhusband":12412,"ĠHautala":12413,"Govern":12414,"Global":12415,"dr":12416,"Ã£":12417,"Ġseized":12418,"ogical":12419,"Ġbroke":12420,"Ġsupplying":12421,"Ġsolemn":12422,"Ġpledged":12423,"Ġendanger":12424,"Ġchampion":12425,"ĠTitley":12426,"Ġcorridors":12427,"Ġresettlement":12428,"33":12429,"Time":12430,"Ġprox":12431,"ĠSaturday":12432,"Ġaller":12433,"Ġlikelihood":12434,"Ġperse":12435,"Ġgeneric":12436,"Ġbalancing":12437,"ckx":12438,"Ġblockade":12439,"clared":12440,"Ġmassacre":12441,"Ġambiguity":12442,"ogenic":12443,"Ġpockets":12444,"Ġrepatriation":12445,"ĠJuncker":12446,"ĠCanadian":12447,"Others":12448,"Ukra":12449,"dac":12450,"Ġinac":12451,"Ġdeaf":12452,"amount":12453,"fficking":12454,"ĠBaringdorf":12455,"Ġrecur":12456,"Ġhopeful":12457,"Ġequilibrium":12458,"levant":12459,"Ġ86":12460,"Ġmultif":12461,"Ġheaded":12462,"Ġconsisting":12463,"ĠEnvironmental":12464,"ĠFlorence":12465,"ÅĦ":12466,"Ġfilled":12467,"educ":12468,"Ġshot":12469,"ĠRam":12470,"ĠTob":12471,"ĠChapter":12472,"Ġesteem":12473,"Ġexpectancy":12474,"Ġcomplies":12475,"Ġcalendar":12476,"ĠGeorgian":12477,"Ġattendance":12478,"Ġprescribed":12479,"Ġmultilingualism":12480,"Ġdesertification":12481,"Progress":12482,"Ġsoul":12483,"Ġrethink":12484,"Ġnative":12485,"thal":12486,"terckx":12487,"Ġimpover":12488,"ibe":12489,"aked":12490,"Ġformat":12491,"Ġinflex":12492,"ĠSociety":12493,"Ġcrucially":12494,"Ġscientifically":12495,"Ġcriticising":12496,"ĠBritt":12497,"Ġzu":12498,"Ġcycl":12499,"ĠMandelson":12500,"Ġbenchmarks":12501,"Ġseafarers":12502,"rettably":12503,"rot":12504,"Ġlively":12505,"Ġstories":12506,"Ġrivers":12507,"Ġincidence":12508,"weight":12509,"Ġlaps":12510,"Ġoverha":12511,"Ġhistorically":12512,"ĠBerÃ¨s":12513,"interest":12514,"Ġadvertise":12515,"metics":12516,"Ġslogan":12517,"ask":12518,"ereoty":12519,"ĠBert":12520,"Ġeman":12521,"oye":12522,"Ġtwin":12523,"iningrad":12524,"Ġeducated":12525,"Ġreferral":12526,"Ġmutilation":12527,"ĠGreenland":12528,"Ġcompensatory":12529,"ophobic":12530,"Ġsacrificed":12531,"icks":12532,"ommend":12533,"ĠAdd":12534,"ĠStabilisation":12535,"Ġimporters":12536,"vernight":12537,"Ġconfuse":12538,"Ġthirds":12539,"Ġpresupp":12540,"Ġexporters":12541,"Ġunfounded":12542,"Ġimagination":12543,"Ġbloody":12544,"ĠPeters":12545,"Ġratings":12546,"Ġvigilance":12547,"Ġsteady":12548,"LE":12549,"real":12550,"estors":12551,"posing":12552,"Ġmyth":12553,"Ġdiffers":12554,"Ġratifying":12555,"Ġforever":12556,"Ġphased":12557,"Ġsubsidised":12558,"annoye":12559,"Ġpenalise":12560,"ĠThailand":12561,"restige":12562,"Ġuncertainties":12563,"Ġmotivation":12564,"Ġcosm":12565,"umped":12566,"ĠStaff":12567,"006":12568,"Ġundergo":12569,"Ġattacking":12570,"ourably":12571,"Ġrises":12572,"Ġaccessing":12573,"Ġcleans":12574,"political":12575,"Ġordered":12576,"Ġpreceded":12577,"ĠSenate":12578,"Ġcatalyst":12579,"Far":12580,"Ġovernight":12581,"ĠCS":12582,"olio":12583,"Ġvicious":12584,"occup":12585,"Ġsuppose":12586,"Ġexerted":12587,"pidla":12588,"BP":12589,"cking":12590,"new":12591,"word":12592,"Ġranging":12593,"sile":12594,"Ġobesity":12595,"Ġintercultural":12596,"ĠAmnesty":12597,"Ġviolating":12598,"Ġ78":12599,"ĠLeone":12600,"Ġconfirming":12601,"Ġembass":12602,"Ġtelecom":12603,"handed":12604,"Ġpertinent":12605,"benefit":12606,"cu":12607,"ĠEE":12608,"Ġluc":12609,"Ġmaf":12610,"Ġjail":12611,"Ġsoya":12612,"Ġoutlines":12613,"Ġawarding":12614,"Ġchangeover":12615,"Ġdestined":12616,"Ġqualification":12617,"Regrettably":12618,"ĠInstitutions":12619,"ĠParagraph":12620,"Ġinefficient":12621,"ĠPhilipp":12622,"ĠDimas":12623,"Ġfier":12624,"Ġdelet":12625,"Ġcool":12626,"Ġexpulsion":12627,"Ġcontributors":12628,"Ġprovider":12629,"ĠAlmunia":12630,"Ġ110":12631,"Ġcounteract":12632,"Ġembarked":12633,"Ġintervening":12634,"Ġfulfils":12635,"ĠCollins":12636,"Ġmultilateralism":12637,"Ġconstituent":12638,"Ġdeprive":12639,"Ġsacrifices":12640,"ĠOsset":12641,"Ġbaby":12642,"Ġsynthetic":12643,"ĠKaliningrad":12644,"hour":12645,"roed":12646,"Ġagri":12647,"Ġamaz":12648,"008":12649,"Ġimpressed":12650,"Ġcargo":12651,"Ġinsight":12652,"Ġqualities":12653,"Ġassociate":12654,"Ġenvisages":12655,"discrimin":12656,"specific":12657,"Ġdisregarded":12658,"marking":12659,"Ġkillings":12660,"Ġreluctance":12661,"Ġportfolio":12662,"ĠArgentina":12663,"osion":12664,"Ġtenth":12665,"Ġnut":12666,"Ġunused":12667,"Ġbusy":12668,"Ġchallenged":12669,"Ġdenomin":12670,"annual":12671,"Ġoccupy":12672,"Ġabandonment":12673,"ĠMovement":12674,"Ġirreversible":12675,"Small":12676,"vation":12677,"Ġinquiries":12678,"ĠSa":12679,"formed":12680,"Ġoverly":12681,"private":12682,"Ġbreaks":12683,"Ġfacilitated":12684,"ĠQue":12685,"Ġgrassroots":12686,"ĠBuiten":12687,"ĠFifth":12688,"Ġfraudulent":12689,"ĠBlokland":12690,"Kenna":12691,"den":12692,"Ġtant":12693,"eda":12694,"Ġdeforestation":12695,"iech":12696,"agues":12697,"ĠLannoye":12698,"Ġoverf":12699,"ethnic":12700,"Ġgenerosity":12701,"Ġheartfelt":12702,"Ġignores":12703,"Ġoccasionally":12704,"Ġwealthy":12705,"ĠJewish":12706,"Ġtherap":12707,"43":12708,"MO":12709,"social":12710,"Ġsand":12711,"ĠETA":12712,"ĠImm":12713,"Ġdogm":12714,"Ġoutright":12715,"Ġpresently":12716,"ĠOfficial":12717,"ashman":12718,"unta":12719,"Ġcustomer":12720,"Ġtropical":12721,"Ġmidst":12722,"Ġstaying":12723,"Ġinterfering":12724,"Ġaccommodation":12725,"Ġcancellation":12726,"Ġintermediate":12727,"ĠFeira":12728,"47":12729,"91":12730,"mond":12731,"sm":12732,"sessions":12733,"Ġnationalist":12734,"Ġbroaden":12735,"Ġtimesc":12736,"Ġpenet":12737,"Ġoccurrence":12738,"Ġmobilising":12739,"Agricult":12740,"Ġentrepreneurial":12741,"Ġdecentralisation":12742,"Ġmagnific":12743,"Ġdespair":12744,"Ġbatteries":12745,"Ġperpetu":12746,"Ã£o":12747,"78":12748,"Ġnotwithstanding":12749,"illon":12750,"Ġstereoty":12751,"ĠSav":12752,"anted":12753,"ĠApp":12754,"eek":12755,"ĠLet":12756,"Ġcomputers":12757,"oyle":12758,"Ġcurious":12759,"ebhardt":12760,"sharing":12761,"Ġacquisition":12762,"Ġpredicted":12763,"Ġcontrav":12764,"Ġsummarise":12765,"Ġfluctuations":12766,"discriminatory":12767,"Impro":12768,"oj":12769,"inem":12770,"Ġreop":12771,"ĠTro":12772,"ĠChirac":12773,"Ġprogressively":12774,"Ġ88":12775,"Ġstandardised":12776,"Ġchiefly":12777,"ĠPrague":12778,"Ġignorance":12779,"Pal":12780,"favoured":12781,"my":12782,"Ġwatered":12783,"Ġdry":12784,"ĠMigu":12785,"ĠGroups":12786,"Ġannum":12787,"Ġquicker":12788,"Ġembra":12789,"Ġharbour":12790,"Ġdedication":12791,"Ġjeopardising":12792,"Council":12793,"ĠGraefe":12794,"ĠChechen":12795,"Ġmisunderstandings":12796,"Hopefully":12797,"Sp":12798,"cia":12799,"Ġjoy":12800,"acies":12801,"Ġpecul":12802,"Ġoversh":12803,"Ġassault":12804,"Ġspouses":12805,"Ġviolates":12806,"Ġappearing":12807,"ĠAznar":12808,"Ġmarginalised":12809,"Ġdisturb":12810,"Ġshopping":12811,"Ġclimatic":12812,"Democracy":12813,"Ġtantamount":12814,"vable":12815,"ĠPir":12816,"Ġran":12817,"ivings":12818,"Ġallotted":12819,"Ġchamber":12820,"ĠGil":12821,"Ġtrium":12822,"ĠLud":12823,"Ġdiscoura":12824,"Ġyours":12825,"Ġ93":12826,"Ġmisg":12827,"Ġuniversally":12828,"Ġhostile":12829,"Ġprevails":12830,"Ġforums":12831,"Ġdevastated":12832,"Ġvolatility":12833,"Ġlandfill":12834,"cifically":12835,"puy":12836,"Ġtrees":12837,"erated":12838,"Ġsoph":12839,"Ġfits":12840,"Ġclearing":12841,"Ġdiscourage":12842,"ĠKu":12843,"ĠKof":12844,"ĠPoles":12845,"Ġrenegoti":12846,"ĠRompuy":12847,"Ġcircumvent":12848,"ackson":12849,"Ġdonations":12850,"arios":12851,"Ġallegedly":12852,"Ġintensity":12853,"Ġashamed":12854,"Ġmitigate":12855,"Ġauction":12856,"Ġtoken":12857,"reating":12858,"Ġdisrupt":12859,"ĠDam":12860,"Ġinviting":12861,"Ġinfection":12862,"Ġ68":12863,"Ġguideline":12864,"ĠProgressive":12865,"Ġcontinental":12866,"Ġendorsement":12867,"ĠVerhofstadt":12868,"Ġattributed":12869,"Ġmassacres":12870,"FOR":12871,"Ġdepleted":12872,"Ġinadmissible":12873,"Disc":12874,"ios":12875,"ius":12876,"isible":12877,"Ġmira":12878,"ctory":12879,"Ġgun":12880,"Ġyard":12881,"ĠGrad":12882,"ĠGBP":12883,"gyz":12884,"meat":12885,"Ġimproper":12886,"ĠLeinen":12887,"Ġallocations":12888,"Ġstaffing":12889,"yrgyz":12890,"Ġmeaningless":12891,"Ġconditionality":12892,"ĠMcKenna":12893,"Ġreinforces":12894,"Ġscenarios":12895,"Ġfronts":12896,"Fifthly":12897,"Ġdivorce":12898,"Ġderivatives":12899,"Ġundeclared":12900,"ĠOssetia":12901,"Ġdenominator":12902,"Ġpit":12903,"aling":12904,"ĠUniversal":12905,"Ġchick":12906,"acism":12907,"Ġpred":12908,"Ġtraps":12909,"ĠNa":12910,"Ġassign":12911,"ĠZaire":12912,"Ġrichest":12913,"ducive":12914,"load":12915,"Ġcomprising":12916,"Ġdecoupling":12917,"ĠGATT":12918,"Ġdegradation":12919,"Ev":12920,"asive":12921,"Ġsham":12922,"ivic":12923,"Int":12924,"Ġupcoming":12925,"Ġrecre":12926,"assauer":12927,"ĠKall":12928,"Ġbrill":12929,"Ġdetected":12930,"Ġestablishments":12931,"ĠPolitical":12932,"Ġhugely":12933,"Health":12934,"effective":12935,"Ġtimetables":12936,"Speaking":12937,"Various":12938,"lor":12939,"working":12940,"Ġreall":12941,"style":12942,"peut":12943,"utable":12944,"ower":12945,"illa":12946,"Ġcomposed":12947,"Ġlaugh":12948,"Ġpreventative":12949,"Ġmotives":12950,"Ġidentities":12951,"Ġcorrections":12952,"Ġdisciplinary":12953,"Ġemotion":12954,"Ġacceding":12955,"Ġvillage":12956,"Ġcosmetics":12957,"Needless":12958,"list":12959,"math":12960,"ÂŃ":12961,"Ġcater":12962,"Ġdoping":12963,"ĠMun":12964,"ulled":12965,"ĠPrestige":12966,"change":12967,"Ġstored":12968,"Ġstuck":12969,"oca":12970,"ĠRh":12971,"Ġrecru":12972,"Ġletting":12973,"Ġdistances":12974,"Ġcoasts":12975,"Ġricher":12976,"ĠWarrant":12977,"isenberg":12978,"Ġcleansing":12979,"Based":12980,"Ġtram":12981,"Ġconducive":12982,"iller":12983,"Ġvide":12984,"Ġdisgu":12985,"Ġinclined":12986,"icultural":12987,"Ġplane":12988,"ĠPaul":12989,"ĠNGO":12990,"ĠFischer":12991,"Ġpredictable":12992,"ĠAbkhazia":12993,"Ġmisgivings":12994,"ĠGradin":12995,"34":12996,"Ġbes":12997,"uma":12998,"Ġcontemporary":12999,"Ġcommunicated":13000,"Ġidentifies":13001,"Ġsheet":13002,"Ġvolumes":13003,"Ġcoordinators":13004,"Ġexplosion":13005,"Ġemergencies":13006,"control":13007,"shore":13008,"Ġsteadily":13009,"Ġoversight":13010,"ĠDuisenberg":13011,"Ġindignation":13012,"Due":13013,"itar":13014,"Ġmarch":13015,"Ġforty":13016,"igious":13017,"Ġcancel":13018,"Information":13019,"elli":13020,"armers":13021,"Ġaftermath":13022,"Ġdistress":13023,"ĠSchroed":13024,"Almost":13025,"Ġerosion":13026,"Ġlanding":13027,"Ġillustration":13028,"ĠTransatlantic":13029,"Ġchannelled":13030,"Ġremedies":13031,"Ġexacerbate":13032,"ĠÅłpidla":13033,"Ġlaudable":13034,"rm":13035,"ĠCold":13036,"ĠEqu":13037,"amm":13038,"render":13039,"Ġadvancing":13040,"Ġphone":13041,"Ġanswering":13042,"Ġ98":13043,"ĠRecon":13044,"Ġdignified":13045,"Ġassem":13046,"Ġceremon":13047,"Ġpretend":13048,"Ġscepticism":13049,"Ġunhappy":13050,"Ġcynical":13051,"Ġtriggered":13052,"09":13053,"voc":13054,"Äĥ":13055,"Ġfram":13056,"opath":13057,"usa":13058,"Ġages":13059,"Ġseeds":13060,"Ġprovin":13061,"Ġfactual":13062,"Ġimpasse":13063,"lude":13064,"Ġmature":13065,"Ġdefer":13066,"ĠJackson":13067,"Ġobjects":13068,"ĠTheato":13069,"Ġmultip":13070,"Ġheadway":13071,"Ġspiral":13072,"Ġhorror":13073,"Ġpremise":13074,"Ġtortured":13075,"Ġdoctrine":13076,"Ġtempted":13077,"Ġcomprises":13078,"Ġliquid":13079,"Financial":13080,"ibralt":13081,"Ukraine":13082,"peutic":13083,"Six":13084,"rating":13085,"ĠIz":13086,"ĠSterckx":13087,"ighting":13088,"Ġdemag":13089,"Ġ350":13090,"Ġinsol":13091,"Ġdistribute":13092,"ĠHungarians":13093,"ĠTurkmen":13094,"Ġdoubled":13095,"Ġautomobile":13096,"Ġsupplier":13097,"Ġsurveys":13098,"Ġpostponing":13099,"ĠKenya":13100,"ĠGuatemala":13101,"ĠElles":13102,"Measures":13103,"rÃ©":13104,"ÃŁ":13105,"Ġsin":13106,"ĠCorn":13107,"Ġaged":13108,"artite":13109,"ightening":13110,"rometer":13111,"Ġbutter":13112,"ĠRap":13113,"ĠHans":13114,"Ġreck":13115,"Ġdetection":13116,"Ġfeared":13117,"Ġglobalization":13118,"competitive":13119,"Ġforcefully":13120,"Ġdeclining":13121,"Ġarranged":13122,"Ġsexes":13123,"ebted":13124,"ursed":13125,"Ġartistic":13126,"Ġpleasant":13127,"Ġinjury":13128,"chez":13129,"Ġwisely":13130,"ĠBonn":13131,"Ġintermod":13132,"qualified":13133,"Ġdatabases":13134,"Ġreconciling":13135,"Ġtriumph":13136,"Pat":13137,"dumping":13138,"ipt":13139,"usions":13140,"Ġsixt":13141,"orge":13142,"Ġbog":13143,"vez":13144,"ĠClin":13145,"imity":13146,"umption":13147,"ĠGibralt":13148,"ĠAmb":13149,"Ġmoderation":13150,"Ġsuccessor":13151,"Ġdoubtful":13152,"parable":13153,"Ġauthorising":13154,"financed":13155,"Ġlogistics":13156,"Ġdictate":13157,"Ġprevailed":13158,"Ġintensively":13159,"ĠLebanese":13160,"existent":13161,"Ġmachines":13162,"Ġdilig":13163,"Ġmilitarisation":13164,"Opening":13165,"Ġlifestyle":13166,"Ġcatalogue":13167,"Ġfierce":13168,"GA":13169,"Ireland":13170,"ister":13171,"Ġlux":13172,"ocratic":13173,"Ġunlimited":13174,"Ġappra":13175,"ĠJan":13176,"ĠConduct":13177,"Ġpreval":13178,"Ġlawmaking":13179,"Ġconsumed":13180,"Ġintroductory":13181,"Ġ62":13182,"ĠEurodac":13183,"Ġgenerates":13184,"finance":13185,"Ġforgive":13186,"Ġirrelevant":13187,"ĠFirstly":13188,"Ġbranch":13189,"Ġundeniable":13190,"pine":13191,"Ġtiny":13192,"Ġpal":13193,"itement":13194,"Ġgrain":13195,"Ġenjoying":13196,"Polit":13197,"Ġhiding":13198,"ider":13199,"Ġoverturn":13200,"print":13201,"Ġpasses":13202,"Ġsurrender":13203,"Ġ103":13204,"Ġpolls":13205,"Ġpolluter":13206,"ĠThom":13207,"Ġembrace":13208,"Ġdescribing":13209,"015":13210,"ITES":13211,"Ġhydrogen":13212,"ĠFifteen":13213,"Ġpandemic":13214,"Ġunexpected":13215,"Sah":13216,"human":13217,"err":13218,"Ġcinem":13219,"Ġstamp":13220,"Ġconcession":13221,"aysia":13222,"Ġinvestor":13223,"rorist":13224,"ĠUNH":13225,"Ġirr":13226,"Ġ137":13227,"Ġcleared":13228,"Ġunsafe":13229,"Ġplatforms":13230,"Ġholidays":13231,"Ġupgrading":13232,"Better":13233,"Ġcategorically":13234,"Ġproximity":13235,"Ġmagnificent":13236,"Ã²":13237,"Ġfled":13238,"Ġfora":13239,"igue":13240,"Ġsupplements":13241,"rowley":13242,"Ġmiles":13243,"ondo":13244,"ĠLevel":13245,"Ġunders":13246,"Ġcomplementarity":13247,"keepers":13248,"Ġbridges":13249,"Between":13250,"Ġtankers":13251,"Ġpeculiar":13252,"enza":13253,"Ġburning":13254,"Ġrepetition":13255,"Ġrejo":13256,"Ġlunch":13257,"opular":13258,"ĠSac":13259,"Ġinstig":13260,"Ġwellbeing":13261,"ĠJournal":13262,"Ġawful":13263,"Ġcollege":13264,"Ġcomplac":13265,"rupulous":13266,"Ġregisters":13267,"speaking":13268,"Ġnomination":13269,"Semit":13270,"kov":13271,"inence":13272,"icurity":13273,"Ġwhe":13274,"Ġstif":13275,"ĠFunctioning":13276,"Ġnoble":13277,"ĠLange":13278,"ĠKyrgyz":13279,"owned":13280,"Ġlandm":13281,"Ġadherence":13282,"Throughout":13283,"Ġwalls":13284,"ĠArmenian":13285,"Ġendangered":13286,"Ġlivelihoods":13287,"ĠHelms":13288,"ĠÎķ":13289,"Ġtimeframe":13290,"32":13291,"general":13292,"isers":13293,"Ġwond":13294,"oded":13295,"Ġacid":13296,"Ġjunta":13297,"ĠGall":13298,"Ġconsume":13299,"Ġafflict":13300,"Ġenlargements":13301,"Ġconsultative":13302,"Ġdoubtless":13303,"Ġcustomary":13304,"Ġmerger":13305,"Ġaudits":13306,"Ġhomeland":13307,"India":13308,"Particularly":13309,"ĠPhilippines":13310,"ĠLudford":13311,"arc":13312,"Ġbell":13313,"ĠCab":13314,"Ġshores":13315,"Ġbypass":13316,"odox":13317,"ĠBor":13318,"ĠOper":13319,"Ġfavourably":13320,"Ġcorrel":13321,"Ġsuppression":13322,"Ġconstitutions":13323,"Ġextraction":13324,"Ġincorporates":13325,"Ġcoupled":13326,"Ġpurchases":13327,"Ġcapture":13328,"Ġhomosexuals":13329,"lynn":13330,"nistr":13331,"Ġwholes":13332,"ĠCashman":13333,"etime":13334,"quier":13335,"Ġorph":13336,"ĠDÃ¼":13337,"ĠLan":13338,"abelling":13339,"Ġflout":13340,"Ġdeterrent":13341,"Ġ77":13342,"Ġtables":13343,"Ġveal":13344,"ĠAnders":13345,"Ġdioxin":13346,"Ġindifference":13347,"Ġclashes":13348,"Ġmismanagement":13349,"designate":13350,"ommendation":13351,"uing":13352,"win":13353,"inity":13354,"isive":13355,"Ġang":13356,"Ġgulf":13357,"rams":13358,"Ġstir":13359,"ĠDoyle":13360,"sson":13361,"ranca":13362,"Ġembod":13363,"Ġunsc":13364,"Ġacknowledgement":13365,"ĠHaug":13366,"ĠASEM":13367,"Ġbreath":13368,"Ġsleep":13369,"Ġexplosive":13370,"ĠGibraltar":13371,"HR":13372,"missions":13373,"ĠMoz":13374,"ifiably":13375,"Ġtaste":13376,"Ġ-.":13377,"ĠGas":13378,"ĠGebhardt":13379,"ĠFlynn":13380,"ĠHugh":13381,"ĠDaul":13382,"ĠNassauer":13383,"ĠEURO":13384,"ĠMinisterial":13385,"Ġmistrust":13386,"ohl":13387,"Ġtransparently":13388,"Ġcows":13389,"Ġshifting":13390,"Ãªte":13391,"Ġhall":13392,"Ġreopen":13393,"ĠMark":13394,"uss":13395,"Ġinstitutes":13396,"Ġdifferentiation":13397,"Ġmotto":13398,"ĠStrip":13399,"ĠParties":13400,"Ġconvert":13401,"Ġexercises":13402,"ĠICC":13403,"ĠDayton":13404,"ĠÃĸ":13405,"Ġglobe":13406,"Ġenemies":13407,"ĠTajani":13408,"Experience":13409,"quierdo":13410,"Brit":13411,"atics":13412,"ports":13413,"Ġwithhold":13414,"Ġranks":13415,"ivial":13416,"asty":13417,"Ġmini":13418,"Ġbackbone":13419,"Ġinsert":13420,"Ġfundamentalist":13421,"Ġachievable":13422,"Ġtravelled":13423,"Ġexceeds":13424,"Ġabundantly":13425,"BR":13426,"Bl":13427,"west":13428,"otes":13429,"ĠCrowley":13430,"Ġunfore":13431,"Ġscan":13432,"ĠArrest":13433,"ĠRegion":13434,"Ġilliter":13435,"Ġadvantageous":13436,"Ġbelieving":13437,"Ġutilisation":13438,"Ġcrews":13439,"Ġcertificate":13440,"Ġoverriding":13441,"Ġnegligence":13442,"Ġtemperature":13443,"Greater":13444,"Saharan":13445,"after":13446,"huber":13447,"oqu":13448,"Ġpin":13449,"ori":13450,"raw":13451,"Ġshoot":13452,"istory":13453,"Ġprovoc":13454,
[...]
